0401FEFF02FD04FE
0302020403FD04FD
FCFF02020204FF04
02FEFFFC04FE0102
03FD010204FCFE00
FE0503FCFEFD00FC
FD0200FE03050502
0404FE0202FD00FF
01FD040303FE0400
00FD050203FE04FD
04FD02FE03FC04FF
040103040402FDFE
01FC020103FCFE02
0104FCFC05FC00FB
0203FCFFFC010300
01FC04FFFF04FF01
00000101FC030402
0404030103FFFCFC
04FE01FDFC040101
03040400020200FF
FC0200FE02FF0504
0305FFFD01FF02FC
FE050300FCFE0304
0201FC0200FF0302
FDFFFCFC04FBFC00
01FCFD0003020305
FCFF03FDFDFCFEFF
FFFEFE01FD01FFFB
010201FD0400FDFE
01FB00FCFFFF0104
01FEFE020303FCFF
03FD05FE03FFFC04
040500FD03FFFFFF
FE0002FF00FC01FD
0402040302FEFCFE
040302FDFF00FC02
010401FCFC020003
03FDFFFFFEFCFD00
FD0004FE01FC05FD
0402040100FE0303
00FB0400FC020300
0101FF05FE02FFFF
00FE01FF0102FD03
04FE04FC04000202
FF03FD0100FF0303
00FF010004050401
0200FB0401030400
FEFBFBFE00000504
FC0004FD03FDFCFE
01FFFC00FD010105
FEFCFE0400010003
FE040404FFFCFF00
03020304FDFD00FC
03FF04FEFFFE04FE
FD01020500FFFC01
0101010401FC0104
FCFCFF0201FF0104
FCFB04FF02FB0301
FE01FC02FC03FC00
0402FDFFFD050205
FC02FC0405FB01FD
FDFF020203010203
0002030203030205
FB0400FC0304FF05
FD01FD03FE01FFFE
FFFC0305FC0403FD
FF0301FFFFFB00FC
FCFD03FCFE040404
04FC0500FCFF0203
0001FBFE00FF04FE
02FE020400050103
00000200FF01FEFE
FB0401FE010303FC
FE05010005000005
00FDFDFD010404FC
02FBFF00FF04FF05
FCFE010001FE0401
00040403000302FC
FC0002FC01FBFF01
020104FE0204FE03
00FDFE050102FD04
04030403FE000402
000200FFFFFB0303
0001000201FB0105
0101FB05FF00FCFF
00FD040500040300
01FFFEFE01FC0204
01FE000401FCFEFD
FF04FB04FF0501FC
02FD04FE04FFFEFC
02FE000303FE00FB
FCFEFDFCFDFFFEFB
03FF030302020002
FEFC0403FCFF0401
00000300030103FF
FCFE010304FD0202
010405FF0BFF02F9
0203FEFBFC0401FC
030303FC02FEFD03
010308FD05FE05FE
FB00FD0007090206
01030301FC07FDFC
000403FF050005FC
FC0302FB0104FD03
FD0003FB100001F9
FE000300020200F8
FEFDFE020101F800
04FE0A0303FF0804
FD0507050C080408
050400FC030A03FD
FEFFFE08FF0404FF
02FD0201FA0402FC
030203FDFC010303
0404FEFD03FC04FD
FC02FC03FEFDFE02
FEFDFD0401FFFCFB
FF03FEFEFCFE00FE
03FFFE050004FCFD
FCFEFEFDFC030304
FDFF020405FEFF01
FD020200FC000301
FC05FDFF05FDFF01
030502FC03FE04FC
FFFD03FD010002FB
020401FB02010504
FC04FCFDFCFC02FF
FFFC0502FFFE0100
FDFD020104FC05FC
FFFC030103FC0104
FC010401050001FD
FF02FDFB00FFFCFE
FE01FBFE00FBFE05
0202FCFFFC0101FC
FD0301FE010303FF
0101FC01FC03FDFE
FFFCFF040203FFFD
FE02FBFB00FD00FF
00FD0100FFFFFE00
02FE04FBFE0001FD
02FEFFFF04FF0401
FCFC0401FC020202
FD03FE00040002FE
FDFCFEFE04FCFCFB
01FCFD04FE050402
010100FD0201FD04
0404FDFD00FEFE04
01050103FD01FCFF
02FDFF02FE02FD02
FD02FBFE00030102
FF040400FD0201FF
02FDFEFD05010104
00FCFB0204000002
0004020303000104
FC01FCFF020000FD
05FCFC05FFFDFD00
02FD04FCFF00FCFC
01FCFB04FC0000FD
020403FF04FEFC01
FB05FDFCFF000403
0200FEFD01FEFD05
FDFC0001FFFEFEFE
05FDFD02FD01FF04
0405FE0204FF01FD
00040301FE010004
FF0204FDFF0000FE
0101FC00FE0504FF
0400FD01FDFD04FF
010203FEFD03FF02
04020503000103FF
03FD00FEFEFBFF05
FCFFFB00FFFCFD00
03FFFE01FD0400FD
FF020004FFFC0000
020403FE02FD0301
04FE010001040403
FC03FD01FFFFFC04
FF04FB0004FF01FB
FD03FF0200040201
FB03FE03FB040102
05FE0200FBFC00FD
01FF02FD010103FF
FDFF03FCFE040200
04020002FFFDFF02
01FC04FC020502FF
04010404FEFCFDFF
FEFE0001040400FF
FCFE0104FF0402FB
03FEFCFF000003FF
020405000401FCFE
04FCFE05FC0304FF
02FF02FEFB010501
FEFBFDFE04040403
FD04FC01FCFE0005
04FE00FD00050001
00040101FD04FF02
0401FB00FBFCFDFB
000200FEFCFE0403
02FD05FF05FEFF00
01FE03FCFB04FD04
FEFCFC01FB00FB02
FE03FF03FF02FCFD
0202FF0402FEFB02
FE00FDFFFFFCFF00
02FF050305FDFC00
FC0102FDFDFE03FE
FF020505FD040303
FC0404FCFD02FD04
FEFC0003FC040200
03000103FEFE04FC
FC010004FEFD0405
02FE04FFFEFC04FC
02FDFE02040503FE
FEFF01030403FD01
FDFBFE0300FBFE04
FC0504030203FB03
00FF01FDFC0203FD
FE0205FEFCFB0402
FBFD0302FDFC0004
00FEFE0202010503
04030000FFFCFBFC
FD0103020401FD04
FE02FC01030304FB
FF03FCFF000200FB
0503010104040005
03FF04FFFD050201
FDFD03FFFD0104FD
FFFDFDFFFF000405
04FBFDFB03FCFE03
0402050004FC01FF
FCFD01FE0500FC01
03010001FE020405
00010401FE03FCFE
000001FEFC0301FD
040402FD0202FF04
04FFFE0302010105
FE040005FBFC0103
FDFBFDFBFC05FEFC
02FD02FC02FEFEFC
01FF030505FCFE05
FD0200FCFCFDFEFF
FC03FDFCFEFE04FF
FE01FDFD01FFFF02
04FFFEFB04FC0400
00FF000300040202
FD03FE0402FE03FE
FC010005FD00FCFC
0105FC00FE01FD04
FB010502FEFEFEFC
FFFEFC020300FFFF
FB05FC01FD030103
FD01030001030300
0002030404010304
030203FD04020300
FF040201040000FD
02FEFEFC000402FD
FDFBFEFF030203FE
01FF030101FE03FB
FDFDFBFF0401FCFC
0403FDFDFFFFFCFD
01030201FE0405FC
01FB05FC030102FF
FF0000030304FDFC
FCFDFD0505FF0100
03FB0300FFFDFFFB
FE03FC0307020302
030302040301FFFB
00FD07FD04FFFF04
05FD000103040400
0303FEFF05040401
02040200FD020103
FB03FCFB0503FC03
030503FD0202FBFD
04010403180505F2
F903FEFEFEFB01F5
01FF190502F6FDFE
06040EE514FD10FC
0102060601100C07
FFFBFDFCFD0703FE
0300FD090A03FDF7
FCFBF9FAFA04FEEC
00FC0000220209EC
F807FFFDFEFF04F6
FBFD1403FFFBFC02
010D15E316011F01
01040203020E0A04
FBFEFAF9030C02FF
FDFB000B0AFEFD00
FDFAF7F70105FDE5
0CFC02FE24FF05E2
FD0400FFFE030100
FA0B080100F5FCFE
0A0A15EA17011DFE
0300FFF409171214
08FFF6FB040CFB02
F8FEFC00090B0606
F6FBFBF60806FCF4
0BF7FFF60E001ADE
FB0BF70502FBFF06
F90106FFF6EEFBFA
FF110DE90EFB0708
05FBFAF6090A0D08
1505FAFF0C12FFFB
02FB03050906FE08
FEFF02FE0700F7F6
0FF005FE180A1FEB
F108FDFE00F80903
FC040B0600E800FF
F80E0CFA12010506
FF0400FB17121A02
140AF0F80C17FFFD
FEF8FE0C12060603
FCFEF902020FFBF4
0AF009FD2BFF22EC
F20AFCF3FDFF110B
FF061009FAEFF901
EC0717F407071911
FE0302FB1D190A03
06FF080209090CFE
FBF315041E1E0200
F90C0CFEFAFCF2F4
03F007FB1D011CE1
020FF7F7FBFA0F08
02FC110EEFDCFEF4
F81322F307081D0D
F6FD01F91A20FF02
0B08FD0507070C00
FBEC17FF101C03FE
F41412FFFE09FFEA
08DD0F01240707E7
0510FBF2FEFBFE06
05F61103F6DE05F7
F30D12F104052E08
F803F1F91B0EF802
070C06080A1E08FE
F7F810030F1D04F2
F7100D02F911FBEE
14F306022C080CFE
ED0AFCEF07EFED08
090510EBFFF804F4
E11E0BFEFE002CF5
07F4EFF206FDF8F0
060CF80003230103
0FF500130405F2F9
080AFB14EF0308F4
041717021B0A08F1
F109EAF3FEF2EB09
041314F201F2F703
EC0A16001CFE2FF7
FFFD010400110FFA
FA18F6FC061500FC
14FF0E0A1B0DE3FE
FC100905EE180DF2
F6191B012B0609FE
06FB05F8F3F800FA
04250A0302090B16
F8FA0505230833FF
FB0A220609141717
F90311F207FD04FF
0204140A1E07EB04
051004F40801FFEE
0B091AFB2A141202
01FBFE05F80504F8
031A120001F4FEFF
FE02FD051B002F05
FA070E000B16130E
010502F40202FEFC
FCFF0F0B1B16F209
000E05F80F16FAF3
15F60601331D1EFC
FCFDFCFEFE0407FF
050915FC03D8F3FB
0A030DFB19FB2F04
F801FC050E1B0C14
FC02E602FD2101FC
02F2060A211905FE
FAFC0201FC2FFEF2
11ED08052B1714FC
FD0BFAFCFAFC070A
FEFD0CFDFCDDF2F6
F7080E0316FD2900
FEFEF7FC09181708
0307E205032CFAFE
02FA0A041B14FC01
FDF005FFF62509F1
10F405051D0E09F9
F71000F6FCF90507
06F700FE02E1F1F4
FE0B01010B012BFC
FF02FB0206111706
0502E8FB0022FDFF
06FB0A061618FA06
03FCFD01F42902F7
07F2FD000D030D01
010E03FF0200FE0B
FDF902FC04EDF4F6
050603FD0BFB0D04
040300FD080607FD
0807FAF80210FBFB
03F904000F100205
FEF8FB05F5150101
F7FCFD030CFCF7F6
06FEFE00040404F7
05020C0904F6FE06
03020BF60FFE0502
03000AFF06070C10
FDFCFDF90408FEFE
02FA03030B0905FC
F8000501FB05FAFA
F906030309FAFBFF
06F902FD010101FE
05FD080B05F4F803
040312F30F020DFE
0002040507000A0B
FAF8000200040101
01FD00050808FEFC
EEFD0600FB0802FB
010102FFFD000104
FCFDFDFBFD030200
FDFCFFFD0202FD02
FFFB040403FCFB04
02000100040002FC
01FB030003FEFBFD
02FE030402FDFDFF
04FF01FFFFFD0205
03000401FEFBFC03
02FE01000403FCFE
0100FCFE00040104
FEFBFBFCFC01FDFC
FCFE03FF00000200
FDFEFBFCFDFE0501
FCFD01FD040001FC
03010404FC04FFFF
05FD04FDFEFC0201
030100FF0200FF02
040302FCFCFB04FD
FEFBFEFFFF04FDFD
FDFD02FDFFFCFFFD
FCFCFD05010103FB
FDFB02FD00FB0003
FBFD01FE04FDFC04
00FEFC0204FC0300
FC0002FB04FCFE00
FDFFFD05050100FE
04FCFEFF03FFFDFD
01FD03FCFB03FF04
050003FC04FFFD02
FE00FFFCFFFB0004
FCFF01FC02FF0105
0402FD0300FD0203
0402FF040501FCFB
0501FE0104FEFDFF
FD04FCFEFC04FEFC
030301FB04FE0003
01FE01FD03FDFD01
03FDFBFF000301FB
FE01FC04FD0005FC
04FD010305040404
FF0404030404FDFF
FBFF01010102FF00
FC000104FF02FC05
0202FF02FEFEFD02
FFFDFC0301FFFF03
FE000100FE040300
FBFD04020404FE02
020203FD040304FC
FF040105FDFE02FB
040300010300FD02
FE01FDFEFEFF01FD
FDFF0201FF020202
FB0405FE0000FDFC
FD0204FF0302FD05
01FD03FCFC04FD01
F8FC0BFBFBFE06F9
010003FD000205FC
0504FA02FBF3FDFC
FE07FEFDFEFF0000
F8FCFEFE000F0700
FC010207010103FB
FDFE0C040705FDFC
FF1209FD05FBF8F8
07FF0BFE0D0303F1
FC06FEFEFFFB0607
01FF01FCF8F7FBFB
FC06000207021302
00FEFAFA020708FF
08F9FC010110FEFB
00FB04FB09080401
FD010AFBFB0704F9
030305FF040703FE
F9FF03FD06FF03FE
03FE0701FCFAFA05
0305020202FF06FE
0101030004080E02
FEFCFFFC0209FBFE
0202FD010006FEFE
04FB03FB0307FFFE
0CF2EDFC200A07EF
0200FD0A160205FE
FA070E02FEF1EA02
040C0EFD15FF1B07
17FBFDFE06121F01
FAFEF0FA0712FD01
0707F209FF0903FD
FAEFF7F9F90801F3
0CF6E80641130DD5
FF00FA0217FD05FD
02031F0E0AE3E501
FD1315EC17093312
1104F9FA071E240A
0708F1FD0C2AFB06
FA03F5130A0AFFF4
F4EE08F501130BEB
0FEAE7F30E08F9CD
020308081A130D05
0000120703EAEF00
FF1220D71807FD11
1E08FEF8081A2916
0701FDFE1419F511
F6F9E50D0202FDF3
F20201F506EF0FE6
FEEDE3F7040FF9EB
0D010B0F0E221102
F0FC17FAF5E7FEFB
07141EE5200DF40B
111305FA1216161A
FC040AFC1718F60B
E2F7E21108F90AE8
EEFCEFF10BE711DE
0CEDEAF5171204E9
0E0A0308070D17FF
E6021C07FDDEF8FA
F7231DE02E09F205
110B08F2290E171F
0205FEFE19230105
DE02E512180F01F2
D4FC01F105EE0DDA
0EFCF1EF141125E0
05060409070516FC
F6001C08FBC8F705
FF2024D52D010814
0A0C09EB1D242016
120808021A26F9FE
E80CF31C191501F5
D906FFF50AF809DF
0FF9F1EC192507E5
FFFD04FA190018F7
F9070BFDF7CDFA09
F6161EE026FA0B16
030EFF04100A0D00
11FFF7FF102BFA02
080EF41FFF12F801
D30FF7050C0A14D8
1808E1F10631FFEC
FBFE040423021202
000C11F9F5DE050A
F40715DB13F40A08
121D03FD210306F6
0519F5FC041EF80B
1E0EE734FD0207FC
D2FFED0D0C1F27DD
25F9E2EFFE270C09
F600010D21F813F4
F80CF900F4ECF00C
F50113E30BEA0FFA
180B05F7150A0A0E
140CEEF80421F30C
0919E038FDF5FA00
DEF2DB00F21B1AE0
17F3E6FA0A1303FF
F6FCF7F81D050BFA
EAFF0102F3E7F208
F1FD14F11DEC12F8
18FE0F050A020519
0EFFF3F4070CEC05
F910F12FFFF0F502
E2F6E0F6E52508D6
10FAF6F21703FA0D
F400FFFF1B0FFE08
E8140B0AF1E7F508
E7FE13FD14F72402
11FB150A09090416
040BF6EB0803FDEB
F006FB2C06F40003
EAF2E4E8F622FFE4
04FCEE072210021A
0402090F17190008
F00D0320F9E4F60B
F6070FFC221028F6
1820050C11101513
F813F7E4040C0EEB
DEFA041C18010601
F3EEEDE00C18F8D9
04F0FE0D22310711
0407010D16090312
F102060B08E60310
F7020AF8151120F7
1417F30D07FF1406
FD09E5F004060BF5
EDFF020514070B04
FDF1E4ED051AF8E6
07D4F80725270505
F90A020916040119
ECFA0102E9E2EAE8
071001082C0B27E3
2210E3021206250A
0838D4FDFB150702
F4F6070D161C0405
F3EDF4F9F3260FEC
09CCF50D1A3AF704
F00FF90605F70A1E
F6FC07F0E9E0D1D9
180DFE002D061ADF
1309E9FA10062406
052AC90AFB0BF809
FCE6051407220900
F9F8EE04E32715E8
0CD1ED0B1231F40A
E90C0901F6F90312
F6F108E5EBE8D5E5
0C02EBFD091018F2
0B09ECF60B082A09
F719CA01FB04FD01
FEE80C17111C0D03
F5FCF9FEDB2614F1
12CEFA08250D0706
EF110DFDF305FD09
F4F304E5FAE7DAE8
FE0CF2F107FE29F3
06FEF2FE11002D08
000BD202F8080208
FFEE12110F100806
F9FAFDF9E82715FD
10EFF0041AF60408
FA080B02020505F6
F5F7120808E1E9F9
07110CEC18FE20FB
02FAFBFF09F92217
EFF9E3FFF7090804
06ED0E09080E0A01
F5F7FCFFF3140AE5
FF0AFCFB01FBF512
01F60A05020405EA
030108FEFA04FA12
0AF507020DFAFF07
02FD050613FC0D07
F8F5FCFE021AF800
FAFF1708030B0EFB
FBFEFD06F6F70EF4
FB05FBFBFF03F802
06F80709FFFF04EF
0205040200020111
02EA040106030309
FBFDFDFF03FAF70C
F8F4FCF80503F703
FD0C0006FF0806F6
FF0402FE03F703F7
00FF0301FD010102
FC02FF0402FF00FD
FC01FE01FF0300FF
0502030500FFFCFE
FC04FFFE00010503
04FD00FE00020202
0202040003FDFF05
FE000304FE04FF03
03030103FDFCFC00
040300010300FD01
02FBFCFF00FC0501
FE01FC0001FFFBFE
FE050404FDFEFCFB
FCFDFEFDFC01FE04
04010304FFFD03FF
0301FDFDFBFFFC04
03FD04FBFF040504
0103FEFD04FD0303
FD01FFFBFE020202
FE0403FEFE00FDFC
020500FD02FCFF01
030205FC03FC0000
FD0403FF02010304
020202FCFFFD01FC
FCFFFFFCFEFEFF03
000203FC03040404
FE0402FE0401FC00
0302020301040105
FF030003FDFE0202
FFFF020000030004
FF0500FEFCFF0003
FCFE0105FE03FD04
FCFCFEFBFF0202FE
0004F6F102F8FCFC
FD0F000202050A02
02F700FFFEFD01FE
04F2020406FBF3F9
01F8020303050403
180FFDFCFB01FFFF
01FDFD0AFD04FA02
F7FC0A0102FA04F7
FD050200F90505F9
FD03FFFEF9F40200
FDFEFFFA01020501
FCFC0400040D0902
02000000FF0003F9
08020B000809FFFA
F8140904FA05F6F6
07FCFA0106010403
05FC0507F9FD0706
F50006F9FDF3F4FF
FCF6FE00120702F4
FE01FA01FD02FF03
FC07F4FF0113FA02
16FD0703FBFEFA05
FCF6F90CFC0518F7
17E9FE0A0A0CF202
FD07120EF7FF0300
FA030308F3F50AFC
020207FF1809E7F1
F802FEFE0A030601
EF0DFC0505220301
170000FDFD07F30F
F0E906FB03011CF1
14E9F7080C0F00DC
F703080B0BFF0003
FE0C161402E503FF
01091CF02404F3F8
15FC080A15191C05
EC0BF6FF0710F5FC
1D0DECFEF5FFF007
FCEAF9F2FB0C16E7
1404F30C09030ED7
FEFE0B09FAFF10FC
FC0E1D1BFBDFF309
02022DDB2815F603
0C05140D060E1106
F30EFE080816F403
2008F217EFF8FAFA
EEF203F502F81AE0
09FCF50FEA07F7E7
08FF0C0EFF010AFE
070B0613ECEAF1FC
0CFF2FDB211BE50C
0D0B0300011F1011
F8FC0B0A1714FA03
0F00EB0BFBFFF2E9
E51302F812E71DE0
03FFE801EF0BF9FF
16081417040D13F6
070FFD04F2FBF901
070A17E11C03E813
0C0610FD0A140EF8
F2010803181AF50D
F615EA20FAF401EE
E80CF5F0F5FC1FE7
06FBF5FF03FE0006
1C051015FB0415FE
050E04F802FFF511
000E06EA1603EA0F
1C0511FC0F1C0A07
031A0BF92020FF03
030FE419F3F4EDF8
F10AF702FDF72AED
0102F6F5F3FD0709
19F9180BF4FD1AF5
080A0307FAF8FA16
040B18F326020710
10FA1A0207230830
1317FDFF1A1E03F5
0E07EB110202F2FA
ED14030314DF28E7
0205F8F2FA04FD11
05F21404F5051AF1
0810FD1AE9EDFC15
040021DF24000E14
14040C020612FD18
1C1DFEFA1612F6EB
1208F40BFB06FD02
F40C120B19E71CDA
0007FCFC050EFC17
FDF90FFCFA1121F5
040CFE1EDAFA060E
00FE1BD326F6FE06
16FE0A0E06160F1D
181B08FA1211FEEB
FE0AFB16EA0800FF
FA1F12020DF313DC
FD06F70A05FCF818
00F50700090D1BF4
0F0FFD20D6F60113
F8EC1CCF21EC0BFA
0EF8FF110416071D
101AF903150301F3
F604F20CE108FDF6
EB1D10F501FB1BD3
010BFA1007F4F90F
0BF405051D0B12F6
1005F81DE4F1010F
ECF720D717FB0900
12F4FF0F090F001C
0829F8FE1802FCFD
010FF806EA04FEFD
E4140DFD06F617E4
080A0718FB00ED09
05ED0011180508FA
0A0BF719EBEAF511
F6050FF01DFC0A07
0B04F8140512021F
0A2AF1FA0F0809EE
FF02FE07F201FFFD
E40812F00DFD10F6
FD0A00140E11E70F
07FCFB0C10FF02FF
0505FA0703ECF80D
F207FEFE1AFB0F01
151BF31BFD170910
202BF1FB0F0700F6
03FA0108FA060500
F1150DF30F040AF2
0D00FF290517F20B
080DFB0A26FCF80A
0403F0011BF5ED14
0A05FDFD07FC17EE
100FE71302100D05
1C0FF20C0E03F804
07F3050DFA02F600
FB0602FC050518F7
11F4FA2C0908FCFC
1300010719FA04FD
0E00EDFD0CF1E400
0E03EA04000417F9
0C0CF1F909171112
0E18E4010C0D01F9
F8F50E1502FE04F6
FB0BF503011021EA
11E5FA2904F8F901
0D000C0604F114FB
19FDE90411F6D6EA
0E02F808060F12FB
0BF7F4F9071813FF
1B1BE50613FB00FC
F5F61610100919F6
0A06EE0FEC102AEA
1BEDF82612F7FA05
06020B0706F60905
0D05EEEA0C02E0F2
0BFDF408FF0B1BF6
120401F7080816F3
0D08E20F0BFC040D
F5F40F09130C05F8
14FAEC0BDF1125F9
14E1EA081307F409
F8030B1002040A09
F802F4E80AE8F3EE
160AF40BFD011AFC
100DF9F60D0A17F2
F904D20AFEF3FA0C
F8F6101415FD02FA
0DF8E8FBE80C1CF5
0FE8EFFF1EFCFAFC
F007000C010D0A03
EEF0FFFE08DDF0F2
191DFDF806FF11F2
061FF9F60C1207F3
FDEED10005F3F1FC
E9E4031119FEF205
FBE6F2F0091015E4
08ED09F718EEF80A
FF050411F70210F5
07F8FD0E06F6F9F8
1219FCFB000B0CEA
081F000B0210F6F0
F9F1E2F60BF6FE10
F5EEFA0F08FF0E06
F7F5F8FF0F0115E9
0AFDFBF716ECFF04
030108060EF000F7
F7FC020AFDF2FCFB
F90700F713F20EFC
0A1AF908F5F9EDF5
F4F5FBEDE7F20305
F8F4E31006F80C00
05F5F7FE07080FF7
0AF2080413FA0D06
FF03100C02F40804
00F1FF06FAEB01F3
F908060613FA0FF9
030AF300010C0505
FA0BF7F6FC05F602
F1F4E9050906FC02
FFF701FAFDFF0BFA
FEFC0400FBFFFBFD
0101FCFB030402FD
00FE00FC000304FF
FF0201FE02FEFDFB
FE03FE02FE0002FD
0101FEFF040304FC
0203000305050200
FF010300020200FE
0103FFFEFE0302FE
010004FCFDFFFF00
FFFEFEFC01FB0203
FCFC02FE03000401
02FEFD0401FCFEFE
FEFC0401FBFFFC04
00FEFD0301FF0201
FCFEFD020505FBFE
0100FE0003FC02FC
FFFFFD00FEFD0102
0102FD0401FF00FC
02FC03FB04FD01FB
FEFEFB0004030104
0204020101FD05FD
FE0101FD04FD03FC
03040200FBFE0102
0CFC0F02FA0500FF
FEFCFAF0F8F4FCF6
041003F6020A0A0E
09FB02FFF9FF00F1
FBE806F6FDF6ECF1
10F7FA0C050500FE
2510FFFCFD0C03FC
FF02041DF606F400
040B0FFDF6FAF20B
10F2F5F5F0F904F4
000E04FEFD02040F
09F6FB05F4FE07F4
F2F4F9F308FFF2FC
15F8FE0AFE0302FD
1E1601EB030A02FB
F3040F19F607FBFC
0007FBF1E60BF006
06F70805E1F70EF6
F91016F41101E30C
000105F709F60CF7
FFF5F7EA05110517
FB00F915081EF408
1C0F0311EE000407
F3F9020EFB0B25F3
0711F0F4F316F40B
06FD110AEEFF0AF5
FD0E0AFF0403F907
04F4061111FC0BF7
FF08F4060404FF0B
FB1BFC191625FBFC
0501FC13F2FCFB0B
F207060510E726EE
0CFC06F9FEF7FEF4
0DFD0F0101F905F8
030E0B0506EFED0D
01FE19F617FE10FE
F7FBFDFE140AFE20
EF35FEFE1513040A
0E030516F5FFFCFD
001109FA08E317F3
15000A01F6F20607
0E00040808F30900
FE12080908E9ED0F
FEFF08F2130D0F09
0AF80D000D19F912
0134020912170215
04010A11ECFEFF04
F7100EFA03EC0DF5
120401FCFA0D0905
15FC061605F90B05
FB13FA0C0FF9F20E
09F308060D190510
0D0A0EF80218FD23
0F28FF07111DFF1A
FD04030FF7000404
FF0FFF03F7F219FC
0D0B06FCF5060906
0CFF0E1C0A041403
FC13F70A09FEFE15
00FC1D00090EFD0F
1B0B14FA06180001
14170F020D1EF711
FD05021EF8FD1606
0415F9FEF1FF19F2
FE0B01FAFD070D05
0BFF1617FB0D22F7
FD080306F7FA090C
03F319F70F0B0611
19FD11F9FD1A0603
0E1212FD101CFC04
01FB0514F6081607
061DF6FCF3FF0EE6
F6100303FEFD0E0B
09FA0610FF0422FB
010DFF03F2050E02
FEED1AF40F120F10
0CF50901FF13F91A
0E1C0C010E15FFFA
02FFFA05F9061C00
0813FC0307EB02DC
F412000807070C0C
F9F50606F10B17F6
03140416EB0B0B07
0AF10AFF0F0C020A
01FC0A040510011C
021F0E010710FEF0
02FCFB09EAFE1A0B
0612FC0309E900E5
F017040AF9040715
FEFA0309F60A10F5
0B21FF0FE30D140F
04F904040A040705
FFFAFC0609190512
081E0D060F10FFF7
0204060EE10C0B0A
0713FB070FFF05E8
F90D01FFFC060E0A
02020404FD05F502
0319FF0BE40A0E16
FCF807F607060108
0602FAFF0112010E
0C1F0A010D0800FA
040BFF0EE30D0208
080601020BFD09E2
FC0F0A0A000200FA
FC0104010603FFF7
0916F907EAFC0118
F90104E907030D01
1206F800080FFE13
01270804140400F9
0210020BF605FD0C
FF0904030F01F8EB
06100810030EFD00
F0F9FE000E060400
0C13F3FAF801000F
040301FD06080208
0407FA0E090B0112
0B1DF400090AFEED
0712FE10F7070A06
0208F9020F02F3F2
06100C1A080DF704
ED06FFFC16060505
050BEF0408FCF50E
05030C14F40F060C
080AF417000C0C16
0A20F5F201FAFDF1
0105FB05FEFD1002
FD040EFA0A04F6F3
FF0A090F0302F605
FA02FE031504F702
1802F10904F8F20D
04060F0F0209080E
0506EC0EF4FC0712
0514F1FC08F5F6FF
07F8FCFEFEFE03FC
F0000AFD0B0502F0
040CFD0F00FB02FD
FE03001008070203
13FFF7FA0805E902
080FE514FB02FF0D
FA05E701F7F80D0C
0720F50503F9F60C
07000000FBFF0509
FA02F3F9FF050CF0
07F8FF0B0D050608
0102180D040B1504
04FB04E60909FAFA
0212EE0D01F50608
080EE706FDFF0FFE
021CEB02050BF308
0307050AFF0502F4
FAF8F7F2F40C0EF0
0AF8F80C0F07FFFF
02FD090F0311070D
04F901EE050603F2
0006E311FFFB0F05
0A13F0FF0AF709E9
0009EA080D03F311
0900090D08FBFDEC
FDFAFBF0F90907FA
0EF5F1080F0DFEF4
06FD02050B070309
FDF9FAF504EB05F3
FA09ED03FEF721F8
0C0AF1F3030008E1
F000DC0E09FFF909
00FB070B1204FCF3
F0F606F4FD070AF8
06E0ED0715000DF7
FE0500FA080FF909
F4F3F4E501ED0BE0
F80DFC0406F51106
0B0EFEFF0C03FDE4
F2F7DB0604FEEB02
F3030A0E1CF2FDF6
F5F103F011091201
08F4F3FF17F21604
0A09F401FFEFF601
08F4E10604FF0AEF
0407FA09FA0EF806
0D0FF8EFEFF7F1E5
0CFDEC000BF7FF0A
F6F602F80F10FD0B
FCF211051F121107
F90B01071FF207FB
28F3E8F50CDA0402
0301FB181EF20E00
010304F9FA1E071B
1B1704EAE3F4F7ED
02FEFDE40A050705
F2F0DDF4181AEE10
0BEC12FB1A0F0002
EA110C010F0FFA00
13F3EBFC00DB09F4
FE0E0B0B1A02010F
050002F7F21D050D
FE0B02F8EBF3FF0B
0BF904F5180D0CFC
F4F90006131B0406
0D040EFDFA02F2E6
F9F90900FB031604
02F60305FA050BFB
FEFC000410FF040C
1409FF07FE0F0002
010A01F90D060102
00FBFFF6FB0FF9FC
FCFE0B14040E0DF9
FC0700FEFBF9FFE9
0403FF030501FD01
03FC0002000404FD
FF02050503FEFB04
01FC05FFFFFC0101
02FDFF05010303FD
0204000001FEFC03
02FD0001FCFFFCFB
0204020002FDFCFF
FD0301FDFFFF0202
030301FB04000304
FDFEFB0004FCFF00
FF04FB05FDFCFB04
FB00010104FC01FF
030505FD0402FF02
040403FF01FCFB04
FC00FBFEFB00FEFD
FDFA03FB0508FA07
F2FFFF05F9FAFDF9
F00D01FF0103FF05
0CFEFD0507FF04F6
FEF70DFE0006F801
0601010AF909F1F7
15101108FD00FFFA
02FEFF0EFC11FCF9
031013E5F2F9F501
12EE09FADD010AE8
FE1707F10102F911
08E8F50F04FF0E02
05EEE4EC0B03F9FC
0B07FA1D0D0A0CF9
150F01F7EDFE0EFC
EB0C0819FFFA0DFC
FD13F6E2DD02F60B
03ED1A07D6FA02E2
F8FF1304EDFFDB11
07E7F00009E31AFF
01E6E4DC0C0C061D
F51E03211022FC06
1210F017EBF8050C
DAF8F607F9F724FA
050F0BF2F8F9FC06
12FE09FDF4FCFEF2
FD060DFEF508F80B
00E6F212F4EC18FA
0702F80406FEF30E
FD1A00141A12F70E
0606F10FF4F20206
E9FF11060FEB1C06
020601EEF2F60905
0C0A020100F403F9
FAFF0F04FFFBF210
00ECF8F903030AF8
FBFB06090B03EB0E
032F0B17081B0707
0D0B0615FBFE05F8
EA090EFE0EE218FF
0D000AFAF1FE0807
06020203FCFA04FB
FE020908FCFDF416
F6F5F802071003FB
030801060307F210
072D040DFE15030F
08FA0B05F9FB06FE
010B13FE06F515F0
0DF902FEFFF90E08
0FF71001FB1007FF
F9000301EF02F405
F9EFFCFD0B150404
FC06F700FC010314
09260EFC0012FE06
0805FB05FEFB1C02
000804F404FD19F8
080100FB03FC0AFD
10070902FA0D14FF
FB08FD09F503000F
FBF30CFF000CF805
0F04FDFCF7030804
03250BFD040AF704
02F8020BFBF71DFB
0B0D00F7F6F80CFC
F8FDF6FE08F5FDFD
0D01FE03F60C16FE
0806040CEB040204
00F507FF0110010C
140402F9FE090616
030F0BFC0B0401FA
F6F90500FEF625FD
050BFCF6FDE706F6
FDFEFF02060501F7
03F9070FFD0C12FD
07060E07FD080CF8
0C070B040216F812
1D0007F701FFF211
070316F801FC0AF7
FFFE00FEF9F72900
0407F8F704F5FCF7
FC0C0100FD0803FE
FFF8F80EFA0C0B03
0107050EFE080CFF
07040F04040CFE06
0EFD09FFFF0AFE0D
06F908F5060F04FB
FF00FE05F8FC140A
0908F8040BFAF8F9
F80E0DFB000206F6
03FEF80B02FF0401
08080216FF021006
070314EE010E0A0A
0E0102F60A0AFE10
FEEC09F9070513FE
0309FEFAF0FD0806
040AFB000AFFF8FE
00080605FE020AFD
01FF01050E000403
F704FB16080F0B08
010316EE08140808
150403F90A08F90F
FEEF05F70A0D11FF
FE0B030400FD0407
FF13F5FC13FFFAFB
020B0505FC0401FC
FE000101070503FE
F609F517070CFE08
06FE0AE6060A0CFE
18030603050AF910
02FFFD04080D09FB
FF10010BF6040009
030FF3010700FBF9
020901090701FDFC
FA02050406050C0A
F210FD12F906FA0B
08F4FEF7070D1007
130FFC07F609F61C
040EF30009060DF9
FD090508FA080704
0503E8FE0FF7F4EE
FB0808180E02FDF9
F2FAFE090E09060B
EE12F911FF130107
06FF05080416080C
0D11021201050312
060AF3010AF609F0
F9FC0EFA07FF0605
0604EFFB1200EFE9
02000C1206F8FBFC
F0F8FCFA08050901
EF0F000AFA01010A
02FE0F13FB0C070D
1208FD0BFD030204
FD0BF1F9FFF203FF
FAFD00F707FFFAF6
000B00F90304EEE4
03FB0414050101FF
EFFDF60500010307
FA0CFAFD040CFD0B
FF110807FA0EFF12
0A06F50403080F02
FB11F0FE00FB0B02
00FAFFFF0501FCFF
F706FAF7000BF6E6
09FDFC2011FA0004
FCFEF7020D060711
F3FFFC02020806FF
F80C0305020E030A
041102FC05FE0607
FD15F90202FF090B
0AF7FCF70DFDF402
FEF8F8F5FF07FDF8
05FFFA261005F9F9
0FFBFE070E070E18
F80A00F0040808FB
0402FD0A03020109
020F08040304FFFA
F916F6080602020D
0204FB0006FFFEFE
F6F509F5F207FBFF
0AEBF3190F0900FA
0EFBFA0010F80710
E703FFE900F80DF0
F306F20AFCF90905
0705FC0801F7FBF0
F017F7070AFB040D
0908FF040EF602FF
00F100F2F80CEA04
07DAF2220B031306
0FFC0EF40F050011
E3ECF0E6F3F210E2
EA09E01F02010C08
05F8F903FFF7F6DE
E322FA0606F5FFF2
FC0B04000DF6F7F6
04ED01F20C0B0C03
05F8F90C18F01709
26FCFDF710F70015
F6EBDC00F3EB09F6
FCFAFF190101FF08
0BF4FAFC02F1EFF3
FA1CFBFB0E020DFC
0804FBEF05FF07FE
05F717010D101805
0511011213040709
2BEFF2021CF2FA0B
00050A180903FE0E
12FA000A04210517
1415080AEFE6FA13
090B04F52B050D03
FFFDDCF70314F80A
0AF415F322091008
F61B1807FB1320FA
0FF2F9000CF90400
0408031713090810
1E02F808F612FEFF
06060CFAE6EE0A18
0E0203FA281201FB
E7FCF7000C19FE04
0C0B07E2110101FF
05F7FCFE08051300
05F01001060305F1
03F602FA0602FB06
0903FC0700FC0AFF
0BF3FFFDF8F00006
FB1101F0030AF4FE
0201FA0402060002
F808FFFFFDF90702
02FF0003FFFBFDFF
01010203030202FF
FF04FE0101020301
01FFFB04FC040200
01010402FFFDFFFE
FCFCFC0305FF0300
02040001FFFE0204
FFFE010004FC0302
FEFDFF050004FB00
04040503FB0405FF
04010404FDFE0404
FC03010000FE0204
04FFFD01FD010304
05010504FDFC03FC
03FF0303FD010101
FDFD0200FD0100FC
06F7FD060FED07FF
FEEF020A03FE0D01
0815F60F0208FFFD
150BFB17110BFE10
EEEB011100FC07F7
0505F6030300F303
070C02F6FFEE08F7
10EE0305000C0B11
130E12EEE8FB08F7
1EDCFCF0E1FE23DF
0808FAF50FFCEF1D
16E6FD18FEFE0B09
F4F1EAE90908F509
09FAF9240815F007
EF0D0CF5FBED10FE
F007162100FA1702
FD0B07F8EDF60A04
04F10CF6DBF10AF9
F8F50701F3FFDE15
08EEF201FCDA11F5
EEDBE6F1130EF300
FC09FC27040EFB09
F30DFA0FFFFC0E03
F2F7061406FC2300
030504FFFAF00CFF
FEFC0FF1F30005F7
F5F00D03F40AF809
F5F4E508FBF10CF7
FA07F40802FDEFF3
1322FD19FD00F8F7
0307FC1002E60906
F5FB040910F61608
0114F0FBF8FE07FD
08F80CF9FA0208F4
FFFC1606F5F9F40C
FEF4E90504FEFBFE
0503F90F02FDF7FD
101F00100813F90B
0F0B040C04EF0C05
F9F9080713F02201
030BFE03030200F1
06F904ECFB0D07FE
00F6170B02FCF205
F6F8F60F0008FF0C
F615FA05FFF90304
08130700FE0DFE0A
0103FC0308F01506
07F6070720ED1503
010201FCFBFE03F3
0CF501F4FE0810FC
FEFE10FE02FBF710
00F2FB0BFF0D0000
FA140402F5F3FF05
0D100A02FC0AF106
0404FCFE01F21E00
0904080118F109FF
02FF01F7F900FFF5
0FF7F7F2F4000BFA
07FD120103FC0107
FFF60510F70B00FE
011A0304F5F9FB0D
0D0311FB05FFFF02
0009F3F7F8EC3603
08F9080513F50502
FDF4FDF401FFFCF3
13F9F5F0F6000C00
07F60EFE03F90B0C
F9FB0406F50F0709
FE0C0BF8FAFDF90F
0EF70A00090003F5
FE06F9F9FBEF2205
01FA0AF904EBFB01
FBFAF7F505FAF6FB
10F3F9F1F100FDF7
09FC08F902FE0C04
00FF1302F70F06FF
FB0F09FFF7FE010D
06F004FB0A0708FB
01FB05FEFCFB1D0A
00FE0A040BF0F6FD
FD01FFFB01FBFDFA
13F9FAFAF9FFFA02
FFFF05050AFF08FE
08000EF4FA0B0A08
FC0F0DFFFD02FA0C
FFEE00F805030F07
00FCFC02F5F9060A
0403090414F7FEF7
0605FCF80001F9F3
1300F0FBFAFCFDFD
0101FD1510FA0BFF
FC0017F6F5100706
FB0B0C0308FDF308
02E906FDFD021406
090203F9FDFD0500
F90C050412FA01FC
0706FA020205F3FD
13FFEBFBFD04FCFA
04F8FD141203FE03
030325EAF5150D09
0906090A01FEFC05
0AE9020401080406
FD010305F5FF04FE
F80B04FE16FE0507
FD08F70A05FFEDFB
0F00EB08F807FCFF
07FCFA0A05FFFA07
060034E1FE130A06
110D0F050301FF05
07F6FE0103040204
F70AFF06F70CFFFE
F70B060A15FD0901
FD03F80704FBF400
0BFFF10CF909FCF8
FDFF0008010BFD04
160116E1000E0B0D
0A1312FC0905F907
07FDF9F803020905
FE0B01F5F70BF7FC
F90D010A13F60CFD
F9FF010E0AFFFF02
0DFEFB010009FD07
FD07030805040703
130108FDF9090311
FA101F06070000F6
10FAF6FFFCFF0DF6
FDFE08F10508F7FF
FE0B04070B0200FB
01FD000E0400FFF9
0AFBF103FD020BF9
0607FF07FC030803
0AFF0000F900030A
F8FD1E0D0A07FBF8
0400E900FAF403F2
00FD02ED0804FBF7
FF0D01080706F3EF
FBF9FF1702FC07FE
06FBEB02FAFA0106
F807F904FA040400
03FDF9FBF90B0408
FFFF160B020401FA
F9FFE909FCF40CF1
FF02FFF505FAFAFC
070BFBFCFD07F7F5
FDFC03190AFBFA03
08F8F3030AFD0908
0405F8F8FD080907
F9040204F30E07FE
040C1300FA05F900
000CEE0A07FB0604
FC0106FF03FBFB03
000007FB01FDF3F7
F803031B0FFFFDFD
05FCFCF90DFF060E
0108F7ECFE060D0D
0103F809F710FBF7
FA060D010603FAF5
030BFD0B03FE0B05
FAFD0C010A050C0A
060007FDF5FCF800
FFF20129120105FA
0A0207FC02EF0D19
F302F8EA020511F9
F707F003FA07FDF6
F906000700F9FAF6
031CFF15FFFF1402
FBFD090608FC0710
12FE0BF90101FA0B
02F609330B090DFF
0902120005EC061E
E3FBF4FB09011E00
F00EF418F80802F9
0BFE0405F8EEFBF8
01230E0C08F81EFE
FDF7FE030AF40408
1CF502EAFD0CF60A
02FBFD31130812FC
1B030AF91AF2FA32
E3F9EF1704020EFA
EFF7021509111705
1A080A2002EDF60B
0A2F0F0A0FFA2201
0706F0F519FB00FB
29EA16E6021BFF08
0A09F818220C0D0C
20FE010222EAFC23
EFFFE61B120D1922
05F4001C0E1A2213
1D130511FBE0E610
1014210D22081E18
09FAD8EA1312F600
21EF0FEE1B080D03
090D1B051305061E
0FFC06FF13F6F907
FCEB0418FE16171A
0AF30109F3000F05
16DA130AFAE9FD16
FF14120F3309160F
14FDE6F2FD08EFF9
19FAFEF80D0BFE09
FFFB03000A030B04
07FCFDFE0EF8FC0B
FBF3070111FC0300
08FAFD00F20D16F6
0EF503FA04EA010C
0F0004091B090508
FD00F2030D080101
09030AFDF812FD00
00040202FEFE05FE
FBFC04FC030002FD
FF00FF0100FB0404
FEFDFD03FDFDFC03
FD02FBFEFFFC04FB
FD02FE0402FEFCFD
01FFFDFCFFFDFF01
FDFD0400030300FE
0F091506F702FCFB
05F601F8FD0503E5
140619EAFDEFFD1D
FCEC031205FF03FF
F205EF0E0113FF0A
0407FF0706150204
F01007040AF20DFB
0C0A060D06EF09F3
00FBF518030AF3F8
08E10706051315FB
0A100B01F90E0710
2105F828140BEB10
F4FF0E1B090404FD
FA000EF8FA0AED06
0714FC0CFFE911EB
0BF5F9FE01000519
0B070BF4DC0CF600
1ED9FDE8E70A17EE
150008F80404F030
29E5FF19EEEA07FF
F7FCE0FF0603EDFC
0F01F11E0226EA02
ED24FD0603F11301
F30C2624F9F01804
FD17F4EDD0F901FD
05EC0DF6E5011AEB
FFFE04FAF60FE22C
25F0F0F7F7E00103
EFF2F7000615E706
190CF7170B13F50E
F513FA1DFBEA1508
E40A081408F61BF7
071BF2FAF00606F2
04F00DF1EE010CF1
F50416FFF107FA1E
01F80010FAFE050B
F708F10DFBFFEDFF
1916F4060D0AFB05
09FFFD0E05F81507
F6080E120DEC18F7
0313FB0404FE01E9
09F309F3FD0B08F6
05FA1D04FBF00214
F7FAFF1010FBF80A
07160002F9FBF5FD
0A08F703000EF40D
030C05060AF90F01
01F50F0E1BE914F9
0B0900FB02FC05EA
FDED06F2FC100C03
FEFB19FE04FB0302
FAF8F5110307040A
FD170502FAF90508
060AFD02FE0A0006
040A000A0CF42103
07FD08071DE305F9
04FEFC01FEFB0DEB
FFF7FCF502FC08FD
FFFA0E080106060A
FDFD0108F70C0100
F61E07FCF6ECFC10
0AF80200F609040B
0307F9FE04F81203
04F604061BEFFB03
02F8F7F9FC0004F7
04F6EFFA00F408FE
FFFC0C0702010906
FDFEFD11EE05FFFF
FF1907FCFFF8FA0C
11FAF9FD00FE0A06
FF08F7F6FFF92101
06FD09FE0FF1FE06
FFF7F9FDFFFE05F8
10F6F4FAFEF602FB
04F90EF40AFC0706
FD001003FBFCFEFC
FC1113FD00F801FF
0AF2020204FD0603
FE0600FEFDF61103
09010BFD0FF60309
FFFF0003020103F1
14FAFBFCFD0402F0
FEF6080007FC01FE
F8000603FE070602
020C0A0003FF0202
02F5FEF905FA0303
FD05FE01FDF20B04
FF060E010B0006FA
F801F900F8FA04F9
15FFEEF802FBF9F7
07F5FC060AF60004
F8FA0A05F60C01FF
FF0C170A0207FD01
05F3FBFB06060806
01FB01FDFAFA0507
EE03140313040903
FEFEF7F9FA0200FF
16F8F1F6F3FFFB01
0804FE140CF5030C
FBFE1CF8F00E0404
0506160D0106F603
05E30EFE08000A01
000301FC020105FB
F00111060CF60605
0005F9030005F7FE
1701EC05F606FA00
0E05FB1603EE030B
FBFE2EECFC160A04
080811090201F605
05F003FD0E080204
07FE05FC03020800
EEFE120815FF0AFF
F80AF7FF05FDF2FE
1C08ED02F401F603
0C04F60A10F8FC05
060927E8FA0B0A08
140417FF03FEF902
0DF1FE0608090201
FBFE0202FC0EFA05
F30414081CFF0802
FB09050C06FFFAFA
17FFEB02FC020200
030500FD0502FA08
090213F0F911090B
130F22FE060303FB
0D01FD09060407FF
0105FD03FC0EF9FF
F30C141011FEFD0B
F20906050BFB0B08
11F8F8FFFCFE09FE
09FFFFFAF8FFFE04
080506F8F612040C
080C17020807FAF0
0707F403FDF70AF6
0501FFFC01090901
0112130603FFF806
FA040C010CFF08FB
0EF6EEF502F80E02
0909FA02FB051902
05FDFDFEF703010C
FA07150B0208E9ED
03FCF210FDF504F6
07FE07F80F0307FF
F80E0C07FC03F709
F6060A1516FF0404
0DF8F9FC0BF9FBF8
0803F9FCF9023104
0EF80100F1060603
FFFE0A0EF603E7F3
FFFAF20BFEFC05F8
FF0603F8FC00FDFE
F80B1307FA02F400
FF07001311FC0305
10F7F1FC10FF03FA
04F907F6F9FE2209
04F9F9FEEF060000
02080007F2F7DDFA
FC04FB12060507F3
010604FCFD040E02
FF080402FF02F309
FCFEFC3212090008
0DF6010318F50004
FE0402F404FC0E0D
FDFFFCFEF70DFBF8
FF05FEFEFC02F0F9
FA0606100D000A01
F40AFCF9FEF90207
0406FE04F801F713
FA0802431607F405
00F9060709F9FD14
FB05FE00F5FF0E0C
FBFD08FB010BFCFB
FCFEFE0A0304F1EF
060F061B0AF00506
F0FE070108FA04FF
130802FAFE01FA1C
06FF0530170804F6
F50B080500ED0222
E708F71101061306
FD060404FEF907F3
010B02FC0BFBF3EF
091808220EF01B06
F2F6FC0411F1FE02
21F503F40617F316
00F60025210B0BF8
FA12FE0105F10A3A
EA06F11607011802
F611041D0C041B07
1314FD110AF7F502
0C20041A19FA1AFE
02F9EFFD32F7FBF7
34F60EF5201DF615
16F8001337FB11FA
FA0E04FF2FED0A2E
EE0CEB05FB010D18
F7EE021E090C241A
2B1CFDFFF1E1E30D
1E0B0A0B32F12C18
0CDFD7F92809FA01
34E807F42719ED03
120008012B06001C
FD0211141A020902
F1FDFB04FE000616
04F90C14F5002F0A
1ADBF804FDE9FD10
0114001F3B001313
1006E5050B0BFF08
0FF702FDFE1603FE
06ED180617F50E05
FFFBFA0504F30909
FEF907FE0BFB090F
F9F9FF0BF6131B05
07F5FCF8FDFEFC0E
0AFC101821FF0AFB
0502F9100CFEF9FE
190D0CF7FDFDFA08
F8F21104FC0008EF
E80502FAFB040A04
F9F4F301EDF005F9
F60801F900FFFD02
E709FA040E150204
0005090600FB03FD
FEEC1AFB110DFFFC
010D06EE03FAE603
F20A0708020000EF
FEE80D06FF0E04E0
0AF015EA00FA000E
FFEA0B0818FD01FE
E210111A00080206
EE0408EEFD0FF101
E51BFA0B0CED0DF0
0AFFFF0408EDF40B
03FBFD11E913FF01
0FDE17F4FB1C08E6
11FC1CF9FD12041D
23E4FD2509E5FA05
0511FE25FFFD00F1
08100205061BDF07
FF15FE100BDE130A
1BFC0A0A03EB0D17
0DF60DFCE10B0FFD
15EF13E9F30B02FD
14000EEAFE12F82A
1FE7FE08FDF91204
FA06F1FBFD13F8F2
120FF02A0623EA0C
F50705120B010C10
04012A2003F609FB
021DFBEFD10BF3F9
15EB03EDEA070EE5
FF1110FD0302F225
1EEC040501000810
FD08FB02FA11E909
100CEA070D190708
0211FF19F803FB08
F011170F05FE21F1
0411FAFFFC0702F0
00F706ED000B14F9
020307FDFE060810
09F5071703030307
000F0803F7FEE4FF
0804F60A080E0000
0F0FFB05FAFE090C
0000120508F410F9
000E0200FF0404E3
09F2F9F4040E0AF9
06040BF401F2170A
FC030A11090AFA03
09040BFEF502ECFF
0603F406FF0E0406
00100610010608FE
04FA0A0F13EC0DFC
050F03FE0100FFE8
09F204FA05100201
FD0415F4FF001303
FFF7FE0D0A07F506
FF1106FCFA03FB09
08FBF20602070D0B
F707FE130FFF1903
0900070821ED0103
06FD030C01FA06F2
FDF5F7FE0C0705FB
02FB0CF605060805
0301010EFE08FD02
FD1B08F7F9F6FC0E
0DF5F1FEFC050103
F706F90311001104
07FB060020E8F805
0200FE05FF030AFB
05F1F902190408FE
F60205F902FA0909
FD08050FF9FFF503
000C06FCFAF90108
070001FDFE010304
FF0903FE09011A03
10F4FDFE0FEEF905
0407FC05040205F5
07EEF4FA0CFF0AFB
F80204F607FC0A04
F5000B0DFEFCFBFC
F40D0DFA00F9F405
01FEFFFF02000805
0005000A090010FB
0CF70803FFFDFAF6
FA010C0B06FC11FD
03F701F0100000FB
00FC04FA0DFCFB06
FC00000AFB01FDF6
000612FCFF0102FC
FFF9FDFE06F6FC0A
0006FB080DFC0301
FEF80DFF0B03FEFC
F306040A000405F5
01F7F4EC07FA08F2
02FC0BFE0EFD0D0D
F2FA0707F005FDFF
F9080A0B04FFF9F7
FCF7040503FA0007
FC02FF0009FFFD06
F6F70EF90AFDF300
FA03FD04FA0EFB02
08F6F0FCF9060AF7
0704000603FB0611
EFF612FCEB0C0505
020B131506FEF700
08F10E0E04040505
FDFE020908FF0900
EBF010FB0903FBFD
F70804FFFD07EFFE
1501F2F9FA0405F7
0DFA030A0BF10208
F2F721E6000B1209
FF031A0CFFF9F401
07EA0D050CFDF807
050602FC030605F9
EFFC160D12020005
F51307FBF905F4F4
1A05EDF9F10204F0
10F8050506F4FD02
04FC1BDFFE030209
05FA11030602FDF9
04F70F1004FFFCFB
060B03FB050102FB
ED0B180806FC000E
F70904FA06F901FA
11FAECF7EE0004FB
10FE040105F40800
0CF70EEEFB070410
091211010A0CF4FB
01020E1405FC09FE
FF0D09FC01080600
F813130308F9F812
F50700F008FB0CF8
0FFDF6F7FAFC08FE
0CFFFA03FDF51601
05F80009EF06FA09
020508070309E6F8
FFFC0510FEFE05F4
0A0909FA030E0F0A
02150C05F600F204
000B09F30F010203
0A01EEF1F7F204FF
0F07010002002707
03F2FB07F808F906
F4FE0104F700C2F5
0901001CFB0606F1
030605FCFD09FF07
00090F05FC03EB03
000808FA08FF00FD
0AF8F5F90AF6F9FB
0301FB07FF053705
01F50401F6FFFA06
F900FD02EBFACEFE
01060311FF0504F6
FF0307FC0202F901
F8FC0DFD0300F408
FA09011309030B02
0600FDFB0DF6F703
03FB01F800012200
FDFB02FF00070205
FE07EFFCF8F9DF00
FF060211040409F9
F6FA00F701FCFFFF
01FF07FF06FBFB0D
FC07FF3913080304
0201FFFB18EDF611
02FA07FC07FA1906
03FFFF010103FAFE
0805F7FE0306DF01
01040511FCFB0700
FCFFFBF8FF04F8FD
010503FE0D0AF412
060804420D05F8F7
F702FA0111F4FA17
01FF000B0705220A
FCF50CF90A08FAFB
F6FFFF09FEFAEA00
FA02F90C10EB0D03
01F501FF00FCFAFD
090201F90D08F412
09FB0D321C00FEE8
ED1BFC0904F7EA2A
EE01F81403031D07
EF0314080D06F909
FA12FE0C02FAE2F7
0506090E18DC1FFF
FCF003FE1FF0EF05
24FC02F21310EE19
0BEC0F261DF610F1
E326020300F1F237
E90BF01703051D06
F3031420150A0320
1513FF0004EFE4EF
0E03060B26E11BF1
0ED7E7FA38EDF0FA
40EB09F42723EB14
1AFB0D1F29FA18ED
EC0D05FE10E70915
E510F607FDF71411
F9E9142118081823
250F03F6E2E3F202
1F0CFB002CDE2019
0CCBDEFD2DF6EE09
2BD908E7202BEB0D
1CF51B0626040A05
F808000417FB0E09
F613F7260CFA1417
0AF3161C010F3D13
12FAFCFFF0F9ED10
0B07FD1C2BFD1C0C
0E00E31016FAF209
1BE4ECF90823FEFD
FBF313FD0C0214F6
FA00FA09FFE40A07
FD14050705FC1120
0BF507F6FB201009
0B0707EEF806FF1B
FFF1100D19FA1AFB
05F9FF1512FBF303
14FCF9FDFD0CF3EE
00FC040204FDFC00
02FAFFFF010202F8
00FE0C0002F80102
02FD0200FD04FC04
0109000401FC0403
00FFFB02FB110003
FF01FCFF09FA08FE
0AFD0FFE00000102
000D0B0AFEFD05EF
0EE9EEEB000CF0E7
15DC12E60FED0014
FEECFD19ECEF06F5
E10AF417F604FBDA
1300090BFC16F800
FB2CFD0A1EEB0BEF
16EE0E1311F0010E
070200FBE9EB0CED
29E80AEB001AFCEC
22FB2AF108FB0537
10E5000E08E009F9
F414F11AF509FFE7
0414F015FA1FE002
FF0C0B1406F71509
140C141509E71301
12FD0D02D7FC11F6
14EB02E7F8FCFAF9
16FC0DE60109FD1B
13DE020207FD0901
FF11F805F01C05FB
0E0CEF210514F915
0AFA0E0510080D09
0600201808E509FC
0A090DF9E3FC00FC
15F702EBF6F413F2
040F0CFA01FBFC1F
20E90C1202010C04
FE16F0020615EE0A
1308F00408170F11
1113FA13FAFAF912
FD04070C08F50FF5
FD0608F9F7010CF0
08EA01EF04060EFA
FF0D0EFC02FE020A
0CFDFD190502FEFC
F913040D0400EEFA
03F7FBFD04120D0B
0B11050D03F90107
FC0512FF0EF2F9FD
040B0300FBFA06F2
05F4F9FA0A07FFFF
FCFF050008FA170B
0C000401010AFBFE
06091604FC01F802
00F4F206F6100A08
0C08FF0D01FD10FB
06F906080FE20701
09050504F7F804FF
06F5F90211090200
02FD07F705F81106
0806020102FEF500
03051201F8FFFE0B
07F8EA03FE010601
030504080B000B0A
02FB0B1818E9FC0A
0C06060C01FF03F9
07EE00FC1B0E07FF
FE0008FD06FA0708
01080804FAF9F701
FE1209F2F8F9F912
09FFEAF604080205
F709020015011D02
05F004FE20EDF507
FE080216FF0A02F6
0DEFF9FA19010608
FD0309FB17F80705
0008040AFB05F5F7
FA0D08EEFCF6FB05
FBF7F2F7FCFC0A0A
F90AFEFF0E041107
18F007FC0FF9F805
FEFC0314030004FD
09F5FCF91305070B
F8FF070117FC0402
FC030504FDFAF4F8
FE0512F7F8F9FF01
FFF5F9F2F3EE0414
0004010106060000
19F807FDF808F8F8
FBFF0C1906051101
04F6F9F315FC05FE
FFF8070210FF00FF
FB020C0BF2F9F5FD
FDF90A04F7F1F8F3
F5F6F9FAF8EAF813
000500F913FEF601
0AEA05F70C08FBFE
00F70B12060802FF
0501FDF60A000BF9
FDF8060207040FFD
FC010911F501FB05
FB08040CFDF7FCEE
FBEE0308F8F6FA0D
FD0300F41400F90D
F8F50BF60F0DF406
F5010DFBF708F001
0104F1FDFB0004F2
01F70A090B000400
EBFD20F7F8FF0502
F90E0815070001FA
01EB121C00060108
FEFC03FB0CFE0000
ECF70DF703080001
F01411EFF405E5F6
0305EC01FBFFFDE7
0DFB0B0608F40505
F7EE2EE702F30DFC
F9F6030C0202FD09
FDE2141B0309F302
FB0000FD03FF08F6
E501140302040605
FB0A12F0E306F0F7
0FFDEF01EEFDF8E7
12F508FD01ED0704
0AF80CEA0BEFFAFD
FDF1FD01FF08FB01
FAEC1320FB11F610
08180400FC020DF2
EC06180BF8FB090E
FE0B10F3E4FE03F6
03F9F5FCEE00F7F5
11FBFF02FFF01B02
10F4F40005F6E80B
04FDFA04030BF1FF
08FE1A10FA02FD08
09170100FF0508F2
F91E0F08F8F70008
FF040AECE1F506FC
FFF6F3F5F8FEF8F7
0D08090301F62BFF
07EEFF11F607E30B
F7FBF6050210D707
0601150BF60702F3
FF0E07FD080702FB
09120BFFF8F9F902
04FD06FAECF5FBFF
F7FCF8F70003FCFA
0CFF060005FF2800
FDF40809FA02F008
F3FDEF0EFE06D503
0DFC0D0EF50A04FB
010510FA090BFBF9
050E060705F4FE08
06070901E402F7FC
F6FDF7F303010300
01FFF90303082AFF
07F00703F7FFE903
F601FC06F201E202
0C040504F60107F8
FA0610FDFC09F4F8
080C09070DFEF804
0B0C0B10DAFCFFFA
FEFE04F507FCFBFF
04FB01F8070123FE
04FA02050301ECFF
FA06F0FE00FEFA05
0D0D0906FA000EFA
FCFC05FCF907F807
090005FC0BFCFE00
03FE0A34EF0607F0
FD0200F8FEF60010
00FC01FD09001B05
FCF801030805E502
FA03FB010000F306
0BFD0900F9F40EFF
01FB0301F303F503
0F02F4FF0701F300
08FE0F39E8FE01F0
010403FA00EDF40E
FF08000C0D041417
FCF71704FA08E40B
F400FE0BF7FFE504
03F3FD00FFED0A05
0BF90106FAF9F706
FFFEFAF90E04F7F9
0AFC072CE60007EF
EE0F0309FCF4F621
F309EE130F0B1713
FAF62214FA0AE80C
F50B0411F9FCEB01
04F7F6000BDE1900
0CF506051CF8F20B
13FEF4F31111EBFE
0EF41C1FEDF918E9
EE1B01FEF9F0ED2A
E906F607FCFA2516
EFEF1D0F090DF71B
09080118FDFDF2F0
00F6F1F51FDF24F1
16EDEFF33BE4EC13
30F108F61E21DCF9
1AFB240405F30DEC
EDFEF6F419DCFE13
DA01EF04EFF82009
ECCC0B1B110B0A24
28F60309CEDCF1F9
0310F5F318E71F0F
22EDD7F121EBE90D
23D111E2241BE209
1C0E0BFD031205F7
EB04F3F323E8FC03
E40EFA2713F91D1C
13E51B120717120D
29FD0F0BDCEFEB09
05F5FEF722F81D15
09F3E8FC19EAE616
22E4F6EC1314EFFA
0C0114FB11F6F7FD
0AF2EBF403F40AFA
00110C19F90E021F
FD0A0AFC0C08131D
0A080E0AFD0A0D0B
F9F8FBFF19061B04
F60704FA0A0100FB
FC070DFEFB0BF609
FDFD0902FDFF02FA
FFF9FD00FC0000F6
03FC13FA0400FF05
05F9FE04FE03FFFC
FE09FC06FB0304F9
01020400031201FE
0100030109F91001
0A0209FF02FF0103
07050806FE01F5EF
09EDFCF1010DF4E0
0AF00CE706EA0425
FAF4F920FBF1FEF7
DE02EF0DF80100E4
0A04FB08F219F001
FE33060D13F002F1
2AF4090A0AFB0411
12F109FDECF0F6F3
24E302E5FD1AFFEB
1BF11AED15F60A25
01D4FC18FDE20C04
DE13EB2B0D0AF9EB
0107F9141122E6FE
F1160AFB0AF60FFB
030D180305E006F9
1A030DFCDDEC0DF3
24E8FDE5EEFBFFF3
0FEA04EC06F9F81B
0DD60B0B12FE0F02
F111F0090619050B
0DF2F10C0D19F007
10FF02F7220503F7
FC001F1F10E404F4
100A0000F0030CF8
11EBFDF111FA0F02
FC1207EE0201F719
0CF8FD06FCFF10F3
F914FDFC0F0BF210
0905EDFB0C0D1504
1006F50F06F4FA0E
01FBFF0110E2F4F9
030304F6FAFE0BF3
17FCFAF7150EFF00
070516FB08FFFAFF
1100000D0504FEF8
FB170E100AF7FEFA
FEF1F50003020DFC
0202070905F20903
00F6010202EAF7F9
FE130701FE0201F6
04FAF50B1A0EFE0C
06060D040D070D01
0BFBFFF9FFFFFAF6
0A031A00F9FBFE12
04F1FC07F805080A
0705040403F912FC
06F3FD1211DDFE0C
0402071306000001
FAFDFA050F0AF904
040004FE0CFD0009
01090701F9FBF9F9
FFFF07F6FCF3FC19
09F9F1FEF6FBFE00
FFFDFF030B032004
04E8041211E8F40F
06FD0321090105FF
FFFAF90319050707
FF06080011F5FE05
FC08FE00FF03F7FC
031408F2F8F5FE13
05FBF2F8FFF90309
FE04FEFB0F022F0B
16ED08FE1A04F008
02FE021A03060A07
0400F90315FB0511
000211FF0FF603FC
FC06FBFEFA09FE01
FF15FEEFF0F500FF
00FCF1F2F6EDF60E
0205FDFB07FD1A03
1AEC09F31B07FB09
05F0FB120105120D
FDFBFAFB08010514
F6FD09FB0DFFFBF8
F206030EFD06F602
01010502F0EBFE00
FBFBFAF9EDECFA10
FD03FF010801FDFE
21F1FEFBF50DF3FE
04F2FF0A03FE1405
FD05FDF20C04020D
0001080B0904FAED
F10C0613F202FB03
00FDFF12F6F0FDFE
FCFBFFF7EEF2FC11
FCFC03F70C01F4FD
1AF30AF20A11F7FD
FEF40B0703000003
FB10FAFC00F30413
F8FE0509040704E3
F90F0814F503F6FC
0005F21904F300F7
09F5FD09FBF4050F
FFF403F513F6F50D
05F60CF70F0EFC04
FC0114F8F6FDF204
F812F5FDF7F2FD09
00F4120605FAF6E7
F3072803F5F214F8
00FAF117FDFBFEFF
0BEF0A22FC05000D
F5EA050419F2F70F
FDEF12F2080B0303
F8180CEDEF04E2F7
F70BE700F2EFEFF1
0BF808FC00F90501
08FB33E305ED04F2
05F0FA03F803F908
FFE30910FC0EFB16
00F8FE0511F701F3
F5F90605ED0C0701
07070BF2DD0800F6
FBFA02F1F1FCF7F8
10FB00F4F9F61A0D
09F5FCF80CECF9EE
01EFF003F002F2F9
F9F40C0CFA10F515
0B0E020202FE0AF3
F5FA0A0CF3000105
10FA0900D5F605F6
F6F504F3F202F4F9
1A0208F703F52500
16FCF70F09F7E3FC
04FFF404FE02FAF8
02050F0AF80DFD10
061CFAFE030306F2
FB0A0711F8FC0207
010010F5C1F40202
F8EF00F70407F1F8
0E04070509002902
0CEF00110008E50C
F705F0080307EF04
120A1311FA0A0206
020BFEF7010E06F8
060D060A00F4FE0E
FDF90DFDB7F6F7FE
F7F504F71803F6FB
0EFF0C030EFD0A01
04F40904050BE708
F8FDFD0B0009F207
12FE0BFBF0020303
050108FAFE1003F1
030F000406F1F909
FA020D10B001F701
F9FA03F8190204FE
0F0504FD0F0F1101
00FB000AFA04E503
F90BFA02F603FAFF
0E080A01EF060101
00FD1005000DFBF4
0206FF0D0AF70001
FAFF0A21B8FDFFFA
FBFA04FF07010AF8
0AFE0A0214061AFD
01FB030BFF07E2F4
F608F4FA08F8FF0A
0C040004EB0101F8
F9FD11FE000DFEFC
050BF5040AFAFFF2
FAFC122EBA050AF3
FDFA06FFF800FE03
07FC050A11FD23FE
06FAFF00FB05D1FE
FB0BFDFD02F7F509
0BF2F803E6F60300
FBF90700F105F9FF
0106FD0504F401F3
F5FF0622B40605F2
F7FEFEFCF7F9FA19
0605020715061307
05041306F406D4FA
F50AFDFFF804F703
15EEF7F9F0F00907
02FBFFFD0300F00B
0914F80916FDFFEC
EBF70315C5070CEA
F311FF03EFF6EC2C
F9FBFA1A07FE0AFE
050224F60012CE04
F5FA130501FAF3FE
05E7F9F5F9E212F9
06F9060316F3EC0B
14FBFE0621FFEEDD
F7EE0716D4FC14F6
EA09F8FC00F2F82C
DEFBFF09F2FB17FB
F4F314FB181AC60D
10F4FA1AFBF6EDF1
F5F3FCEF03DF26F2
11EBF9F62ADFE212
26E5F5FC2602E3E5
07F71403ECF0FBF7
02F8F2ED19F2FB0C
E104F705F7FC1BFA
EBD50B112700F619
25E2FF1FD5DFF2F9
F0FF05DE15E21B18
2602D6EC1BDFE112
24E4FFF521F9EA04
220B11F80DE901F1
06FDE6ED22E4030F
E217F71905081B0F
FBDF1C0812071212
2CEF061FDEE6EEFD
F0EC11E336EE0D23
0F03DEDF27F1E308
25EDFFDE150BE214
0DF7120005EF01EE
0EF9DEF502EA0DF5
030F010905160923
F803070BF9031215
03FE1707EC05F6FC
13F7000D1A00F1FF
07130FF001FD0EFB
090D0107FEF5F10D
01040001FC0000FE
FD0001030503FFF7
05020601FF01FC06
0203F90605FE01FF
FBFFFE060300FCF9
FF020005FC11FFFF
FE10FEFC09FC0402
08FE0504FF00FD01
FB000D03F905ECEC
08EFFCECFA070AEA
09F312EA0EE7022E
FCF008120BEB02FB
E602F50BFC0E0CF2
F403FB06F823F904
ED160C0822FD02ED
20FC0E00FF01EE06
11F31007EEF3EAEB
1DDEF8E9F9050503
15E610FD16F1001A
0AE7051403E31103
EE0AFE1E02F308EB
00EFF307071BE606
F70FFB011BFFFFE8
13F31F12000803FB
110713FBE4F101F2
1EDB03EFFB0305FE
0BFA03FA1AFBFA08
18E3FD140BFB0EFF
F115F703040D0007
0BFFF20F031EF407
07F7E6FB1AF804F2
0702161C0FDFFBFA
14000502F8FB09FF
16E8FFFE1F100308
080D00F511FFFCFF
01FEFF0F00FF0CF2
F81E060B06F4E70D
FBFAF507F40B01FE
0001E80505FC08FF
03F0FB0A10E7F401
04F8FE06F70507F9
08FFFA090D0EFB0E
06060BFB0FFF0BF6
0C030105000A01F6
01110A0F07F4F701
07F6020DFAFC1207
F305F90B02EE0D0B
04EDFD0901F1FB08
02FD091E05020306
030FFB0B071AFA10
030003FA16FF0EF9
050205FEFEFAFC01
00FF05FEFEF6FC09
0FF2FF0FFAFB0606
F9FD030312FD0FFE
10EE0A1007E7F412
FDF80922060C0AFE
F40EF20A0516F615
0D0606FF0C04FBF8
FB1201F6FFF9F4F3
FDFDF8E300F20308
0EFCEF0DF5F6FBF5
FEF2FE0413001A04
16DD04061604F818
09EB031703060105
F90AFE0B100BF416
01FF02FD0901F2F1
010800FDFB03FAF7
0A07FEE8F8EF07FA
0BFCE403EFF9F401
03F701F604082206
15F107041915F812
07DF070E020D0C06
F203020F0600001F
FDF407F508F800E7
FB07F902F0FFFA03
0307EFF4F9F404F6
0DFFEAF7F4F2F606
03FBFEFFFF021305
1CF20BF11D100015
12DF0D0FFF0C1D04
F30FFE0C09F8051E
FEF907FD0C02F6E5
F60DF50DF209FA09
FD02F803FEF6FC00
09FFF3FAF7F5080B
FCF709F90FFD020B
13FB06FA120CFB08
15EA11FC03FF1708
F813F9FC04F5F826
FF020A07070500DF
F015F811F206FC00
0103F20FFAFA03FE
0FFFF30801020407
F5E8FAF60BF9F80A
15F409010A0FFF05
15F713F702040203
F417F7EA09E9FF17
FAFDFC03F904FBE3
F711010DF8ED0403
FCF8EF08F9F505F1
06F6000D0107080F
FFE3FFFF16EDF90F
14F505FD030A0605
0B0918F30400F1ED
F012EEE9F9E0F808
02F0EB06FCF900EF
051828E8FEEA09ED
0BF6FE01FBF901F7
0AF1F21C04000C11
FBD9030413F6FD0A
05F303FDF91000FA
051914EDFC06F7EE
E805FAEAFCE2F2FD
07F6EAFFFAFD1102
090E19DE06F402E7
13EC0902E9FBF5FD
FCE0F60D05090018
18E3F909020A11FD
FBE70602E9100BF6
12FF0CFAF8050AFF
F90307ECFEF8F8F8
12F3FAF9FD062709
1108FEF90BEAF7DF
11EBFF03E3FAEFFD
FFFA0203FF14FF13
1406E701FB060EFA
F3F20810F10EFE05
18F10007FBFB0205
FBF207ED08FEFE00
11FBFFFDFD091EFE
1D0EF70C0FF3F6F0
05FCFF00F7FDFFF5
0A11090C02160113
0410DEFCF805FFF7
F900020FFCFC0A0F
18EC0706F5F40009
FEF806FA1A04FDFF
11F80407090B0601
1607F70C0A02F4FE
F804FDFEFD040004
13070211FB0EF909
0403EFF8FF13F9F8
FE04021304FB0D05
FEFB0C0AE4F9FC07
F8F0F8062904FF01
110702000C02F9FD
09FD06090201EF09
FD010500FD030203
13FEFF05FF0AFC0F
FEF7FDF5FC1507EC
FA04FD0A09FA0703
F6060429D5F601FB
00F2FD002605FCFA
100AFAFE0B08F904
08030601FC08EEFF
F81007F902FF05FB
1103F7FAF7F9FFFE
FFF804FB0111FDF4
030BFF0E00FB07F9
EF000B28C4FB08F8
05EDFA030A0703FE
150004FD14FFFC05
08030005FA0BDFFB
FB1504F90EF80D03
15F6FE04F3F9F8FD
FAF908F8FD1001F7
F707FB170EFB09F7
ECFE0A32BF010EF9
02F8F6FE0602FF05
03FC0305110004FB
070D080201F7D0F5
F8110BF812FC04FA
12EA0104DDFCF4FF
F9FC07F8010CFBF3
02FFFE0B17FC08EF
E6FBFF27B31411F3
FA08FB05F4F7FC17
0B02FA0B12060F01
05161602FE00BFF6
FB030AF70C07040D
0EE9F40ADFFFF6FE
FBF904040D0BF7FF
050B090B2205FAEE
E3F9F91ABB050BE8
FC14F303F3FEF625
F9F9061204FB05F5
081118F4FF0FC2F7
04FC05070BFD080A
01EF0704D4000204
02F7F90322F0F40B
13070C032E09EFE3
EDFEFE12BE041BDF
F314E705EFE90223
CE030E11F6F902EE
FA0626DE0E10C3FF
01EF1A0309FBFC09
F1F20902E1E92BEF
F2E0010134E3E91D
1DF1F8E32011DED9
07020711DFF406D2
000FEEEC14ECF90D
E7FAF811030F14F0
EBF728F70C06EA12
20E61002FBE7F41A
F90002FAEDE31919
03F9E0ED32F0DC1A
19E80FDE0E0CDF08
16F90600F4F407DB
0516E5F710EAFA12
F118E816FF2433F5
F2E4120AEBFE100B
27FA1110ECF5E003
15F3050412E1091E
FDF8EBE81D01E817
25E805EB130AEA1C
0BFE0C040FF3FBFC
0AFFEBF701EE02F0
00F6FAF2FE050A02
EAF9020DFBEC1C0E
01F00FFFEF01EEFA
0C00F91414FFEFF8
1F1307F6FAFA05F3
08FA0207F700010A
FBFC01FF0300FBFB
FBFE02FB000504FD
FEFF02FAFDFE0307
0103FEFF02F90301
00FEFC0700FDFDFF
FC03FCFEFF07FEFE
0508FE01FFFCFFFE
0104FDFEFDFEFE02
FF010CFDFB06E3F7
08EF00F0FF010302
07FB12EA10F5FD1F
03EEF60E02F40301
E607F20EFB0309F2
03F608080413FC05
F619FF0521EF05F4
12010700FEF0F701
FBF70E01F1FCEFFA
0FE5F5E7F408FD04
18EE1F0215FEFA10
04E8061208EF08FE
F408082202FE1AEB
FBF7FAFEFE18F000
F91007FA1EF201F0
160320070903E7F8
FCF90500EB08FFF4
01ECFDFBF501FA01
01F30DF516FEFCF1
08E9F20CFFED0A02
FA18F9FE0C04F7EB
0605EE19FA1DF505
F0F8E70E25F710F7
1806120106EFF100
10FB0315010BFAFA
0BEFF907030FFC0D
170905F5210402F7
09FEFF05FF00FEF1
F62409FF06F8E705
05F4F407FA07EC0B
FF01F001000702FE
08E1080E08FEFE16
03FC0510FD0F0BF0
0A0BF605F312F720
0DFC01F00DFD0AEA
03030405F90602F4
061B03F805FEF2FF
0FF9F821FEF50405
EBF4FF00FEF81006
0AEF020C03FC000F
09EE0B180DF9120A
F30DF608F81FF516
0BEDFBFC00FA02DA
F60AFFFBF9FB00FD
FFFEF4ED02FC07FE
11FBE91CF6F608FD
F5E908FE0B060701
10EE080CFF00FC0B
03E80E1705040B05
EF10FB00FD19F71E
06F902F3FE04FBE4
FA080200FEFBFFF5
FDFCF1E3FEF206F0
0DFEDB14F9FDFCFD
FED9FFF80FFD0FFE
10EF0607070BFC15
FFEEFE0B01090406
FA08070F050AFC1E
04F808F2FD0CF7E4
FC05FC03FE06FFFA
FA05E8F1FEF908EC
0701DF0BF8FBF900
08E003F701FD2706
10FA04010B140017
09EF0400010B0806
F7100218FAFDFE1F
06FCFBF70300F8EB
F513F402EE0005F8
FFFAF2F5FB02FFF1
15FEE705F9FB04F8
0DDE02FE090616FF
0FFB04F60E13070B
13EF09FA00001408
FB06050CFCED011B
FCFBFEFDFC08FDE4
F50AF010F3FA04FA
FCF6F3FCFA06FE00
1305F109050209FD
07D30BF706000307
03FFFBFC12010F0E
13F204F808F81A0C
F0020BFA04F1FB1C
F6FCF008FF0B02E8
F917E912F9FA0602
FEF5EDFBF7020401
190CFE070B0A0006
FCC902F906F4F511
15FCF8FE10FC0512
150404EF0601060A
E9010FE9FDF0FD1B
F6F2E516F505FFEF
0113FB0E00F102FB
09EDE5FDFDF906FA
0E09050DFE0C070F
03E104FB15F8FA14
14FAF6FCFA0A10FF
0E10FFF40102F200
F40902E501E8F90D
FCF3D41BFCF7FDF7
191115E503F709F5
1CEAFBF9F5010102
05FFFD0CFE010D10
12DD00020909FB12
01F2F2FFFD0D0BEE
0A1B03EB010BF9FC
FF0A02EE05E5ED07
0400DA0B02000D0B
0D0B13D50EFA02E8
21EF10FCDFFDF207
03EFF60E060A0B16
1FE5ED0CFE17070A
F6E9F404E31A06EF
0F00FC0B0408070C
000D03F20CF1F704
12FBF9F90B0A1008
061502F80FF7F9E6
16F60903E4F5F903
0AFFFA0905100918
1402DF02F20DFD04
F3F2F804F40F0508
1EF5000A03F9FC08
FF0806F706FD0AFD
10FBFAFF010603FC
1715FD100CFBF8E4
FB030602F1FA0001
1606FA10030D0110
0100E400F20AF904
FEFE050E02050E03
14FB0D000FF6F506
FE00FE0909010005
0FF900090607FD07
100B000AFAF7F9F8
FA0107FBF6020403
0B03FD10FD100014
FFF5F7FBFF130401
F900030B07FE0A03
05F7FE0808F7040B
01F8FE061B030400
130B03030CFFFC01
10070609FB04F9FD
FBFF05F5FE000700
05F6F504FB07FC10
04FFFEF5F90F13F9
FBFBFD0A03FF0905
01070727FC07FE0F
02F7F3101C05FFFD
0F0AF8071409FBFF
0908FF08F30BF1FB
FA1106FC010503F7
08F5F704FBF1F10F
000202F604151E00
0103FB0804FD0408
F8FE041DF40B0305
05FFFB0C100CF70A
0C09F4051409F4F4
100D04F8FC0AEFFC
FB1E040102FD0501
0AE9F509FBF1F303
06FB05FBF9121FFC
F3F9FC0B15FF00FA
F5F5FD20F8171101
FB05020E0804EE10
FDFBFB031606FFF1
0A19F903FE03E9F6
FA0EFFF110020A05
19E7F804EEF1F20B
F8F7FC01FF141DFF
03F700FF130601F2
F1E9FB16EB151405
F612F80CFC07FA1F
FBF3FF070F0302E8
0A1505FE0006DBF9
F40704FB15070B10
0FF5F60CE601EE05
F8F3030409140F02
F9FF0A071C0203EF
E4F2FC10DA1310EC
ED18F007EF070822
FDE5FF1109FDF7ED
010F06F8FA02D1F4
F909FCF911121010
05FB0210D617EE0E
F1F5050E19011207
F6F609FF11100EE3
DCFDFCF2C3130DEA
EF10F91EDE091C04
E0F9100EF8FCF5F4
0F0B14E7FE0AD5FE
F30C010929150C15
F5060503AE0D09FD
F0F2081326F3070F
F6FDF5E01305EEE5
E30F0AE6DB0A02F6
F5F4FB09F70614E3
F7FB050A03160505
11F419EEEF08EAED
0EFC0A102302042B
FC0301FDE2F41100
130BEE0709F9FA13
FDFE05EA09FAE3E4
F21C12E3EA07EC03
FDE8F8FD0B0602D7
E41BEE14151F22FB
EEE609F4F51401F6
0DF5161BF5F9E3FC
FBEE10F913DB1DF8
0713F3E6F2F3F0F6
12F7F2EF12FDE7EE
0617FAFE040BF9FF
FDFF01FE02F407F5
01F801F003FE0D0D
E3EEFE0715FA19F1
FDF0FD07F91609F4
0308030B11FEFCF5
220803FAFFF803E7
FE00FC0DF4FCFB07
FE05FC01010201FD
FD03FD0200FEFF04
000403FBFFFF05FC
F90300FE0400FC02
0003010503FE0004
FFFC02010202FBFB
FF02FD04FF010301
FEFF03FCFD0600FE
FDFD0700FA01F1FA
FCFAFFFFFB030C09
F70112F308FD0411
FFF8FE060102FF00
F202FB0200FC05FC
FCFD0007FD090405
F701FF001DFA02FD
0E00FBFBFDFAFB02
E5FF19FDF90BF4F3
0CF0F6E3F40009FE
0BEE21F215F7021C
EFDF07030EFAFC06
FB0CF01EFF0512EF
00F90A01F91EF3FF
EF160A0324DE0DF6
1EFC07F70EE9DCF0
0CF60C0FEC1EF5F1
F4F1FF03F8040100
0FFD0BF919F207F5
0DE9F308F9F10300
022000F9FB0AF9F4
120BEC1F05200B13
E4F3E914170016F5
1E0811100CD7F8FF
1DD8FC1CFA0D03F4
07F5040AFA06FA08
22F900F91BFE0AE2
09F9FE04F5FDF0F7
081A04EF0AFDEBFD
13F9E6140812F213
FEE5FFFCFD0A0BFD
08F51014FEF9121D
0FF3091F050F12FF
FB080307F715FD1A
11EE04EFFB0605E5
FC04FC06020204F7
FA25F8F2050B02FD
0DFDFB190000F916
F6D706F9F5060E0E
02F7000705FCFF0C
01E400100D03100C
F2100109F920041E
07EEFCFBFDFFFFD1
F906FCFCF4F60DF4
FC10EFEF09040D03
1000EB11F6FFF700
F7CD08F304050101
FCF4FC1200FF080E
FDF0FF1403FE0910
FA03F9FEF71CFA25
FAF9FCF9FD04F8D7
F308FB03F9F609FE
F802F1EC040101F4
0B00F011FDFAFFFE
0ACC0BEB07FE0EFB
0EF90306F2060314
FBFA030AFE030209
FC09060CFB13FF1A
00F6FDF9FC07FBE8
F107F8FDF50000F7
FB0DEFEF050404F3
0A07EE0D02FEFFFA
07CB09F3FD021005
040307FC030B0D12
00F007FEFCFC060A
00080611F7010011
FBFCF5FD000101E8
F215FCFCFAFE02FE
F3FDEEFFFC0604FD
0C07F20205FEFEFB
16D108F6FC030C06
020408F510050C0B
0CF603FD00F91A08
FD00131705F50304
FCF2EE07FCFE00E8
F809F802000203F6
F9F2F0FAF1090302
0E0908FF09030BFA
03CC0FF205F60401
08FE01F41802140F
03F4F80008FA1510
F2F9190D08F6040B
F102EA18F40C02F1
0612F013F8F503F5
FCF7F0FBF4050005
09130EF905FF0B05
04E604F800EDF70C
0F01F9F214F60B05
0503F8F506000208
EBF71EFD03F10113
E9F9CD2AF505FEF4
160CFC00FDFD0AF9
13F0F5F3F40404FB
031206FD04FE0D09
13EF08FC0601FA0D
0D01EBFA000406F2
0712F3F80402FC0A
02000EF905F5060F
F600DA13F70905FF
130412DCFF0600F0
2CF704F8E9000308
0408F7FCFD030B12
13EDFDFFFA0BFB1A
FFF7EDFEF60706EE
0414F2FFFB0AFD11
010D02050EFBFE05
0103EDFB050D0B04
03020ED80F11FCED
2AF30A05E5FBF204
06F6F70A0515041B
1DF9ED03ED13030A
F0F4ED06EF1E07F5
060BF014F710FB14
030D090A16F9FF00
0900FCF8080FF708
011308FF0E0300E5
14FC0907EBF3FFFA
0AFDFF0EFD170017
0A02E003EC0CFF11
F9F3FC0BF3110F05
15FEFA11FA01F612
070C08090BF50401
0EFC03FB0E0AF207
0914000D00F9F8E4
04FA03FBF8F30104
1008FA06F616F118
08FDDE05F706FD07
FEF6F914FE080E07
120304FE04F5F908
08FE020C0BF70BFC
0AFE0A000B06F801
040CFC1003FCF2F2
FCF8FCFBFA00FFFC
0005FB01F90AFD17
0500F104F7090606
F702030FF7011009
0D09030E10FCF610
00F6040A0BFC07FC
0C03FEFC0A0502FE
0F0DFC07F8FEF6F1
03FD03F501F8FC09
02F6F210F602F309
040300FFF6031F08
F9FA0109F902090E
0AFD001F0F01F912
02FC00111701F401
0302FC0206040001
110CF900F900F5F9
091B01FCFEFC03FF
0EF1F606FCF9EC06
00FF00FBFE022CFB
FBFFFF02FF010E03
02FA050D0E03090D
F904060B1003EB07
F5F6FCFC0903F2FE
11110106FFFEF2F8
0128FE07000100FE
16F4F506F9F7EAFC
FC020800F60029FD
0101FC0317F90BFD
FDF0FF080E121003
F00909110706FB05
FAEE03FB0E08FDF6
0A16F30206FFFFFC
F32201000A030408
1AFCF104F1FEF0FC
F9FD020000052303
02FF0706140206F4
FFE9FC18091215FD
EC0AFB08000A0019
F7E2F90206FAF9EA
041AF0FF0201FBFD
F120FE011A0C0118
17FEF804F9FCF704
E9FE08F90D0D1FFE
F10007020CF805F6
F8ECFAFC031016F7
E50907F9EB1C180F
FEE10608F8E6F0F3
F70FF2F508EEF5F3
FB19F40C15180518
FF13FF0DF70CF505
EA00070916FA2CF9
EBFD0AFB0FED14EF
E8EF09FDF00F0DFA
EFFC0CF4F5172300
F2E31508F1F3FC0A
F3F401FD03FDEC02
F811FC1714110F11
F4130CFDEA0DFA09
EA080C0126E21DF4
F2FC01E61CEC06FD
DA0301E8E01AF40F
F2EC0FFBF01D19EC
F1EA05F50A150411
06EE0612FFFAE3F5
0102011413080011
F3110FF5E8F8FAFF
FF1BFFF6FDE913F6
F50CFCEC1AE9F8F4
E714F6E4E620EF0D
09E80D0403150FE2
EE07F8040B111B1C
13E305F9FF0EEBFE
EC090327F809E017
F7F90BE608D30FFE
0926F0F1EADB05E8
080FE4F212ECD6EA
F31BF4F0F117FFF4
08F30F130B0D14F1
000C13FA0C0C0A08
0FF1F401F415EB10
F00A0A100512040A
FEFB0A05F70AFBFA
FA151307F10400F2
020AFCFE02FCFDF4
FEFD01050FFE00FF
03FE03FD03030007
F600FF01F40104FC
FFF6FC0400010405
010FFA0303000501
00FEFCFA0D0209FE
F0FF01FE02FE0301
06FFFBEDFCFFF1FD
07FF17FB010204F7
FCFFFCFBFCFB0105
05F30BF608FDFC0B
FB00FF05FCFD10F6
F5FEF603FFFD00FA
0804F41C0C0807FC
09F308F20E0CFE09
05FCFC1300FF05FE
FD0719FDFE06EDE5
07F1FDE0EF001200
FE0E1BE31CE7FD1F
EAE7F812050511FF
DF13F319FB070AF0
08F8FC0E0A1DFD01
F409080C22E70FFC
1007030200F8EBF5
14F002FADF18F5F1
FAF20BFBFFFF00FB
0B06FBF908E30BFA
07EFFA10FDF1FFFF
FC1706FB0604FDF4
1008F51510230512
F4EFE40D03F909F0
0E04001508E00504
18E1021509F20109
FEF20307F608FC0A
0EF0EDF508FE0FDD
04E6F806F2F8F6FD
030EFBF203FBF3F3
1B0AF0111AFDF2FC
FEE8F7E8EEFD09F8
0004130B09E9131E
0EED091E0210100A
F5041005E91E0018
0DE4F1F7FA0909E1
0708FD08F3FAFCF8
F819F6F00F0CFB04
0B0A010FFDF8F00A
E5C606ECF902F908
000806FC14EE060D
00E8FF130F0F0D0E
0403080EF51EF51E
05EDF3FCF602FDD9
F40EFAFDFAF503FC
F518F5EE07080903
0A01F60FFBF9F209
EBCB0BF5FE08FBFA
F4060D0D0AFB100D
F4FAF908FFF70111
FEF80604F921FD16
FAF3F4FEF70D04D7
F30DF700F9FB070A
000FF5F20E0806F5
0D0E010A00F7F7F8
0ADF0CEAFDFA06F9
040BF9FEFFF51216
FFFCFCF801F5FF0D
FDEE0A09FB130206
F9FBE7F9F6FF02EE
F109FA00F3F7FEF7
FC18EBEF060707F4
0C0CFC0309FEFA02
0DDC05F2FD0309FC
050705FB01F30F05
04F7FCF800F3040A
06F910110402FC03
FCFEE403ED0101F7
F409FA05FD0203F6
F105ECFB040E0BF8
050E0A020CFEF8F9
13EB0DF10205100E
03FE04F708FC1003
FBF6FA0B0CED1111
FFF716160CFEF904
F5F7EB10E7FA03FA
FF05FF03FBFF00FB
F9F30202030708FA
0D0C19FF01F403FF
15F308F20C000C09
09FD03F211000A0C
F607F80505000B08
FAF61B1407FB0504
F6FDEE24F007FFFB
0E0EFC0304FFFDF0
02F4FDFBFF090909
FC0E0FF803FF080E
07000DFC04020714
08FBF0F70CFA0307
0606F40307030702
FEFE1C0D06F00B08
F401DF18F308FDFD
1414FBF604FE01FB
24FBFAF6F70A05FD
FF0D08FB04000914
0A020DF6FE02FB19
0CFDEDFCFFFB02FC
F80CEEF9F902010B
04FD010C00F70B06
F311EC0202100EFF
040509E4080BFBFE
3B020908E8020000
0BFE000001090413
170502FEF904F80A
04FAF105F40CFCFC
F616E9FDFA0D000D
0C05FF0B0CFD0705
FE14FAEF020B0C0B
040311E50E0FFFF2
27050A11ECF7FC02
0AF7FF06FE10FC1F
1205E204F00D0806
03F5F107F71E0AF5
0507F8010010FE12
030302070FF60901
05060CF50309F301
0B08FB0106FEFCE9
0D0402FDFAF30502
0EFCFB09FB10F819
08FEE109F00AFE0F
06F2F411020F0C07
0705FA0B0508FE12
05FD090514F81000
08010DFE0903EF09
1108FE07F9F5FDF0
06F5FDF903F20307
030DFCFDFA02F41B
08FDE607F6FDFB11
FFF4F211FF0E0B11
0B0A090EFFF90313
0B030A0905FB0C01
0AFF09010F10FAF8
130EFD0DF9F7F8F0
10F8FC0003F702FE
0207030AF3FFFA11
FC00FA04F5FC1214
FBFEF70C09030B13
050200080700FE0C
0AF7070508FB0101
120103F90E0D0AFE
1309F909FCFDF8ED
030604F902FAFC04
0BFEF704FDF8F904
1005FB00F8FE1002
FC0A041006FE0D0D
00FF040B0207000E
FBF80A03FE02F9FE
04FF01F0FB070503
0908F60CFDFBF7F4
002200FF06FEF902
0FFCFE02FA03F2FF
05060605FFF021FA
02010BFF1AF90E0A
FEF5090609000208
F5FA02FBF904FC03
F8F003FDFDFEFB06
FE12F40703F701F7
FB2EF805020703FB
12F9F5FDFBFBF0FC
FD08FD0404F31CF8
0403050019F30E09
07F20200050208F6
F20804FDF8040203
FBDA07F800F7F7FC
000EF60009F70EF6
F81CF8FC0B090305
1C06F5FFF703F0FC
F901020209FE20FD
FA0D0DFD0EF815FF
14F003FF03F90CF6
F20904FDF60C020A
F9DC0BFEF5F0F8F8
FC0BF00506EC0FFD
F801F6050E0F0BFC
0B01F7FDF7FEF607
F4040AF9FE001805
F5FF050210EF0D03
0DED0FFD0AFB18F6
F50B07FCF92016FB
05E508F8F6E9F6F3
EC04F50B02F305FF
F6FCFA08080F0C06
FC120405FD0D0206
F90A0E0507EC24F1
E4010AEE08DF15FB
05E514FD12FD0CFA
EF0106F3030F0E03
F1E90F05EBFBFB14
EDF3FC120BFEFD08
09F5F609FA1106FB
EE160A0B041201FD
F80A06FA10DA0DEE
F2FE05DB09E70EF8
E200F6F0F511F409
FEED0307F70D0FF6
F0F40DF7140CFF16
0CEB0C1206E9E6F4
0003110702FE0701
F0FE0500E312EBFD
F31500FD03ED10EE
FCF203F30AE503FF
DD0EE9DFF219E817
2AEA130B13101DE2
F71409090E1C1012
24DA1EE21406D61D
EA0F1F2E0102F90F
F1E217EEFAD4F9F4
FD40FF03E5F114DD
EC28EFF602E6C9E9
FDFCF7FC0512FE05
FCFA0602120E0A01
FB090201FD060CFD
07F6FFFFFE0FE919
0100090D07FD0201
FFFC08FDF9F9F9FB
021908FFFEFCFCF4
FF0600FF03FFFC03
FC04FD03090301FD
000004F902FFFF05
020605FEF7040402
0201FE01030301FE
0104FFFDFFFC05FF
0305FFFB07FE0200
F6FDFDFFFF010301
010300FB00FBFB05
03FE14FCFDFE05F8
0000FCF6FCFE03FC
10FA00FE04F80300
0502FD03FDFB0DF9
00FBF5F1FD000501
0803FC14050606FA
12FC01FB000BFD13
FB010210020606FB
070B14FAEF0B0F04
E8F519F8F6090FFD
FA0815E1F5080510
E6FBD91DFFF214EA
FBF6E5FFF00805FB
0728F619121605FF
1DF60DFE0DF3000B
1705F901FEF60603
0DFC0AF5E8ECF603
F4F415FE08F914F2
FD0BF8E9F30007FE
FFF3FF1CFCF0FFF9
FEF9F3FE03F7E50B
1008F601121CF612
08E0E1000BF40BF4
0AFBFD1404F3090A
04FA021004F1F815
02F40106FC031000
03FDF0FBFF0714EC
00E40A050000F106
04FDF6030407FD0A
090E0708FDEBF6E3
F2DE04F2F706FFF0
06040D0607E7010E
02FF0112FD00030E
F80A1307E8120216
09EFE6FCF60A13E3
03F6F60DFEF9F804
0107EAF70C100904
080B0202F8F0EB01
DBE10AF0F3F8F5F2
F10E06FE14F2F90B
FFF1FE0509ED0608
FD010804F90CFE0E
05F1EFF7F6060BEC
F4FAF90100FB02FE
001BF4EE000E12FC
08090500F8F3EB02
D9EE01F1FC01F3F8
E90F0BFE1DFF0310
02F3FA0004E70A0A
FCFC090AF90C0B0A
F5F1EB01F30204F7
F8FEFB01F6F900FE
F319F6F8081002F8
FB100502F0E9F1F4
EFF50CE906010BFB
F60D06F90E010B0B
0BFDFA0206E0050C
09F50D0106110207
FEFADDF8F8FDFC02
F508FA05F6F8F8FD
FF17FFFE0D0A05FA
FF0D0509F2F9F2FD
03F706F002020CFC
FF05FDF901F90D08
08FFEFFE08EFFF05
01F10E0C14170101
FA01E208E4FA0301
F702FA09F50507FC
F312FCFD160409EF
03081100F3F8FEF1
0AFD0A03FF06130D
020004EF0CF40703
F9FBF80209F30C09
02F5080F1212F600
F8F9F91EF1FF02FC
03030006F902FEF6
FD010302170507FB
040119FDFCFA0303
13040BF906FE0A0C
0305FFFB06FB0C0D
F403ED0B03011405
FF030D111E060000
FC02FB1AF405F3FD
0E0A00F8F7FF02F9
29000BF3040A0FFA
040C09F903F70419
0B09080900070515
FEF0F9FA05FEFF06
FAFDED0AFE051301
02FF090907F7080E
F603F60EF70F02FE
0C04FDFAFEFDFEF6
4EFB07FAFDFD0500
FD0DFBF507040617
10090207FB0DFB13
05F7FBF803FBF8FE
FD18DC01FC0C0801
0301071006F80C05
FD13F6F903080705
0AFAFBF30306FB00
340B1008F1FF010B
FC02F901FF0AFF14
120AE914F109000E
03F7F603F50D00F1
F81BE40301160A11
FCFE0C0914FC0504
F81703FBFB100F03
0A0401F20E0603FD
17010C0FF9FE0100
FE01FD03FF1BFC1D
1702E918EA040909
04F1F00AF51210FA
FC05F50EFF09FF15
FFFC0FFE08F30A02
F90D10FB0804FF05
0A0EF50300F8FBFB
0603060403000001
F807FE06F910FB19
0505ED01EE02020E
FDF2EF10FB03140B
01FFF70EFE05FF10
0506130602FF1108
04FF0807090EF3FC
0F0DFD0FF7F1FFFA
05F802020501FA03
FA0708F3F503F315
07FFEEFEF501030E
FEEFF318FB07140E
05F7FD0D02FEFA0E
0AF80D0707FC0B00
09F100F60B0AFCF6
1410FE11FEFC00F8
07FA07000CFD02FF
06000BFEF4FAED0C
FF0301F6FAF9070B
FF0400110F021517
020003080DF90007
0DF907010300FFFF
0EF105F808FD05FE
0D01FA0E04FA03F2
051000FF0CFE08FC
16FDFFFF00FCF9FD
06FA0402FDF40B08
F907000817FF0D0C
02F90206FEFDFA0A
00F80BFBF901FCFD
0AF80CFA02FFFBFF
FCFCEE08FEF707F7
FA1DFEFE0508FCF9
150505040107F505
0000090507F519FB
F8040D0816F00E05
03F708F0FFF502FE
FAF904F9F0070205
00F00BFCF1F2F2F8
F4FDF003FFE704FE
F91DFAFC070803FD
0E03F9FE02110500
0605030509F620F7
FC03140823E60F05
04F80AF903EF01F5
F8FB07FAF50EFF04
FAE90701EEF60100
ED07F40907EF0B04
FC16F0F30607FF06
0804F8FFFA09F4F3
030A07FC09FB2600
F7FD120113E90DFE
100105F1F6E303F5
F9F5FFF5F40916FB
0AE20CF4F1ECEF02
F9FCF01906ED1CFE
F90AEDF804120812
0301FA070005FEFF
000A0809F0FC1907
FD0511FE13E30C03
13080DF0FCE701F6
F9FE05F1FC1E18F6
03E50EF7F9F2FDF2
EEF7FC0F01F31B05
FB06F207F70C050F
FA0D0914FF0705FD
FF0A0E0AF9F11901
FA0109EE0BD304F1
00F109FA03F3FFE4
F1FCFCF8081B07F7
FCE90B03FAFF000D
F3F214FE0EFCFCFD
0C06080EFC060812
E7060108010603FC
FA0D02000DEC0CF9
EB05FDEA00E0FEEF
D1FAEFE8090DFD04
FEF20A1C070D18FE
E1ECFF0804130413
05F51FF916FADFFF
FC0A10100502081E
E7FC07F6F6FCEDF2
F41B020003F407E5
E7F8F8EA08EBE5F6
E307E1E0E60AF41B
0DE1170F121B17E3
FC100F16F9161919
1DDD19ED0AFCD236
F1110E1F00FDE422
DDE41CE105D9EF03
0D26F206E2F81DE8
DB25F70503E7D8E6
F211FBEC0105E606
10ED0C040A0D12F5
011208030902011E
0AF0040C08FDF910
FE0C1813F005F801
F9FD100010FBFAFF
FD13FB01F5FF04F2
010EF5FDFDF5F9EF
01FB03FF0005FE01
FCFD0400FE0204FB
07FE11010A02FEFD
0604FD0300FC01FC
FBFE020102010003
FC0004FF0305F8FD
040007FEFDFEFEF3
F906020F02FE0400
01010BFEFCFD04FD
0401FBFDFAFC04FD
09FEFAFAFDFBFD02
FCFB01FDFB000CF8
0003F7F8FC0502FC
0901FC1302070602
11FE0503FE0CFB0D
FE05030EF7FF0701
081218F8FEFC07F8
10EF0507FD0E0DE9
0D0D060503F90614
06FE041A0AFD1BEC
FDFCED0F0008FE17
0B1EF206221A0E06
1DEA00F603100C06
000E0A04020417F6
101401F6EFF2F00F
05EF0707090D16ED
FF1EEAF1F50F0603
FEF00E14FF070502
0BF0F707FE08E01B
0F0E01F91704FD03
09E0E3FAFD0512E5
FB0DF3060AF40D00
030E0609EFDFEA12
0CF9F3FEFEFB0202
0F07E1FEFA0C13FB
00E415030704F306
F9F10B0FF307F20E
10F9F90306FAF8FB
F8ED01F6F70F07E5
F007080D0AEFF80B
FA050108F8EEF009
09040605F90F0404
0902E2FCF3030CF7
07F1070205F5F604
F3FCEEFE090F0900
FB0309F8F7EBF401
E1FB03F0ECFDF0E3
FB0E040A1BEEF404
F4FEF2FAFFDFFAFF
FB0613FDF409FE05
03F4F5F9EF0500F8
04ECF40B05F8F7F8
F414F5F7FA1005FA
FB0B10F5E8FCEE02
D10B05FDF8F5F8F0
F60201041AF30203
FFF4FAF3FEDC07FF
EF050801EA110C00
FFF5ED03E8010106
0604FD0DF3F3F6EF
EE21F7F60016FAF9
010E06FEE9F7F6F3
D40A080203FA07F7
FD0E020214F80E00
0BFCF2F7FFE40503
00090D04FC160409
FAF1ED05F20800FF
02110307F4FBFCF0
FA23F9FE050701F6
06070EFEDFF8F3F5
DC060D0705070EF6
F808FFF90BFC0B05
03FEE9FB07FC0006
FD000811071608FF
F9FCF317ED0705FC
0508FE04FBFF06FA
FC1404FE180F08F9
FCFE0EFADFFDF6EA
EA051409FE0315FA
FC0107F5F7060405
FE09E5010010F907
FCFE060A171809FE
F9F6FE25F70600F7
0D0CFDFEF4F90304
0C1809021B1308FA
03FF14FDF5FBF706
01070B0703090AFB
0604FFF8010AFF08
F8FFF401010A0E0B
F8FE0612230F0CFF
F601F220FF07F1FB
120E09F7F5FBF9FE
470605F812051605
FC040CF0F105041D
06070C0B04080C04
07FF07EE080A08FB
FE04EBFBFF040D09
FDF2080B230F0A0A
FA06F60A0405FC0B
1504FDF6FEF9FA03
4A08FBF9FCF60303
FC0BFEF7F706FF20
0508E80DF000060A
09F5FCF7000207F7
FF1ADDFB01130907
FFFA060717050300
FA0D0201FE0B1307
0DFFF9F502FBFE04
1A060701F5FBFD07
FC0001050214FF19
0811D919E302050B
05F8F8FEF80CFFF7
F417E20B050C0D14
FCFD13051DF90603
F5060AF8FE130EFF
0209F60411FE0C01
02040A1601FD04FB
F7000605FC13EC1E
0A01EA0FF5FB0408
06F4F00BF21208FC
F902E41402080516
00FF100912FB13FF
F7060BFE030F09F8
0E0FF00AFC02FCF6
0500040C04F8F800
F40407FC0101F114
FAFDF003FAF0FC05
07F5EC0AFC040F0D
09FEE90F0503FE0F
04060D04F802100A
000404080615FEFD
1305F811F302F6F2
0705FE0C05F7F700
FA0907F8F3FFFE0D
F703F4FCF6FB0309
FEFDF7140307120B
0AF3FB0A08FCF60B
05F2130505090E05
03FBFEF8020A0700
0EFDF7100406FBF9
F90A040505F90201
0B050FF7FCF90103
FE0603F4F8FB0509
FE07FC110FF30C0C
0BF8010200EFFF07
08F50EFFFF040200
0BF7060600FB06F6
06F8F20D00F905F8
0515F3FE04050AFF
170501F907FFF805
FAFCFAF9F500020F
F00B010A23F1090A
07FE090704EF0607
05F50EFDF509FD01
03FB0801FDEF00FB
F8FFF11102F20FF7
FF0AF301010808F7
120DFEFD0E000204
FE02000203F912FD
F1FA07041BED0802
00FE09F703F10807
00F40FFAEE0403F8
FDF70304FBF3F1FE
EEF9F100FCED07FC
F719F3F80200FC00
0608FBFA080E07FF
0CFF010002F320F9
F5030B0708F50703
0203FAFAF7EBFC06
F8F40F02FB0909FF
FFF607FDEEFBF7FF
EBF6FA0B05F41102
010CF4F8FE030008
0FFE03FCFA0901FA
0A0902F8FCF53100
00FB040216F2FE07
040BFDF1F9DFFB0B
01FCFF02F80810FE
04F108FEF7F6FA06
FAEF0B1A08EC1EF8
FF0EF1FAFA07FB18
0302FEFF030404EF
03050601F0FB1B02
03FC05FC09E60001
0A1109EDF8E20101
05020203F41517FE
01F60402F8F7FE00
F4EE151209FC16F4
FB16F3FCF90BF914
EB110312000110F6
FD02050EF8F71F01
050406EB0CD900F3
090809F3F9EAFDF9
0BF50AFB091E12F8
F6FBFD01F2000411
01ED1C0B1302FCF9
05100B08FA01011B
EA09070A08FB0501
F10DFB0C08E90FFE
F2FF0EEA04DDF3EF
D5FFDCE319FAF30C
0DEF18210B1417F2
E205041EF210010F
09FE1FEA1FFFEB0E
F51724160CFC0029
E30401E80AF1EDF7
D818FDFCFEDE0BE0
E1FEEBE003F1E0E4
DE2AE2DCF703DB11
22E21E16111610DD
ED1A0B1F0812201C
16DB12EB1CF0DF12
F104281BFBF4E123
D5DE1DED09DAEE04
0824F3ECE7FE10E5
FA0FEBF601EFD3DD
F80B08ECFE04EA0E
16F312170B0C0CF1
080F01FE050D1510
01F6FF0E0701F817
00051606EF04F10D
F8F70B0017F3F605
0017F8F0F5FA06EE
050BEF0205F4FAFC
04FC05FEFBFCFE02
0201FE0103040500
04FF0403FE0202FC
0104FBFFFC0405FE
030004FFFC020200
FB03FCFFFD010200
FF05FF0001FE0000
FDFEFFFCFCFCFC02
0D0309F5FFFE0603
FFFC01F2020003F8
10F8FC00F9F80404
FFFF0405FFF50EF9
FFF5F7F6FE010302
0010F9120B0F0203
0A0003F9030AFD0C
FB010E0DFC000CFC
0E1312E3FC0203FC
12ED0803FA140DEE
0A10FF10FDFD0416
13F70D03121013EE
0108011508FEFB17
071AF4031519FC05
0DEB09F802130D07
F5090FFF040412ED
101906EF13ECF610
16ECFC10020720EF
0F26E718F907FE0B
04E612F905141408
1BE6EC0BF902DC26
090B09FD1B07030C
10EEDEFBF00A13F7
EB17FAFB0CFA0DFF
F916070101D0E912
0DFB02FBFF010C03
0C10ECFBEA0E0307
F8E10C0B080D0A06
FBE00911F306FC05
06FDF60D140403FF
FB0503E9EF00F4EA
ED03FF0518EAF5FC
01FD071207E1EE09
0B07FEFF0AFF020D
0605EC00F1FD0B09
FDE80C080AFAF500
F2F5F6FF0310FDF6
F4FB01F406FEFFFA
E40A06F5FFF8E5E9
FD04FD0615F3F6F6
F800F2F705DBF6FE
FB0D0803FFFEF809
FBF7F806E9FF04FE
06F1F70501F9F3F5
F70806FEFFFF0704
F40312FAEEEFF9F0
D4150AFFF6F2F6F0
0300F9FE28FCF6FB
02FEFBE903DCFD03
F10D060CF404FC00
FDF8F419F8FEFEFD
10040507F9ECFAF2
FD12FEFB0506F702
FB0910FEDEF3FAF9
CD0B0507F8FA03F8
F908FCFF1B01FD00
04F4FAF2FFF9FB06
F20E090DF70D040C
02F5FB1BFB060404
050D0301FEEDF7EA
071703F80802F9FF
FA0906F8DAF3F8FF
D203020C05010BED
FB00FEF8F9020002
02FAECF5030AF70B
F90C050702160700
05F7041A040B0DF7
0213FDFFF6F7FAF4
0B1AFF05190905F9
F70608FFD1F8F8FD
D4FF0C0F0A0519F3
04FAFAF4F70AFE09
F8FEFB080218FA03
F50B0A0B080F09FF
FEFFF71AFE0703F3
0612FEF302F90206
2413FC0723180BF9
FA050CFBD600F910
E1030D0F0E0F0FEF
060603ECF21004FF
F6FAF708020E0303
F303100C17120AFD
FDFDF7110415F1FF
131009EE02F7F706
360D000312081502
F70D06FAD70CF61E
E7040108041102FC
03FF06E40514F603
FE04ECFE050BFF03
FC0301061D13FFFF
FE01FE0F07130411
1E0110F306F5FBFC
2107000401F20A07
FEFD0300DE0CFB24
F30FE508F40B0C00
0BFCFFECFB13FFFE
FB14F106FB140802
FCF706042207FC01
000010F60913150A
0CFC04FE04F606FA
07FEFF07FEF2FE02
FEFF0102ED09EF19
FB19EB11F3060800
11F7F80DF20D0501
F50BE012FB0A0D0B
F70312091B080002
FA080CF706160EFE
030CFA0501F403F6
FE02041704F7FFF7
F7030B08F405E914
060BF80B01F70606
0CF1F20AF50B0605
F507EC0AFFF7FB16
0601151120FF09FF
FC020504050F06FA
0908F90EFEFC01F7
01FD021A03F3F9FA
F40A0902F5F9EE0B
0306FB04FEF5FD04
03FCF70503040E0D
0901F50DFC03F512
04FF120C04000D07
FE02FE08F80B0303
13FCFC0BFD07F7F6
FC07F80C0DFFFC00
FA0C05FEFAF7FF0B
F102FFEFFDFDFF07
FD02FD040CF80706
10F8FE0007F1F207
00F514010A0A0A08
FFFE070CF506FB08
04F6FD01030EF1FD
0314FC0401040707
150203F9FDFF070B
FC0307F4FFFFF306
FE04000810F10AFF
13FD05FF04EEF907
07F70E01FE090705
05F70509FCFEFD06
F6F8010F0C010509
0B13F606040304FF
0F0C02FB05040507
F4FDFDF2FA050009
F901040911F50A04
0A00FF01FFEE0206
06FD0C0AFA07FCFD
FFFE030903F6FF08
F405050301FB0A05
0702FB01020104FF
FF09F9FC07FFFC02
F9FA00FFFA0214FB
FEF908050FF80604
F9FFFBF501F00302
02FC0C00F20100F8
FD040302FBF4FEFA
EFFE080302F009FB
F80BFCF105FE0203
040EFDF2010C00FB
06FA010301FD18FB
FAF8FD07F9FCFEFC
F809FFF500F0FD0D
07FA0AFDFC0605F6
020EFD00F3F9F9FF
F4F1070A07FA07FF
0113F8EFFB010713
08FC0BF900FC0804
0802FEFEF4FE1F09
FDF3FDFE09FEF6FB
FD0D03E5FEEB02FB
08FA0402F8010FF5
F6FFFAF9F2FDFCF9
FFF01805FFF413F7
FE17F5F50107FB11
01FB0AFC00040BF7
090608FBF4FA1F05
000303F107EFFDF2
F81608ECFAEFFC00
13FE08FBF90A1BFD
F4FE0506F2FCFCF8
FFF2120B0CFA10F1
041BFCFBF714F717
F7FE0C0206FF0DF9
FB030009F0EB130D
09FE00E411DCF8E6
FF1A06FE06F400F4
1B000900122710F8
E700030DFC060A08
06EA24FD150700F9
FD19230F0101FF16
F7FB0E000BF802F5
E20300F908E11404
F90002E910DEE2E2
D707DBF41600E014
21EA2017102B15ED
F10C1007FD09FD0D
14EF1CF22EFAE228
E61233251FFD0A20
EFFD0AEB18EAE2F5
E21AF4E2F2DD19E5
D908EBF315D8EAD6
E322E7E4EB16E314
22E7121C0B040DEA
EB1D09120709271A
13E90A0C0EFBE01B
E10B261805F8EA0B
D9EA17F10EDCE7F6
0722FDFAF3F60EEC
0209F1EE08F4E9DF
FB0509EDF807ED03
08F6090600FB07FA
190B03040106130D
0EF7060C02FDFF04
FE040905F402FA0C
FEE6100B0BEEFBFC
FE0605F80008FEF6
010901FB06F7FCFD
F5FA10F804FE00FB
02F9E7FFFF0402F3
15FD07FA07FE0200
05F70A02FF00FC00
FB02080CFF00FE01
060100FE0102FBFB
F103FEFB070406F9
03FD03000008F7FE
06FC0FF5FB03FCFE
040102F9F8FEFDFA
04F6FE0300FA03FD
02050304FBFC0703
00FB00FDFFFFFFFE
FD04F70D08060404
08FE01FFFB060509
00FF0908FD030EFF
15010AE7F7090AF6
04FAFDFAEB0D0CEE
16F7ED0707F8FF0B
0BF709180A0217DF
FAF8F70BFCFAF505
1221EE0E111BFB05
08E80CF90B081008
FD08150400011101
0B16FFF000F2FB17
12EB03FC06FF1AFC
1E29ED1503010B1A
0DDF07FE0F092008
20EAF215F4FDEC35
060AFD072A15030D
16FAD2F4EF0E2201
F40CFA0C08F00CF6
020FFF030BDAFB18
0BFC09F804F80A05
081CF003DF08000F
F4E9030E161F0C03
02E6FB0EFA0FF508
04FEF8091AF906FE
060604EBFF04F4FA
F40CFC0223ECF3F5
FA09040309E2F416
08030C020A030A05
04130705E604020A
FEEE0D01040DF902
FCFD080C060AEBFF
FC0E03FB0DF90FF9
FD0B00F502F8EBFD
0406F60125F1F1FC
F508FEFA08DF0104
FC02040C01FAFF0A
0BFFF417FAFE05FB
01F309FF0401F9F8
F90C0FF902FFFA05
FA040BFBF9EF0DF2
001207F6F8F8ECFB
0605F9FA2401FEF5
FF04F9FB07E50309
EF0C030EFC000003
06FAF42204FF0300
06FAFE0507F5FAFB
FF150C020A03FD06
F7020CF8EDF209F5
E0100208F7F9F4EE
F909F9F50B01F3F8
060009FA04FDFE0B
FA0A080EFAFDFF05
01FEF323FF06FA09
0C08FEFEFFF9FAF2
0B0F00FC0C05FD01
F90301FEE6F406FF
C302000B0206F9F8
F9FBF5F7FF02FDFB
FBFEF8030517F705
F312040F010A080E
FFFB001501030E06
050A01F80AF0FBF1
140C0309130F0200
FF07FEFFE6FCFD03
CC010C0E0B0D0CE7
05FEF8F1FE0AFDFA
F4FD060F02190008
F80A0004170E0102
FFF90512070E0003
091107EF0CFCF5F8
1E0F030E1A0D0AFF
FB0703FBE008FB09
D301070611160DEF
0A0703EBFC0EFDFA
F7FE00170113FFFF
F812FB0C1B140404
FEFB04070A11E807
120C19EA08F9F7FE
1E0C060B11071009
FF0604F9D910F10E
D8070308010504F8
0701FCE6050EFAFF
FD08F61BFF1D03F6
F900050A2413FF06
F6010E050915F012
160C07F90EF0F7F4
0908020FFFFD0EFE
F80104F1DC0DF512
E810F308F6F90CF0
11FAF6EC0516F7FE
FB0FF120F90C09FE
FB0609111E0EFC05
EF060F020012030B
0900030A0DF006F0
FEF7001401FF0CFD
F300F7FEEA03ED0D
F71AF908FCF101FD
15F4ED0FF910F8FD
FF03EE1903FB000F
020C11041D05FF07
FCFD10F701060103
FE02FE1108ECFDF2
FFF8FE1CFEFB0AFA
E7FE04F8ECFEF407
0008FE0101ED04FB
0CF9F111FA070209
0105F70605F5F413
040912051D0006FC
06020601FE07FA05
06FF010003FCFCF7
0206F41F040005F9
F7040CFFFDFB0207
FD01FB0003FD0B02
FB08FB070BFC120B
0902FE0300F1ED10
09FD0C0805080407
FE020507F2FBF508
05F902FE05FF07FB
0A13FE0E0C0504FF
FC06030105FE0C06
0001FCFC03FE0605
F80AFAFC14F417FB
130001010BECE8FE
0BF90BFF04FF09FC
06040109E9F8F800
FEF106030008FE09
0713FD0103020005
0C09F90206050706
F30200FA02FD0100
F704FD030BFB06F7
06FE03FEFFF3F9FC
09F60BFE02F907FE
FF00090AFEFA020D
FBFA10050FFF0D12
040AF7FCFF0CFE06
0505FAF90A0C0008
FA0302FFFC080406
FC070A0104FA05F8
05FD0400FCFB0202
04FB0209F603FAFE
010A0115F6F20A0E
F7FE1AFE0B05060C
FE0107F00503F900
0000F9FB040B01FD
F400FF02F70609FB
FD010804FFF8FCF6
FA00F7F902FB04FD
02F50306F9FE0004
FC0BF50FF8FF0302
FDF708FC070609FF
031105F3FE030200
0307FCF205FFFC06
F6FCFE02F80213F9
F704FCFF030501FB
F80809EDFCF70403
05F00900FD030AF4
FF11F511F0F8F600
03F105FE03001009
020D09F4F6030013
FDFCFDFB09F602FF
0D010600EE041806
FCFCFB020CF200F0
F91009E400040A00
19F90803F80B0BEF
EA0FFB11E9FBF8FC
00F31BFEFCFE0E00
FF1B00FA010EFC22
010207FC06010BFA
03F6FC01F8EC1D0B
010209F009E204E3
F61707EBFAFF0400
16FF150A062714F5
DF0D002EE706FDF2
0CED130506FE0AFC
091D08F80110FF20
F9F90FF808F908F0
FFFBFEFFFAD61604
0900F1D013D3F2E3
EA0BF801100AF611
1BF71D0B0E3514EA
DA15061EE70E09FA
04E51F03140AEB03
FF1A1C0E01FD0116
EB0511EA0AE1F2F2
E903FFE7FED514FC
F900F6DF12D0E5E0
E40FE9EB0F0CE30C
2AE91E1AFF1C0FE9
EF060D09E9FF0208
03EE29F526F5E617
F414271B1BFF071C
EDF106EB13F2E3E3
F315F1F4F5E114E8
E409F1FD0FDFFBDC
E81BF500ED16FD17
15E10F11000305FD
F1141A05FE0A1311
0DEFFD25FE06F012
F403FD1102FFE6F5
ECF716FC0FE0EEF7
112306F5F2F803FD
0A0DF8F705FF02FF
F606F3F2ED0CF405
F8FBFD07000009F8
F70BFBFEF4030908
01F3FF0804EEFD01
01EB0304FCFBFDF1
E5FDF6FF0204E9FD
120D050CF50504EB
FA04FC0404060DFE
030100FCFFFDFFFC
03FD030203FF00FD
FBFEFFFD0301FDFC
0400FCFEFF01FEFE
0000FC03FDFF0101
00FD01010200FE05
04010303FE030504
05FDFE05000501FD
FAF82BF6F5FBFAE9
1105F1E5F2F8EFFD
1CFD0AEF06EC01FE
FB080311F6FCFAFF
E417F20604FFFAFB
06FB0A16F80C0002
EDFA11FB19FC0BEA
0B0C190702E2F10F
1A0106E301F606EC
00F9FAF7EC01F7FE
11FBF1FB00F702FF
02F3001206010FDE
02F9EDF8EDF7EF02
0A1CFD07170E060E
0DE704F006040E16
0A040E10FFEF0F00
1401FCF2FBEDFC15
04ED0FF10CF90206
1810E60204F91316
10E3F31811021A06
11F4F90AF409EB27
0514FEFF1F1D0718
1A00E3FCF0062411
EA06FB0F0EE009EE
000106070ADBFC15
0EFD07F102040409
121105F7E401080C
FCE9020311161907
F1FFF60B020BFA16
0802FC0515010505
0A0C06F1FBF6FEFD
F414FDFD12ECF8FB
06040DF801DE020F
03F803F8F9F600FA
06130910E9000E05
05F50D06011D07FD
00F9FA020305E002
0D10010A12F50E01
0402FAF70201F408
070CEF0821F9EEF9
030F0B0E07E40300
08FA0B0A01FDFE08
09FFFF22F30004FF
F8EF0FFD0A0AFC06
FD06030305F9FCF9
041908F80AEE10EC
0A04050008FEF1FA
060CEF021AFEF8F5
04140407FBF10106
FB050211010406FB
FB02F7230700FF06
F5F707FC0FF9F605
010D06060AFAFB09
05090EF503F90DF5
FA0AFD04F602FBF7
FD01F4F50903F1EE
06030807FAFBFBFD
000BF003FBFEFF0B
FA00F80B0602FD0B
030109F209F9F104
090108050EFF0605
04F80BF7FDF40AFE
E908050B04FFF7F4
FC06FAF204FDF7EA
0008080B020CFFF3
F903F803FEFE0306
EDFFFD0D00FB0B07
FCFD0CED0EF703F5
0D06080916080305
F8FB07FFFDFAFFF8
E907050E0C0608F8
F604F5F10400F3ED
F4080A10FF1705FB
FA0DFEFB0B060001
F3020204FCF60303
050714E60AF7F8F9
130BFC0E17100B0B
F60101FAFB1204FC
E2060A120B0BFD00
FF09F6EB02FFF4E8
E8040E14010E0304
06050E040D110603
EDFB0F0BFFF7EAFB
080A14F215F9F602
1100F51310111012
EE050AF0F611F60A
E40E020FFDFB0CF4
FC0AF7F0FE02F7F8
F0090B14021A05FB
000200060F1304FD
F6F7100103F5E801
0A030BFB17F70203
05FD040807081006
EE00FFF3F604F709
E60E0203FAF415F2
0809FCF60201FEFB
FD0604100A1109F7
FF00040B190EFE06
F40311FFFDFEF507
02F709FD0FF0FF02
04F5020D08FF0DFE
E7FBFAFBFAFD0109
EE0DFF0C05F8FBF2
0C05F10EFDFFFB03
FCFEF90D0D010509
FC030D00140103FF
F9000AFDF9F8FA0C
FB0603050DF0FAF8
07FFFB21030408FF
EB0200FAFBFFF403
FBFEFF0C03F400F0
0AFDF90DFB00030A
030AFFFE07FBF509
06010C010FFD0CFD
FD0107FFFC01020A
FDFBFE010DFF06FE
0C04012400050100
F90D07FD03FE0103
05F7F704010205FD
F90BF2FF06F50C03
1407FA0507F6F207
00FC0F0205030E03
00050407F3FD0305
00FC09FE0CFF08FC
0602FE13070407FF
FC0DFAFE0F020306
000204FB01040709
F506FB0003F816F8
120AF90204F8EEF8
FBF70BFF00FA0A03
020D020DF7F50101
F8F613FA09FBFB0D
FB1100F40104FF0A
0303F7FC05FC0604
F8F8FFFE0105FC05
F5010702FF0106EE
0906F5FFFDFE02FC
02FD09FDFCF60601
FD08F812F7FE0506
02F911FF0A010F0F
0AFFFFF204050009
F408FBF908070207
FBFBFFFEFA0900FE
FC070704FC0105EE
08FEF9F9FA020DFD
01F8FCFE02F504FE
FC00F811F9F80901
04FC0FFC08000710
02FC02EB0104FF00
F6FCF6FB02050105
F6FAFFFFF20509F9
05000305000205F7
FA00FFF6FB0508FA
FF01F006F8FF0AF9
FF06F712FC03FC03
02F408ED06090608
FD0D0CF60108FC03
FBFF02FA06FBFA05
F5F9FC04F3061700
F80201060B04FDF3
0006F9F6FEFE0301
01F70400FF0C0BF6
0011F415F8FFFEFE
FFF7FEEA0306090B
01081201F80BF913
FA0BFFED0FFEFF00
08FA0304F2F21B01
F6FBFBF61EF206EE
0107F8F3030105F9
0BFBFE09FC0A06F4
E60FF516ECFDFDFA
04F40FF00805FE06
040E1000FC0BF929
FD0808F201000DFB
01F3FEFBFCE41C01
09FB09F01BE9FFDD
FA0C0700070B04FE
0DFF01170D1909F4
D918F326F2FBFE07
0AEC1DF90208FE04
080B0F030BFD0822
F0FB09FF02FEFFEE
FB00FDF9FCD312FC
04FCFDD816D9E7E5
F203FEFE1305FA12
0DF70A130C250EF6
CB13FB10F10C0CFD
00E91101130EF516
0417171307F3FE1D
ED0908FB17F3F2F4
E90D09F0F5DB0AF1
F501FEE10FD4E0EC
E10BEBF2011EE120
24EA151714140CEF
FB080F0E00041111
01E222F71908E41F
F00D242216F3FB06
E8F80EF116F9E7FA
021EF1F4E5F10FD5
D71706FF0BF0F702
F60AF1F8F221F123
19EE0F080F030C01
FF1B230500150F0F
0AF7000B1803F015
F1020B0C02FBEA02
ECFB12000FF2EAFC
0B1902FCEFF805F7
F509FCFE0A02F9FA
FA08FFF7EA0CF605
FE000202FF0107F5
F90900FFF8FC0205
F8FE02FA0BEF00FC
04EE060900F9F6EC
ECF6F3FE0202F304
120FFD02FC0903F6
000D0104010408FA
030202000502FF01
FF0404FD04FE0200
FB0504FF0105FB01
FC04FB04FB0403FE
FC0502020005FC00
FB0200FCFCFF02FE
FB04FC010201FFFF
02040304FEFBFDFD
F8EC19F9F9F807EF
0004EFECFEF6F80C
1001010503F805FC
FF020404F6050B02
0103F7FB030CFB01
0BFD0A1600F90802
06FC15EF0D0D0503
030911FA00FCF30B
09FA02D909E811F7
09FDEBF8FCFD04FB
0906050AF2080F15
08FFFF0C07FFFF07
FDF6F4FAFD04ED04
FD0A14001905040D
07F704F101F60C18
FD1208F907FC0A0B
FEF7F3EFF8EE01FA
0AED0FFA0701FFFE
0E02F713F4FA091D
0DF0FB051B0A1104
03FE0203F515F41E
0A0FFFED221A0B10
0E0DEF02EC051F1D
DF00F41414E209ED
F900030103DFF808
06EF050007060007
100E0302E3070C1D
04F1130813270F13
F1040408FD120022
0D0E03FB0D0A0C06
130C09FCECF8020A
E811FD07FEEAFDEF
FD0707FF07EF00F8
0000000305FEFD08
050AFF15EF051003
FFED12F50B190809
F0F7F9080601EB0F
071007070BEA0DFA
020403F601FFF6FF
0C0BFFF50C00EFF6
01140F0105F5FAF4
08F9000D020204F8
05110318F30C170D
F7F20DEF1210000E
FD03020900FFF4FE
0215020111F60EFD
0B080302FDFBF003
010CF1FE00FCF4EC
011104FBFBFCFCFE
FDF7010EFDFD02FB
FB0AF411040B0B11
FFEC0DE9140DF20B
0403FF060202F902
FA0D02FF0C0011EA
0A00020E0407F200
FB01F4FC03FFF0E7
05090306F9FEF8F9
FEFBF7F608F70102
F30CF71204F90B12
FDF118E51001F90F
03F6FA0D0202F60D
F5FF06F70BF70CF4
0C06031002FBFAFF
FF00FEF206FBF2E0
09010800F608FCF4
FDFCF8FA02020905
F90DFD0AF9EC0C03
FBFB11E109FD030D
03FCFA1108050011
FA030601070407F5
080D081312FBFCFA
0105FBEF10F5F6EE
F3060FFEFD08FFF0
FA03F9FCFE050DFC
F6020500F8EE0DFD
FCFD13F114FDFE04
FBF9F6080A060B11
FC0307050C0408FB
010512161204FFF9
FD0AF6F708FCEFEA
EA01180A000F01F7
02FA07FD041202FF
F60306FEF9E702FC
F40002F41FF9FF16
03FDF50E07070F0E
F00700F80B030003
FA05140606F70EF0
020FFEE9FAFCFDF7
EC031106FF0D0CF2
F7FBFFFE0603FF00
F9020800FEEE0001
00FF04F121FCFE0B
0404F909FE071009
F505FEFD0A0A01FF
F2000E04090007EE
1006FEF9FF04F8F8
F8FF0906020701FC
F9030307030101F9
F6FF050401E70305
0301060010FD0A07
0AF9FF0E02080D03
EEFAFBFA0F06FE00
F3FE00010200FEF2
0301FC0701FC0005
FE02050001FCFDF5
FFF9070100FE0DF0
04FF02F3FEFAFF05
FFFE05FF0EFE0C03
0800FE1B01081000
F80BFC090503FC04
F8F9F706FC0502F9
FC00FC0803F801FD
0C06FD0207FBFCF7
01FD0500FA030EF5
00FE05FFFAFCFB06
FA0305F70F060D0A
0408FB11F9FD0E01
010FFAFE0A01FA00
FEFFFC0605FD03FE
F500F7030AFE0CFC
10FDF30401FCF703
FBFCFFFDFB0F05FF
FB0F0106F2FAFDFB
F1FE11FF12FE040C
0605FD0201FF0404
F80BF9F106FFFB03
FFFCFB01FEFDFD07
FC0200020CF90BF9
0807F50004FC0101
FBF5030304070805
FB12F80AFAFDFEFF
FDF70A0007FE0213
040E02EDFFF90706
F901FAF10AFE0602
F8F60006F8020207
0403050BFD0305F5
0D0FFBFC030208FD
F8F6FEFF05FE04F6
F90AF70FF6FDFF05
FEF602F70C02090B
05FAFDE7FBFEFB05
EF0400EF0303FD02
04F9FC06FF0509FD
0107FE08F9FE04EB
0005FAFCFB0708FE
02FBF9FF03F80BF7
F805F713FF05FF04
08F612F203090608
09F404F40300FB03
EF0101E90DFA0205
F403FA04F8FDFDFF
F90CFE00FF05FAF5
0406FAFAFE000AFE
FFFCF603020207FB
FB0EF220FC06F406
0BF405E601130304
0A0107FBFFFEFE05
F60A02F20D04020B
0205F809F5F71703
FA04F7040AFBFDF5
0305F1FC040308FC
F5F6F502060FFF00
F413EB10F9000401
02F407F202120207
0F070D06F7F9FC18
F30601F80B02FB03
F7F8FD05F7F71C04
0206FBF21AEDFDF5
060EF9060B05FEF3
07FDED0E0412F5FE
E31CF10EF2FF09FB
F9F806E91414F507
000D1608FEF7FA2B
FF0604FA0CFB05F5
FAF9FFF4FCE61603
0BF901E21BE4EAE1
F6100202190003F6
1500FA150117F8FA
D824FC1401040907
F3F30EF2190DF91A
0D19130902ED0C1A
F60311FA19F010F7
0002F9F6F2CE0B08
09F5FAD81BD6E4EF
EF0CFD0007FAFC14
0DF7FE1C0D2002F7
E60FFF110C0B0C01
00F20A051A1BE812
0D0610110CF8FB09
EC090BFF10FAF5E9
000DF7F7F3E00DF6
F3FC08FD10E7E303
E4FCEBF71012E92C
24E4FF21042500FA
11011B170FFB0E08
FEEA11E91C03E642
00081E1430F9F5FE
E3020FF207F8D2EE
0624F6EFF3F704D0
DE211D0801F7F607
F3F8F6040222F222
03F90DFE0EFD08FF
F81217FDFD0C1010
0107FD0613FFF502
F4050C0E0F03FCF8
EEFE060301FAE9FE
0C240DFFF402FBF3
F405FAFAFE0402F9
FDFF0400FE01FE03
06030400FF040403
FD0604FF03FB0307
FAFA05FF02FB0805
FD01FEFE040303FB
01040202FDFE01FE
FE0302FC03000500
00FBFCFF02FEFD06
FFFCFC0000FEFD03
FB0000FFFD01FB03
01FDFC010100FF00
0301FCFC03010202
FDFEFC030202FD03
FFFCFE02FF02FD00
0104FFFFFB0500FF
FE02FBFC000205FE
FB00F7FD0104000B
FFFFFE04FEFF0305
01000FFC0407FC02
FC050001FF050501
02F7F7FA02020506
F70408050206F0FA
010005FFFDFAFE0D
FDFE06F6000104FD
FD1311C4F6E8FFF7
0FEEFBFBF2F51AF1
1215FE10E7F10131
11EF010F1806FE14
03EEF6DDFF1F030B
060607050F0AF80A
020AF005EB02F410
F221FD0406F819E8
F802F3F6FFFF0BF9
0DF010F2010A0FFC
120A0A20E9010516
05FA06F51B150720
07E2FEFF030FFB1D
0E1008F41412FC04
0B13F2F5FB071209
E010F61105E911F7
FF00FEFD06F2FB06
05EDFA06FB010505
0B190214E8011004
F9F80D010D1B0F1E
05EEFD05FD0BFE1F
0722FF050F071503
140500F9EF0B0C1C
E203FD0303FAF8F0
F810000301F9FAF6
02F5FC090C0B01FF
F60FFB12F50310FF
FCF21BFB010B0813
F6F4060906FCF00F
FD0205FF0DF80DFE
04FE03F7F401FC00
021208F8FDFCEFF0
F81B09F70503FFEE
FAF7F4020306FFFD
FD0FF6FEFD061A01
03F121EB0F13FD0B
FFFA001007FDE707
FB0A040A10FE0BFE
01010A0103FAF7FF
010205FF0307F3EB
020B0201FEF902EE
F2F8FE070105FCFA
FE12F20304090F04
050021E31114F60B
04F900080207E90A
FE08FE0B0F0405F5
11FC04040B04FC06
FFFBFFF70602F0EA
00FB060801FD04F3
F5F7FEF507F90301
0408FBFA03FC0E0B
FBF90FE8120BF90F
05F8FE140604F60A
FD10FFFE14030EF7
0DFA000804FCFF00
FEFE01FB07F4F1F0
FBFCFF070301F9EE
FFFAF5F503FB0303
030B0502FEF306FC
FEF90FEC1101FB13
FDF7FB12FEFFFF04
F90F07FD0EFF0CF7
0FFF090D0EF8F306
FA01F9FA0AF2F7F1
FC0102FC0005FAF4
02FEFBF8FC0302FF
FB0C07F7FBF704F9
FAF90AF716FCFE0E
FEF4F7060A09020B
F608FC0911F706FD
0F07100C0E00FDFC
0300F8FF03FFEEEA
F30408F804FA02EA
FE00FEF6010903FD
F6090505FDF0FA00
F6FA01FB0D0E061B
FCFBF210090A0B07
FC05030614FC06FD
FEFE0C0B060506FB
03FA01F91102FAEF
F5020E0208FE00F4
FBF708FC0B0700F8
FD040E0800F7F706
F7FF02011400030F
0406F81100030E08
F306F70210F601FC
FAFE0A07FE0607F7
0AFDF6FC0CFD00FA
F9FA0B0401FE08F1
FCFE01FD0AFC10F8
FB000B0002F1F906
00FE0BFB07070807
0B09FE0E04060B08
FD05FC050D0101F8
F60007030005FFF9
0005F90306FFF5F3
06F501FC04020AEB
FCFBF80009F915F3
FDFE06F9F900FE03
F70405FC05030C07
0806FF13FC050F06
0407F3050A0502FD
F8F7FD03020405F7
04FE01FF0008F9F0
0AFBFF0400FE0BEA
F2F6FBFF0E0409F8
F9FC0301FCFD0007
F9FD0AFB0B080A05
0E04F90203FB0EFF
080AF6FF0B010803
020203FE06FE0706
FDF9FC09100301F2
0C03FFFD00010BF9
F9F2EDF6080E0DFC
F9100200EDF9FFF7
F6FB06FA0AFF040A
080C03FD06FF0105
FB07F7F8070000FE
FEF9FB08FDFD0508
06070703100408FB
0203F8080AFF04FA
F7F3FA000E060A01
F50FFDFFF102F400
000604000307090D
FD0D01F904F30305
F50DFEF509FC04FC
F9FC0206F9010809
0906FA050301FFF4
0107FC00070006FA
F5F4FB020900FFF5
F8020201010D0004
F9FE01F708FA0A07
04F502F5F9F9FB00
EB0AF6EE06F903FC
05070008FB0004FE
FF06F804FB00F8F3
040EFEFEFD08FEFD
F8F5FB0301F40CFA
F60AFD13F910FA02
FBF307F9FA0F030D
10F6FCFCFEF2FD02
EE08F6F102FE0E05
F708F515F9FF05F9
F803F5030409F2EF
070BFCFE06F7FDF8
F9FFF30603FC0300
F116F917FF0EFC02
FAF707F2F9140605
0F03FEFBFEF10007
E90B04F307040807
FF05FE0A01FA12FC
0500FFFA0DFAEFF8
0BFDF6FE080203FB
EFFEF2060C10F806
E013F50DFB0F0DFF
F0F4FFF9FF1AFB07
10040803FEEBF30D
F5FE08F809FDF8F9
F5040100FEF014FB
01FDF8EF27F2F1F4
FF04F2FD0F00F5F3
FF00EA080F1EFB03
D91AF316F80F0CFE
F100FDF30711F70B
06160D0A00F3F815
F9080CF50CFB0EF7
F5F904F3F2E00AFD
01F4F6E51AEDE3F0
EA0FE9FF0D02F5F8
15FAFB1C0826FFF9
D01D052409090306
F3EE0DF6170FED1E
161B061500EFFC1B
FBFF08EE18F30FF8
F609FCF7F0D10802
FDF5EDD71ADDDEF4
DF16F71507F3F21C
1DF702271F2AFBF4
F2090A091B1405F6
F5F6FD0F0F0EF714
0804131119E3F60D
EFFC23EA07F2EDF0
E908F8EFFDD900F0
F00807EE0DF4F708
DDF3F40A15180024
1FE4F9181328FC05
FB0816140C0C0C06
F1F709F31200FD2E
F606160B23F501F4
EEFF14EDFFDBD4FC
0513F3EC09ED04E8
EC111AF510F3020F
F9F701040A140F16
02F402FEFF1B0BFD
FE021109F700FD07
050C040616FD0617
F80CF905120F1702
F20301FBFCF4FBF7
0F0616F10809FDF3
FB040AF90FFCFFF9
FB040102FD020301
01FD0204FCFFFEFD
05FA0303FBFC01FB
FE01050404FDFF03
FEFF0005020201FD
020304030204FDFC
0000FD00FE030002
FB050304FEFC0201
020103FD040005FD
02FCFD0404050100
0401FE01FFFE0401
FCFB0501FD01FCFD
FF02040403FFFFFB
FF0101FF0504FBFF
02FF030002FE03FE
FFFE02FEFA05FC02
00FC03FEFCFD0400
FFFB04FDFAFF0501
0303010501000201
FE0300FBFEFB00FC
FE0303FEFC0503FC
02FE03FCFF0401FF
0003FB0300050202
050402FC010401FF
050325CEF9040807
04F1FFF7F3F219FC
151B070EE9F0F919
0FF100000B09FE08
10E700D408200213
121319F61109FE08
01FBEFFFE80FFA10
F61DFF04020812DC
FC09FCDBF8FF0308
12FC0300F1050C07
FA0C0D20F7F5FF05
FEF308F30C0A0017
1EE301F4F50B001D
EF1B04ED0515FE03
0A00F2EAFEF702FC
FA11FE0F05FB1C04
F90D00FD0AF6F60C
01FCFA02FC0A0E07
FC14080CF4F507FC
FDFA0CFA0AF9130B
06F00807FE04F611
EB2B07FA0F070102
1205F203F8FD0D14
E308F604FEFB07FD
F51203020100F9F6
F7FAF7010C1307F8
F80F07FBFC070F02
00F7100403000B13
FEF40219080ADE0A
EA1402070B0BF9F6
FB07FC0DF9FD0E03
F108FDEEF4FDF4F2
F51807F4F60B00F3
FBF3F201FC0502F0
0210FFF6FD042004
09F01DF7050BFE0D
00FAFE0AFCFDE305
F80B03030901FDFA
0305020DFD06FCFA
F905FBF6F9FFF9F8
F00F02FDFC00F9F8
FAF7FB010104FFF6
081501F5FC051708
010513F10908FE08
F3FFF70700FAF606
010CF5000401FDFC
0D02FD040803FF00
FE0703F4010BFCF8
F30503000004F5F2
FDF6FCFC000202F6
0808FDFC010211FC
08FE0AF00912FF06
FBFBFA0C06FEED0C
000704FC0A03FEFA
1200FDFD09FCF709
FB0802F90AFDF4FB
F0FE02FF0404F2F2
FBFFF7FD020105F9
0302010200FC07F5
03FE0DFD080A0514
F9F8FB0C0203FB00
F60A09F906FE0FF9
11FA07FD00FAFA03
FE0C03F90901F5FA
F6FBFD050703F8F3
0201F7FAFB050701
FB06F90309FE00FD
00FA0D06080C0108
FAFBF607060F07FA
080204FE06FB14F7
07FF0103FEFEFC01
F8FF08FB0F00FCFA
F80700FC0BFAFBEE
05FBF6FAFF000403
0107FE0E09FF03FD
00050AF9F8140612
FD0C000D0A0BFA02
060E04010BF613FD
00F804040909FD00
FB0806FE1AF8F701
F6FD05010705F8ED
0203EFFC01020200
FB0402060C0100FD
FC0103FBF916040C
0017FD040A0A0005
FD08FF0202EF0FFF
02FE0307070803FF
FC02FEFD14FDF0FC
02F20B01030004E9
F103F6FC01FE0704
FDFBFB0306000A06
F90903FFF810060A
020FF906FB0D0401
0304F40204F80EFA
F7FD020001050A00
07FE07FE0A04F500
06FC0506080306E9
FAFBF5F60E011003
FD0901FF01FB070A
FF0602FEF60F0507
0208FD04FF030302
0302F61006070AFF
F900FF00040B0C01
03F80A040407F804
18040603030902E7
FFF4F4FA080F0E03
FD05FBFEFCF80507
F60706FC010C0306
FF08FB010007050B
060A000C0A110C07
FCFB00070A0508FF
0400030A0801F9FF
0EFFFE0503070EF4
FFE9EDF1080B11FC
FC05FCF7F4FBFE03
FF0000FFF6050A10
FF0503F60800FF01
F70C040C020A0AFB
FAFFFD0A08000906
0C0002040503F5FA
0A02020704FD0DEE
F6F3F5FB040D09F8
FF02FBF3F90205FC
0102FFFCF606020A
020107F6FBF9FBFB
F80AF70D04030FFE
06FB0505010612FE
0002F309F407EFFC
080304FB030401F3
FDEFF2FDFF0505FC
F60101FC010512FC
FBFEFBF8F90A030B
05EF08F6F3F6F0FB
EC07FB0501FC0C00
FF0C000BFBFF10FC
0702F902ED03EFF6
080E0900FCFDFBFA
FCF8F00CF30104FF
F211F903FE0D0BFC
FAF2FF00F90A0911
1100FDF9FBF0F203
E709FDF305FE1101
F908FE16FFFC1600
0508FDF1F3F8EFF7
1108F7F702FDF5F9
FFF5F614F80BFE06
E8180410FA0F03FD
04EFFFFEFC090805
12FE0000FCE9FC01
EE0C00F607FC0BFF
F8040504FDED12FC
FD0502F302F5FAFC
12FEF408030901F8
F3FBFB160814F306
E814F816F90A06FE
F206F400FD08F802
1705F702FDE9F309
FE05FAF80AFC03FF
F0050603F9E11401
FC01EDE60AF4EFFE
0506FFFF0304F404
06FEF9090813FC04
EA10FC18020A04FC
F2F9F1FFFE0BF305
160CFDFF09E5E912
03FE01FC0EF210FC
F7FF04F6F0C7050A
FD07EEE514F4E7FA
EFFBEE0306FBF4F9
1305F71207FDF600
F51AFB1215110902
F5F512FA0308FB12
2209090800EBD915
F9F8FBFF14F318F8
F5F8F2F1F1E211FF
F70509E404F9F406
DAFBF915F8EDFC13
0F03EC2E1811F90F
07FEF3FE0F0D04ED
F2FE0BFF070DF007
080D110012E2E403
E4F402F3FDF0F5EE
F9FBF7EE00E6FCE6
ED0E18FAFCF6020D
E4F2FF060AF2FF14
1EFBF91809150111
F60C0208FA070BF7
F2F114070E060124
F7080FFB21EBECF8
EBF30BE804EBE80F
F9F7F2EE0BF6FAF0
E71112EFFDFD0217
05F2FEFC130812FE
F0F90BF9FE0208FE
FA0000F4F8FB02FA
ECFAFB1314FA1110
FBFAF0FE01FF04EC
F70E06FE06FC0406
08FA0FF603000405
02F6FA00EF07F7FD
000103FFFCFBFF04
00FC01FE00FC0404
0500FB05FCFA0503
FCFFFE030202FFFD
FD0304000400FDFD
FE04FE05FC00FEFE
FBFE00FDFF00FBFF
FCFBFE0301FFFDFF
FCFF0203010101FE
04FFFBFFFC0101FD
04FF020402FBFBFC
02FCFDFFFD0200FE
030100FF0403FDFF
FCFDFCFF0503FE04
FD02000301FE0001
05FF04FE020301FF
0000000400FF02FF
FFFDFB00FBFF0204
02FEFE0400FB0401
FCFDFC02FC030101
04FF05FF00FF04FC
02FD00FFFF0203FB
0205FCFD03FCFE04
0101FF03FDFEFC05
0FF617E00D010DFE
02F405F6F0F81907
030DF212ECFAFD1E
F7F3FA0110021F06
10F5FBE1FA08FD14
041AFA03110D1700
0CEB04FBF505080E
FC070FF7F90F06F3
2FF804F3FBED12F6
1EF80BF4F5FC0105
02FFE21BF1DEFC03
F5F40504FD05240A
1BF0F7F9EE0F0112
FC2CF507130F1FFE
27F1F1EDFD0A0613
0A16130D0CF63205
080F13E900F1F4F7
14FE11FE02FFFFF6
FBFF04FEF1E0030D
FAE306FCFAEE2E08
10EDF107EFFBF305
F628F70317040F0B
0AFCECFC00031C0E
F40A080E0AF01606
F8060EFC06F7F5F9
0AFDF9F81006F4F8
0AF609F7E8E90D00
FEED10FD09F52102
FFE4040CF710EAF6
EF0DF40B0D0701FF
080F000101081B00
F40404FAF0F80704
F20607F6F903FDFB
F8F4F1FC0608FEE8
0EFF06EEFAFB1A02
09F613FB000511FF
FBFCFE0BF40AE002
FA19F40A040AFFFF
03030603FC020702
F80302FEF2F41500
F30105F7F4FFF703
06EAF0F3FC0503E8
1AFD06F2F5FA1C03
0AF80A01F6060A06
F000F808FAFFDEFA
1012F2070714FE03
0F090307FD07FD00
F2000BFAFEF80C05
F406F8F4F6F4F800
01FDF801FC000700
0B070004FBFB1DFD
FBFA0EFCEF0E0AFF
F70707060801EC0B
10FDFFFF020400FE
140100FD0B0EF20B
FB0308F4FDFE0200
F408FFF701FCF4F8
04FFFDF501FE09FE
0104F602FA061005
FBFA0D0BF0070D05
FD09FB060500E20A
0AFB07F6060410FF
09FB0C070A03FA06
F91302ED02FD0002
F8FEFEFFFF00F3F7
FFFDFCF40000F8FE
00FFF509FE031206
FAF50406E609070E
02FBFD02FC01EEFB
0DFC020209030E00
09FF06F50BF3F902
F70E06F60FFB0303
FFFEFF04FE01F4EE
0200F2F103F60007
0001FE0B02072808
F8020DFEDD12050D
FF0B010004FCFAF5
0EFB050B0EFD1C03
06FF060303FFFA06
FF0D0EF609FCF609
FBFB0203F607F3EA
FF06F1ED07F5FE10
0208FF110B052A08
FA0A00FEE7110114
050606F80602F3F3
05FAF7110BFF1807
09FD06070D010604
020C0FFC0CFCF803
0402FF09FE080AE8
F4FDF5F802F8050C
0207FC0207011C08
FF08FD00F5150208
FF0804F3F705FBFC
0DF9F1150903110C
04060004040A0905
10020A000A05F300
1405010C08040FF0
FEFEF4EF09FD0C0B
FA09F90002031BFE
FB0C03FDF410050B
000D00F60209FAFF
05FDFD1905010E0C
FF02020B06061106
0F0407040F01F507
1909FFFF08070DEA
FDFBF4FA0D031307
FE05F7FAFFF51C06
FC070607F6150809
060704EF0504FC04
FC06021B05030F0B
FDFB000D09010806
0D00FDFEF6FFF5F9
0AFF0107080D03EA
FCFBF3EDFC090B01
FE03FCFC06FB1600
FF04FCFEEF0A060B
040001F5FDF9EEF7
030B042103021308
00FA00070A070204
04FFFAFFF30BEBFF
0C060B04020601EC
FBF8FAFEFC02FEFE
FD07FBFB02040DFE
0205FE07ED0B0714
08F8FFFCF2F7F101
0C05012908000D0A
0CF80509000F1500
F805F7FFF109F506
0B0700FDF70803F4
FEF9FA06FD0AFA0A
F30905F609131301
0AFCFC04F0070804
07F302FBF201F707
0101FE14050B0714
FF01FC0A05061006
FD0EF6F8F409F000
0B0BFFF80004F902
0CFDFB10F60B0508
EB10FB0FFF130C04
08EFFC01EE0805FA
110BFCEFF1F3FE07
FD05FA06F8FF0E0E
FC01F70808EF0408
F812F7F5F8FBF4F6
1201FDFD03040300
0FF8041CFB19FF0D
E913FB16FC060CF6
00F2FD07F3050202
1AFD07F9FDEE080A
0004F80800FFFF0A
F6FDFD0A02EC0506
FD1200F807F7F8FE
0704ED070600FD0F
0AF0F7181521F90A
F0120321070A07F7
F8F9FC13FF06F002
17FEFBF907E4F70E
0407F9F702F10108
E80002FEEFDF1105
FE11F6EE18F3F007
F506E90CFF04F810
07FEF40C1124FB03
F80CFA110A0209F3
FFF607F3FF00F314
110B07FF1CE8EE0D
FF00FDF4FDE809FC
F1F7F8EFF2C80F03
FC18FCF510EDEE09
E8FCF70E0508FD00
0104F4151119F61A
020EF5101B0D12FE
FDFC14E8F80BF91F
1D0BFEF80DD9E106
FBFDF4F507DD0EF3
EAF6F2F0F6EE0105
F40E0DFF08EFFA0C
E8F40419FCEAF503
1F01E42110F8FC06
0B0EF40A0FFD0600
F6F910F7F7FF0D03
09FF0F0608FAF100
FDFB05F109EEFDFF
07F703DFFD05FCF0
E81E2A0AF6F711FF
EFEE03FE03E8FF08
1604FD161104050A
FA0DF70FF3070DFB
F4EF0D0613F90A0B
F6F90AF708EEE800
E9F809EA05F2FC0A
07E3EDEB0CFE04EE
F30E14FFF8FA000E
010C02F113FA1500
F4F8110100FE0EF9
F118FAF3F3000613
E1EAFA0C18F01114
FDFCF0FBF303FCF5
FB0CFE050C05FD02
09FFFEF7F2FE0503
01F9F903EDFBF4F4
FC00FD03030403FF
FF04000303FDFDFC
04FCFE0403FEFE03
FEFB01FFFC050005
00FCFD00FD02FBFE
FEFC00FC02FCFBFE
0202FF0400030101
0302010201FC05FF
01FDFC02FB0101FE
FDFDFF01FD040402
04030100FC030003
0200FEFEFEFCFCFE
05FCFDFBFDFE03FB
010403FE05FCFC01
FF0201030003FF00
030403040300FE00
0000FEFEFEFEFEFC
05FCFE0503FFFD03
FFFF0303FCFD01FD
FEFF0300FBFFFCFF
02FEFE020400FD03
FF05FC02FEFC05FE
FDFEFDFCFB02FBFE
FF0500040403FF03
0E020405FFFFFDFB
09FF04FE0D040303
0809FA05F900030B
FEFAFA0206050EF4
0AF9F7F9F9FFFCF7
05FEFC05FA03EA03
09F00303EC0DFB11
FD11040703FE14F7
22FE11FFFEED13F3
14F6F7E80AF102FC
16F6EC0AEFE60407
FBF3FC07FC0626F1
0EF6E6F9E120FEF7
210DF50911F11B05
25EFFDF5FC10072D
0C2516131CE220FF
0F0511F9FFDBF8E9
20E9E4EC02F1F3ED
17E4FB08F9D6FE10
01EC0903ECF341F3
FBFCE9FFE414FEE8
2508EF0D100A030D
110403EEF9111D16
F1051B2026EC2217
03FB0FF603EAFC02
12F7F4F109F6F2F0
20DC02F308D60305
FEEC0B02F8E31FFE
EFF90203EA07F9E2
0D01E9070212F207
011703EF00021EFC
EFF51C0EF8F52019
0BF8FDFBFDFFF300
07F600FA08FC02F2
2EE904EC05E80206
04F002FFEFFA22FD
F9FF03FAEC0EFDE6
150BE6FC0913FC05
0E0600F5040007FE
FAF31E0FFFFF2C12
07FFF5FDFDFFF009
08F9F3F905FC09F3
25F201F700EF0006
05F510F9F7052401
010611FCE90AECF6
140EE7F90D12FE0A
0FFFFFFD020CF803
FFF9210AFEFE2109
050AF6FDFF03EE04
07FAF6FDFFFC00FE
05F800FAF9F20607
06F8060AEE0A1DFD
F70C06FDF605EDF8
12FFF108080B0802
07FF0AF213050104
FFFE10FBF8FA0F03
0606EFF40204FB00
06F5F8FDF3F70503
09FD0009FDFB0712
FAFA080CFD0320FC
FF11FEF8FBFDEB06
0DFFFC1308011700
03FA0A0310FAFF12
FC0504FC04FE14FC
0805F40106FEF902
FEF8F2FBFDEBFF02
09FAFA0503FB180C
F2000E03FA031106
F90B09F805F8EA0B
18F3030E03010F03
05F5070009FE0B0F
010D10FF06FC0EFD
0800F5060708FCFF
05F6F7F704EE0501
0B01F90D0706190D
FAFF0B07F10D1403
0312000402F6E208
16FEFA0504080802
05FF050D0CFCFF0A
010915F60BF71002
0BFFFC04FBFBFAF6
06FCF8F508F00AFB
100CFD09040D2706
F5FEFF02FB0F060D
FE130DFF04EEEF07
1EF9ED0D0E030A04
07FEFE0B08FD0412
05091BF701F803FD
0C04FC0104F70BF8
06FAF8EE03EA1206
020E000007100E09
F7F9FDFFFB0D0D10
F91807F700F1EE09
1DFEFF0F1202070E
FC01FD1211FD1208
0B0516F70E0206FE
1202F9FF0A040900
0DFDFFF7F7F01002
FD0306040B130D0B
F2FD03FC02110B09
00050DF806F5EC09
1D010B18090A100B
F3FD010D0DF90D0B
0504F9FD10030509
10FCFB01070A08F8
10FDFEFCFDF90DFD
0408060809061911
F8000A020B090814
00060BFDF9F0E50B
0F01041D03021512
F602FB030FF7F900
0505FBFD0B090107
0302FD04FE090C05
0CFC020CFBF6030F
080304090F05F600
0A07FFFE000C0909
0B020002FAE6EE06
1508021604FC0F15
FEF9F5F904FDF803
0209FC0812180712
F809000707FB0700
13FE050A05FEF805
060405FE0B060208
040B00FFFFFF0909
0A0006FCF2EBEE05
18FF051303F90813
0502EAF509060204
05F804010512040B
0AFFF30507FCFA06
0C0BFB0D000FF208
000AFFF5000407FD
0B04000205050807
060108F8F2EEEE0C
0DFE0613F8F0FE15
FD03EAF312FE0DFF
09F9FD06F4050006
0500F20107FE0503
0A0801120210FF07
F60A0102F9100202
08030003F4FEF5F6
01FB09F401E3EB08
0D01F811F7F9FC0E
EDF8F5FA0EEF0706
08FB0408FBF504FC
01F3F70A0C080612
1102FC111116F610
F7060506070407FA
130B120BF5FAE9F6
0BF614FA04E0DC09
0CFCF3FFEBE8F915
EEFAE7F70DE5FBFF
F9FD060A0CFB1008
F4F9F8050C050418
0CFDF20A1F1EF6FD
030608050E0F02F3
02FD030400FDEC04
01F00E0109E3EB0E
060AF4F7FCDDEE0E
04FDF0F2F8EF0BF9
FF02060513010F09
F9F3F80703F6001B
0205F8071C1FF208
0800F60E070807EA
FAFC0203FC060510
F910F5FA08E9F102
0305E0F20BE80604
02FBEBF7EFE80402
08050C0C0F00FA14
EEEEF00F0202F713
03FFF5170F0AFC17
0005F91409FF04F5
01FE10F1EDF4F51C
1704FFFA0DE5F0FA
0808E8F307E608F5
02F9E8F3F4FAFFFA
F80C100AF6F20910
E4FBEA01FF0DEB04
15FEE819150C0CFF
0713040D06FDF709
FFFB11F5EC03E822
050A13100402F5F4
FD0904EDF5DF0303
EC0EF7F3F9F902EB
F8131A0901F507FF
ED0AF8F7F80AEE0E
FAF10E17FF0109EA
FC05F7F8010B050F
FDF1FF090C00020E
F7F5EF1316FEFB09
F3FF0BEEF907E703
141E010EEFEF0BEF
F316F0FDF5F505ED
FC0F02FE04FE0102
01F708000105FFEC
000903FDFFFC010B
01EEFFFC030601FF
FDF9FC06FE030103
F70609FA0102FCFF
080FFE0AFBF708FC
F603FE00F7FCFDF9
FFFCFE04FCFEFC03
020101FE04FE0305
FCFBFB04FD020402
FDFD030305FDFE02
FCFE0204FBFE0101
0200FE00FC02FDFE
040404010502FFFE
00020205FE0501FE
FDFE03FDFFFC05FE
FE0405FDFBFE0403
01FF01FEFB030100
02FFFD04FE010104
FCFFFE04FF030104
04FC0101FDFEFEFE
FFFEFF00FEFE05FD
FF03FD0000020404
FCFC00FFFBFD02FB
FFFC04FD0300FF02
00000404010204FE
05FCFDFEFFFEFF04
FDFE01FD00FCFF00
FC03FEFE02FFFFFC
00FDFD0403FD00FE
00FD00FF02FF04FE
000102FA0000FA07
0106FC08FC030200
0305F308F90303FC
FC0203FDFC0405FE
0400FCFAFD010306
0108040401FE03FE
03FEFCFDFA030406
0108FDFCFF040800
05F0070B0A0E0DFE
1406FBFB0701F211
05E702EC03FBFEFD
F703FB10F7F905FD
E70AEFFA0AFF07EA
1208FD09F9F9F504
FF0A05FE08F0070C
1CED1E091601F212
18FC0AFDFCF6010D
26EDDFFDF3F8E6F5
1AD7040A07D5FC0C
FEFB050CE4FA19EC
F40FEEF30003FAE5
2BFBF10C1106F6FB
051306EA0F141002
FFEC21141BEE0A21
12F10AECFEF9E40B
25F1E704FA03E6F2
2BCC080510C5F1FD
04031203DEEA19E8
FE0B0FF5FDF200DD
2FE0ED1B0619EB01
1316E7E80C0A0DFD
F9E42D172DFF1F2F
150304EFF908EE0F
17FBEF0FFA0404F9
23E0FF0F11DEF1F9
FD0B1601E3F920EE
071709F4FC0419DB
2BFDDD2B0E180105
1004E4F4140EFD09
00EA271B21FE1629
1C12F3F9FDFEE810
1801F10001F100F7
12E5F90608DEFBF3
FCFF1710E20429F1
FF110DFEF80324EB
2F0BDD1C1418FA03
150CEBEF0A0AFA0D
02DE2D121DFB0E1B
1E15FEF10CF8E50C
1AFAF4FFFDEB05F0
21F8FCFC0EE40406
FAF70905EE0334F5
FC0C12FAEFF41EED
32F8DE260A06F90A
1B18E7FA08010B0F
02C02D1DFFFE1302
1806F6F414F6EA06
16F3F0F9FBEC03F4
20FBFEF70CE81307
F8ED1204FDFE27FE
FA1313F1F3EA02F8
24F3EB2E12FFFA14
0B0EEE060C080F07
F1B02819FA060DF4
11FD000603FCEB0A
14F7EDFBF7ECFEFC
1A01FD040AF11702
FDF51000E0021CFF
041605EEF0E1F907
2B00032A1CF5F910
0902E6FE07010A15
FDC0260C190612F7
0CFC02050200F306
1DF2F3FFFBE5FF02
21FF0A05FFE40B0D
05F012FCE0011D01
FD150EF101E6F309
3101F50812FCF208
01FFEF0306000601
01D3320C270E15FA
15FF04020B01F702
2AEEF3030BE40B01
22FC0EFF09F6070C
02E70E07EA0916FD
F30C13FAF6DD0A0C
28E8EBFA12FDF313
0511F301FE04FE03
02D3370B0C070BF4
0AF203FC11FCFF06
2BF3F80204E10C0B
1401FD080DF90B07
0CF20600E7042203
F70914FDF8D80812
24F3F20C140BF70E
0305EBFC040009FF
FBE823040E0203F8
11FD04010DFA0212
27FBEF0411F0FE08
1204090C17FF0A0D
03FC0AFAF30313FE
F4030D0009E3080B
2BF3EA0D0F0EFD14
0209DE020E01FE02
F5EA200E19090F07
10090B100CFB15F8
23FDFB0111F7FB06
0A06090314F71117
F6090A07D90415FF
F8020C0AF9D9F3F9
2AFCE1060F020111
F311DDF31CF7F004
06F20BFC20150713
0AFF101309FE1806
1DFEF70521FEF608
14010B1124E9E910
000A09F5DC0B0CFC
FDFE1607F9DDFAFA
2C07EBFC06FAF712
FC02DCEB140BF10B
12E514FD1A1F0215
12011D13170605FE
1CF9E3002704F618
150B0A0117EAEF1A
03061100EAFF0900
07F51AF804E519FA
24F6E200F9EEE91B
FDFFCEEA1613FA09
1AE8110A221800FF
1EFE121111F9EF0A
160BE5031A09F10C
0D030EFF12F4EE13
130B170109FF0707
05F11AF202E30505
1C00DB0200F4EB13
FFFCDDE9171315F3
12E9111F10070B01
19F2090217020207
1B06E60806F40A0F
1104F3FC09EFF716
0B0414F901080FFF
FDFE11F515E80115
1508DF00FDEDFF0A
EDEFE1EC1E05FDDD
F9F51D120C020403
04DC030812FE0125
0F0AE60D06F90303
12F6F80A13F3F3FE
060C18E8F71407F3
FAFD14F313EEF609
1901E4F7F2FEF816
F9EDDFEB0FF4FCE1
F2F41011FC1005FC
09E2080E0AEBFE23
0603DC030213F9F0
1BF1010224D903F1
020C22E4F71506F0
FDF30CF914EC050A
09F7E8F2F2F9F312
07F3EAE5010308ED
F7F31E1C00080909
18E40C1801DC050C
0908F2F60B0BE9FB
10E4FF0714E512EC
F2061EF6F10706FD
FBF606EB0CE0E9F9
08FDDC06EFFAFD09
14EAE2E10A08FB00
FCF31217050B0016
0DE0FB170F021403
090003100A11EF09
0DF2F0FDF8FF0D00
E5100AF4F1F507FC
0BEEFDEEF6E6F5F7
0501F5FFF5FBFDFF
24F1F1FF01FFFD09
FFF213130CF50017
04F70B0A190B12F8
1AFFF6020EFEED0D
190CFDF2F0E6F603
ED070BE1F0FA0709
03FC0DF8EDF5FDED
FCF3FAF1FDF90A06
11F7F7FF0BF602FF
FBF2260702F2FE13
FD08FC020305FF04
FFFCFD0302FE01F5
0105EEFFFCFD0407
05F904FE0200FCFF
02FE01040A01FF07
FAF8FEFD04F90105
060DFE09F8F800FF
FE02FFFAFEFA01F5
FF0EFFFC0506FAFE
FEF902FCFD04FFF8
FA070504F8050308
02F5FE0105FEFF03
0004FD0AFF00FF09
FA0308010502FC04
010EFF09FBF703F9
0001FCFF03F6F6F5
FEFDFD040001FFFD
FCFF01FC02040301
FC040203FC020104
FE000302FD04FB01
0003FCFCFE010303
FBFDFF0004040000
0201FEFFFEFE0502
0404FFFE03FC02FD
02FCFBFF0002FFFF
FB01040203FF01FF
0402FF00040101FE
0300000205FFFD03
04040001FC0403FB
040205FDFDFCFE03
03040101010203FC
05FDFC05FEFE0201
FFFF0401FCFF0200
04FD0200FCFCFCFE
FD0101FDFCFEFDFE
02FDFE0300FFFDFD
03FBFD0001FD0304
FE04FFFBFD000402
0501FF04FE0400FB
0204FC03FF01FF01
04FFFE0204FE0401
FCFDFF00FBFDFCFF
0202FF05FC010200
FC0402040505FD04
03FE0400FCFEFEFD
FEFBFD00FEFF0500
0503020004FCFFFC
FC0401020000FEFE
030303FB00FCFB04
04FE0303FD0003FE
FD02FC0104FFFDFF
040002FDFB0200FB
0200FD0003000200
FB0504020004FE02
01FCFC030303FCFC
050203FC040302FC
F7F9F5FE06FB0312
0C01F409F701F205
00FEFA1810ECFFFB
FF05050806040501
030011F013040107
07FDF6FE11FAFEFF
F10100E7031BF4F6
E1010E0BFB0E0705
0DF5F4040F0EE614
0807E815040EE703
04EC06031AE5F2EF
05FF130C00F206FB
FD1514EE06EA0004
0CF6E4031905E4FF
120EECE7071000E4
F6ED211307111314
06F2ED07070EE616
1205E119FA15F004
17F005071FDEF5FE
010711FB00F50EFE
FF1622FC07EA18F0
0AECDC071711DFFE
1423F4EB0B10FEE9
F9EC2F21071F0928
F7F4ED150C02E60D
13FDDF1107FC01F8
