08F2FF0CFAFC0EF6
F2FC030AFFFAFCF8
03F3FC0DFEF604FF
04F8FD02F8F90403
0EF5F60803F308F8
0A01FCFC07F4F7F9
08FC050803F7FB01
FFFC04FBFBF5010A
F6FFF60CFDFFF900
FDFFF5FC0EF508F8
04F40AFFF5FC020D
F4F5080CF4010501
F5F5F7F4FB06F8F3
02F60AFC0DF307F3
05FE0A09FFFBF6FA
0602FBFB040EF508
F601F40201FFF707
040401FC06FB0DF3
0D08F5F40D05F7F2
F8FAF9FD0900F905
04FBFA02FB0401F4
FFFA03F6010BFBFD
0BFAFFF3F6FB0903
03F50A0709F7FF02
F903FB08050EFBFD
0DFC0B0A09F809FB
F401FAF4FD0B060D
000BFF06F9FBF700
00080BF409FE0A00
FFF7FAFB0307FE02
07F6FCF70A0DF20C
F40907F2F20DF3FB
0E06060D02FB010B
FBF3FF01FAFCF40B
F6FEFD05FC00060C
000905F3F20B0207
F9F503FCFF02F7F8
FBFD02FF03F806FC
0CFDF4FF070703F9
00030B0DF4F7FDF9
FBFC0006F60A0307
0D03FA0DFBFB01FE
02F2FFF6FEF40CF7
0CF5F908F7F30701
FD080DF4060902FF
F2F8F2F9FEF50203
0D0504F7F90B06FF
0005F90CF30005F5
F7F4F7080500020A
0AF600060C050203
F8FF00FFF4030BF9
FD0C0001F3FCF605
0AF60406F508F3F8
07F707FCFF04F5F7
0A04010AF40EF70C
F9F209FC0EF4F4FC
010C00FCFDF7FFFB
FE00FE0B02F208FF
F3FC02FD0E070507
FB0805FA010DFFFC
F2FF0A0CF4050403
0802030CF40E06F3
0200F70207F70EF2
04FD09F8F4FF0E0C
F3FCF404F70BF600
0CFF04FFFF02FD02
09FF0E09FBF5F20B
FB0A01F7FC02F204
F508F5FCFF00FA07
F7FC0B07F805FCFA
070D08F7FF04F809
F700FF08FE06080D
03FCFBFEFAF908FD
01FEF80AF3F80002
0408F4FDFC09FE07
00F4F40802010BF8
FF04FBF40507FE04
F9F20E090700F4FC
00F5F30D00FC0AFA
FFF60803FC00FA09
FA06FBFFFC0A0802
F606F7070A02F601
03FD07F9FB09FF08
F4F9FDFF05F402F7
F8070AF6F3FCFA00
FEF7FCF90BFA03FF
FC0DF3F704020DF5
F4FB0EFFF809F4FF
0501F4FC0BF201FF
F9F6F6F9030402F7
F5F404090AF3F70A
FBFE06FEFDFCF700
F2040BFEF603FD03
0307F7FBF301FDF7
01F6F4070B01F603
020507F9FC0BF7FC
040C000209FBFB10
F80411EEF811F300
0AFC0FF113F0F000
FA0603FFE7F1FDE1
F5FE050A0CFA010A
F709FE07F6F20809
FF000FF007EEF7F9
01010A050FF109FD
EA170BF604FD0906
0A0EF8E60213F702
080710F415E80106
F20A09EDDFFE06EC
F700111F04040204
FA03F80B08FF0F12
F3FA070302FBFFF9
060002000B07FBFE
0400FDF8FCFA0C06
FC04F3F50E0502F7
FF030BFE0505FC08
ED03F9001003FE03
10FB01EC0A0DFBF8
FDF90A0D04F70804
0E05040C06050801
F1F008FCF8F7F501
F30DF9090D05F7FF
06F903F901FFF5FC
F7F9090406000A0D
FFFFFBF6FDFB08F5
FFF3F30AF9FD0B0C
06FE09F700F2F50E
04090204FE06FFF7
FCFA0AF3F3F5FE06
0BFD0C0E01FAF5FA
FE08F2F50D05FDF9
F9040DF508F5F704
0D07F40B0B0301FF
F8FF0C0AFF0D02F5
04F9F5F202FD02F6
06F30009F50E0501
0BFB04F704FB0DF9
FB04040806FCFD0D
0609010E04F504FA
04FD0200FB09F5FA
FF09F4FFF30AF8FD
FB070CF8F70705FD
FEF6F403F6F5FBF6
F5F8020CFCF403F6
0EF5F4FD0B0DF4FC
0EFB06F3F8F607FC
FFFA05FE0604FC0D
FAFE0901F9FEFB03
0200F9FFFDF8F3FC
0E0D0AF809F3020D
0DF3FF01FFFD0D06
0CFD03FC09FD02FB
FE0104090C0AF6FA
04F7FBF50D00F6FD
FFF4040705F50A00
FA07F6F806020EF8
0C0A08F70402F3F3
FF0AFAFA0B04070E
0EFF0E0704FD0B0D
000504F905F50802
02F9F8F5FBF30AF2
0C0CF8000DF3FE08
0301F80BFCFC01FE
F50B01F7FC05FAF6
08020BFD08F4FE0C
07FAF206F8FAF7FF
0105F5F80B000AF4
050DFE0D0EFEF307
02FAF3F60700F80D
0700F9F903FD090D
0002FDF702060D0C
09FDFCF80C05FA06
F3F6F6FCF401FA0E
F8FDF8FD0A040B0D
FE03F505FE060501
0105FD09FD0A02F9
F3F3FDF8040708F3
000AF60700F5FEF8
0A07FA0EF9010405
F3FF0402F303FBFE
0AFF05020605F5F7
F90C07F6F2FDF6FD
05040AF50806080B
000C00040606F3F4
00060B090CF708F5
0B040AF707F7FA07
F509F90E07050CF3
020C06040E020C01
FE0CFDF60C010404
05000CF4010709FA
010BFA0AF6F508F3
000AFA0DFA000E06
070206060EF8F206
0306FB070A06F305
01F9F50EF60AFE02
F9F202F509F4FE02
0D0BF7F9030C0706
08050AFFFAFBFCF6
FE07F8F30BFDF5FF
FCFC04030D0B02F9
01FB03FFF80BF608
F6030D03FA0CF9FB
F4FFF4F706F909FE
04FE0702F20AF5F4
FDFD06090E0205F3
F70709F40B090BF6
F7F40DFE010109F9
F8F6FDF9FA0108FB
0E0801F6FD040C0E
03FD0C0E06FCF701
F6F2040B0D0905F7
03F2FCFAFBFCF9F3
FFFCF3F8FEF6F9F6
010500FBF7FBF803
F2FB0007000E00F6
F3F4FF0C0507F302
0908FBF609FB0008
FBF3F90205F5FFFC
04F804080E0E0106
06020BF2FF0BFAF6
07F80EF5FAFEFE03
05F60304FAFAF906
F3F3F9F3F904F5F7
0B000C0B0902F2FF
F2F5F2F6F90905F2
0A07090606FC0D07
0EF405FEFFF50905
0CF604F903060CF5
0AF60105F70D00F7
FBF60DFF03F2F30E
FC0E0303000EF9F9
F409FB09F6F4F4F3
0AFBF307FEF5FBF8
F20DFB04F406FEFB
FEFFF4FBFC0CF9FC
090905050EFB0A01
FAFDFCF60CF3030B
06FE0AFC0802F2F5
F5FF0D0EFBF707F4
F907F60E080406FD
02F508FB0BF406F4
FE030A0C04F5F804
FAF603F608F4080D
01F7080EFD0EFE01
F50600040AFAFC09
FF0EFC00F6FD0008
08FD07F4F40CF7F6
F8FF0A06030C0CF2
09060BF5FA02FA01
FFFC03060D0CFA0C
FC0008FBF3030BF7
FE08F9FD0DFA08F2
0DFBF30B0CF8F204
0AFD00F508FE050A
FF020DF3FB0DF20B
F8F7FB07080E08F7
09F209FF07030EF4
0A0EF6FBF6F8FB0C
FAF9060AF5FFF4F5
F80BFC03F30AF800
07F50AF60DFD030D
F60E05070C010704
FB08FBF60506FC06
05FB0B0AF7FFFBF5
FFF50B0DF6F60BFA
01F70800FDF70302
FAFF08F4000CF504
03F7080904F8FE06
F8FFFEF505FEF3FB
0B01FDFB02060EFD
0800100FFBF4FAFF
0DF60306F806080C
060907FEF3FDFBF3
F3F1EE05ECED11E3
0DEF26DE130DE8ED
120316F622F1F319
ECEAFFEEEFFBD3E8
E9FAF4121501031C
0EE91C0DF80D0C06
100D21EE160601E0
ECFF1C22FEFAE9FB
F0F7FDFDE6E91406
04FF1FE21016E4FE
17FD12E915E4E413
ECF802F5F6DEDFDD
F7FD161A07000C2E
F6D420FFFB191A1C
F90A29080BF1FBDF
F7FA26251808050E
01FFEC0BFBF41907
00F51CE72A0DE6FD
FEE513F409F6EA03
07F30BFC0CF2E2F7
03EA122101F808FF
05FC14FD0AFC041A
F0100A07FB0501E5
FAEC0C1803FD050A
0606F816FE0510F4
FAF90BEF2003EBF6
F2F20DEDFBE3080D
FCFCF9FC21E3E8F9
F1F4F81E140007FA
F91B1116F7001110
16101405F708FDEB
EA030B00FEED0410
F022FAFEE9020300
FFF41ADBFE17EB02
FADBFCDA20CC0E09
07F80EE80ADBE405
E1FC170F2AE7F60C
EF2B09110C24191D
0FFA1C0A0BF50B02
0B101C05FB0307FE
ED0902F9F2EDEE07
00FF04F5F00604D0
F6CF05F2050E01FC
06DD07020906E3DD
F7FBF30A250C1027
0DE30A04090020F4
00F825F429F8130C
1A1F041CF2ECFCE0
DA030BFFE4EBF6FD
02E704D2F80500DD
0FE6F1F11606DDF4
EDE60300E1FFD5D7
F5DD0B1B32F71525
1AE72D09080B0C07
ECF527EF17F40BF1
0B07FC1608F4EE11
D2041312E3E00901
FEFA0AD7F2F6EFF5
25DA02061711EB03
FAE80D00E5F6C5E7
FEF6F00517F4F802
0BE3140E131D0EF1
F513090502FD0BEC
1103FD1B01F5F416
18090DE8011BE713
001C240EECECF418
1DFBF6FF0CFF0B1A
2FFC00E4EDEAEFF0
041E2EF4DC0707EC
D316F0E5FAF2F8EE
08FBF500E0EFF514
1910FCF8F413ED25
E0DEF8F5CCBCF902
2EC334CF1E083305
0CFFEF111BFD134D
2FC9071BEFDEBDC3
E7D6FE1A15E1102D
3E000B0ADA3A3DE4
FBE5262C18293019
F4100A120DF3D930
E7E50E0BE4CF03D7
25B536DB3ADB24FA
15DCE808FE05182B
D5CCF71F1B13DBE7
EBD2D22912DC160C
33D02D27E2221BDC
090A370F1A312A15
D5FC09230FC9EA2B
E5E61008DDC918E8
11B432D42AE42200
16E0FAFD010A1115
D4CB0024131FE1F5
EBD5D3151EE12919
3CDC3520D70C28E8
F6FA31F01B242712
EA1C1815F7CB00F3
DE08EC0BDAD90B25
07FF27B5130BDFD8
0FE624E522DCC207
FBEB04CFF3F9CFF0
FD190E311FF2041F
09030A1B151A1E1F
E5022DD31CDAF6EE
0D0A1D1A0EF2021C
DE15EDFAEED80C1A
17F410B82B2FD9E7
EB1908F638E2D314
F2EA1CD0E8E8DDD7
0B171F352CE10219
09DC0C141F082102
08E60BF927DDEEE9
27141E10F2F0F208
CA28F505E0F10E17
12EC20D02A1CCFE9
051610F231E9EC19
F2F411E4DFE1F8E0
F6092C181CE20428
12CE110F05072922
F3E8260919DAE6CC
342D1D1B0D02000E
D219DFF9E3DD1313
1BE82EDE3324E7E1
FF2915E127EEDC1B
F1F60BE3DCEDFFE4
F8EA0C141AD7182A
07CE160C12161F0D
FAFC16F231EB07E6
10200E1C0CFB0009
E2E9F50CF9F011EC
14E225E1190EF0F2
100B02F60FFBE60B
ECFD0E0102DEEFFD
F9F4F3180BE8101C
F6FF0C15EE042014
0C0D18F919FFFEFB
F80E111408E8FE07
E6FA0305E6E516FB
FCF01CF10B15DFE1
070E09E60BFCEB17
FEF6FCE907FCF006
F5F1FC1604E80F0F
FBFE221907080D10
F007190A160A0AEC
EDF92A0CF5E70909
FD03040105F602F7
F20AF2FE080BF905
F4FD04030703F3F9
00FD020C05F5FCF7
05010206F50DF501
F8F8F401FE0406FE
010AF9F2F4F80705
FD06F6F4FD04FE0B
F30D0D0DFEFA0806
08FDF6FF0103040B
0B03FC04F60BF8FA
060802F6FFFBFA0D
02F2F50106F3FFF3
FFF80C0A0306F606
03F90EF40C00F6FD
F60B070903FD0BF2
F5F6FA0002FFF9F5
F9090AFBFD030DFB
F4F7FA0004FB040B
090B06F7F5FFF601
F204FA0303F6F7F2
0204F6F80508FE03
05F7FFFF0EFAF3F5
F5050905FBF5FDF9
01F909FDFBFAF409
FE02050E0BFD0709
FD01FA0407F404F5
050A07FD00FD09F7
0D00030A0B08060C
F306F80BF3FB0106
F30DF7090AFA0309
02F4F305FFFAFCF9
0E06F3FB0BF30202
07F307F60107080C
FA0907090704FEF3
00050BF20A050407
0AF2070E0206FBFC
040A0DF307F4FB0A
020103F3F5050307
0E0D070C0C0CFAF8
0A03F8FFF3F2FEF4
FA0203FFF7F9FF08
0D09F409F7FFFA0D
FBF3FAF204060AFC
F703F3FE0A08FF0A
FF0E0A0E0AF60301
F80C000C0004FCFF
0CF8030C0007FC09
F6FB02F80AF3100B
FCEF02FB060DF2F5
0DFB0903F5FB09F4
FAF806FEF4F7040B
00FF0CFE0B07FA12
0005FA0809F40DF8
05FE0A00060EFEFC
FE0BFCFAFA00F202
E5F81B0DE1DCDFF3
10F3FFFFF0DFFEF3
010AF3081220F01B
01E10C161B03EAF6
FCEAFC150EFE0005
1FE71D02201E18EA
FC010C0F0D1B2307
F30CE412FDEEFBF1
E0E01A00D3D9F2F3
16F00DEBF6F201E4
010CEEEC0B1EED17
F1F4FA081A02DBF8
0AE3F91025011A13
0FE31CFC171A0FE9
FA11FDFC14052108
F70FE707FBF5001D
EEF902F9FAE400F7
FBEF07E21212F7EC
00FE04DF21E9E50C
F8F8FBF5E9FCF907
09EF0D0A0106F509
03E90FFAF8FB0B15
FCF91303170B0106
0215100B09090409
FB1EFBFAEFED0A01
FF0E10E514FFEEFD
17E818E21EF0E0F9
F9F7FBFB08F7EAE0
0102000F0BFB061C
F4CC110E08071C07
F3FA20E4FBEEFDF7
0A071A1303FFFDF5
F101FB13F0DE10FE
00F930E32719FAF4
02D212EEF7FCE8EF
F2F114F9FBE9E4F1
F6DBF61F13F40E31
0ED00C16130B0A00
051128F01DFAFBF2
05FC0F270100F3F6
E4F5F406E2E82307
F8E229DAF2FAFF08
F4CC16CA12D8D5DD
F2F607F5E9F7E1F4
FFC914050D21FF01
05EE1D23010C2312
0F0D10FFEE0DE9E2
18EB0F1EF9F7F7DB
F5F90C01E5D028F3
F7F02AD6DEEF0EFC
FBDC0FCE25D6E0F5
D7CDFDF9FB03DE1D
22DF1AEB1026E7EF
DBF42E2AF22A05FF
F716FCFD0A03DAD3
1EEF0D43CC000FF0
E20CFF0BE0D04BFB
06E13AC7EEEB0EF8
E6C12BCD24C9DE00
D1DB11ECEE03CF10
15F427F20608FCED
E0112040E936140F
F9111EF8F915E4DA
FDF01F33E2FB05EC
CF18020AF2BA4509
02D622D41C0003F7
F4E141BE22DBDFF7
EBF014DCE8F4B702
0BF32B071900E010
00FF3548123D2122
E20844021CFB0AD3
FFD31E3EE9EBF00A
DAEF1510E2A031ED
EED51CE8F1EB14EE
04F2150600F80DF4
E3CA08F008E5EB0D
12E3052602F7DDF3
FBEF0D2D0C1CFC09
E92012F110FF0FC9
D1F00720DBE0F4F6
D6182320E6CEF6F9
F30A1CFC1AFCFCE5
F4C4FF0EF0101101
0DCAEAD805CA02FE
00E31320DBECDCED
EBFDFF22FFFD0CEF
CA1106FBDB071912
181C0DF7FAE9F9F2
FB0F2021F2EA130F
F6FE33170C0B17F9
06D10DFCF2EA00DA
03CBED05F9D8FC26
19F12B17EBEDD9F9
D8F1121CD91626FC
BF17F900D6F3FDED
03E525FB04E5F7FD
FF120113ECEC3124
FDEA24EF011416EC
1D1007E704DA11D9
00CF081203CB0FF3
22140E21E7C0E3FE
C70C4507E90F21FC
DAEA0BF4E00400C5
E3D720DA23ECF40B
08FC142801E20225
04040E07F01A160D
351202F4FC171FE4
14EAF90DF3F41EE7
F01E0524D8C7E6F3
04013CF3E62C14F0
090D0EFCFF2015E3
EBE710D612C7F51D
FE05162318D70420
0FF10211ED1EF702
1C0506EFFC0F08F6
FDF3F70EE7FF16EB
DBEF0A31DCCBFAE6
D6DA1B0CF6140EFF
E1FC1E030319FAE5
FCFC2DEC0ECCE520
EEE90313FDFA0E15
27D93804FE15E712
24F3070111000AF6
CDEAFAF6E803E3EB
FDE7FD02F7CF33FC
F0C9361809FE303B
F9F81AF6FA0EE3CE
EEF41AFA11DAF738
C3E0ED12EDEEEC31
09FD4216EC28E801
282704FE550BF523
06F505EECFEFCCD9
F7EF02FDECB91A13
14F62DE9EFDE2022
F8F521F7F312F7DA
FE360FE924EEE435
D4021612E3D6102D
0AE025110417EB07
1B00FFFB2C041417
F8CF090CE2FBD4F0
E2EE10F1F6D90827
20E110F1FEF11D2B
04EC250F0EEFF0C6
F413F7F622EB0F29
D7FF010BECDC1110
12E721F30113E003
1AE91BE127F9050B
C8C4100AE8F0DA0E
FFE818E30EF00F3A
2CAC0B0A08121A29
21F40EF714D9D9E1
EA09F501F6FF2314
D80EFE0FE6C61715
19E926E0F524D0F6
25F71AF53109F91B
DFCCFE16D101D4FC
F8F40B0102E00049
3CD70B131BFB1F27
F9F224F71AE4F0F9
FA0FE6110BE31504
D8F3FC0AF4E01CEE
2FE420E6F61CF20E
0CE4F5FD370F0006
EDE4FF1AEA14E2F7
03E809F20CE9112B
1BF002FBF9E70DFE
05EE0B04000407F9
E314E70607F2120C
0CFB0FF4FBF50DE8
04EB02F80B0401F2
F8F40DF006DB07FA
F0DF090A09F80601
20D5070B0E09F009
1009FA15E704FEE8
090F0BFC0C0510EA
FD0FFB06F5F4FDF2
10F500F50DEE0801
FDFEF8F8EEF7FEFF
F5EAF7FE05F41907
F0E40423FD0A0010
17DFFBFDFE050701
F00BFB11EB12F7DE
19FEF50809FA0709
EFE70C0BF8F108F2
FA0106FC04F5F8FD
07020806F40EF6F8
08F8F509FC05F50B
040E07090C040801
FA020B0BF4F7FBF4
0EF607080309F3F6
F4FEFF07F9030C00
08F60704F5050B07
09F3FDFB04FFFE04
F20A0B0A0CFDFCF7
0908FA08F403F30B
0CF7FDFDF9070B05
01FD080C08080509
04FF09090EF50101
0DF903F6F6040309
0D0201F40E0AFBF9
0B020EF4020904FF
0701060CFFFDFCF6
08F60D02F5F706FC
0BF208070003050A
0A07FE0C0BF505F7
FEF4F7FC03FDFF03
FE02040308FA06F4
FF06F70B08FAFBFA
01F4000AFB0C09F6
0EFFF20BFF08FD08
FBF5FB010D000907
F306040009FE0C0C
F8050BF4F80201FB
00020A08F7F409FC
F50CFDF603FD000C
07F50E0CFD0B0A0D
17E21BF5FFE9F222
EAFBFB1506E72212
0FE3DEEA0DEC1520
20FBE91218F5F0F7
2A100EF5C8EB210B
0A2DF1EAE30FE8D2
32F8D236F1E40226
D31D1CCC0F1DE10F
01E51302ECD6E4E3
19F702EBE7ED13E3
0617F40016180D19
0CDF0E1825FCE1EF
00E9F61D18F2FA1E
0E1716F715161AE9
2B02111D1D182921
F30BF0170F16E51F
F4F0DD07CF03DDFC
27140CD2EF17C5DE
FD04FCEC06F9DB06
16E409060BECFCFD
01E614340EEFF005
45D6162A140A310A
14F12BEE10130504
2B0CF32F1809E51B
E20E1506F3F52017
F7E815C820EB18EE
FAF02CF4E4F9EFF3
F5FD08F90FF7F116
0FEC22F61526F318
2E032A0CF9100104
F901FB02F2EFD6C7
03F509FFF8F82900
E4040F06E0EB2607
F7E313E31CFFFAEA
F3E411FBEFF9F8ED
FBF00DD90FFDF903
0CE013FE0CFFF718
F50E1D09F5211F03
FDF924F8E10DF7C7
E9F51AFAFBDF22ED
0005EC0CF0CF311C
0AD522C224E915DD
EDE6FA0BEB0F0E13
140815E913F4EAEA
17D1FF0810FCEA21
FA1933F6F7390BFD
F3F40C1ADF0BF7D9
D9F605E60CF90CED
E704ED0DC8BB3C10
F7E71BB833E911EE
F50013FEFD0A1A11
08FD03E4FCFBBCEB
20A222FE2514E8ED
D41E3CF1F74308F0
06081534F821E3EF
C4E902F30DF00605
E6F1F908CFB747F3
EED01DC008F91305
030614D217E0E404
F1D6FFD7FAF2CC1B
0DC707061612EFF3
F10D4820F731FE10
071A22181325E5F2
E0E11C190EF309DE
E903130DDCBC18F8
F6D9FEBB30F51227
000E0C03FBF2E9F8
F60427E409FADF09
01D2F9FE20050CF5
EB1A33FFE21C0413
091906110520EAF5
E0F9FD07E2E622F7
EF0DFB01CDB81FEA
EEDBF5C638E61100
ED032C03D7E4FE15
DFFE18DF08FBED28
15D0DD091611F023
F4332B08BD101206
02000F110F02ECE7
E3F7F41CE5E31DF0
EF0BF2F7C3BAFDFD
E6E2FABF2EDA0EE1
1A12242FC7F62304
D80018FE1EF7E60D
1BE9DB181DF8F20E
F61E1EFCDC2215F1
0D04051A00FBE6FF
CDFAF0E602CCF9FC
E8FB0A14B6BE11FE
EBEA18A324FA15E2
21EA0D18EFF113EC
ECFA25E926EEF207
26E4F01A271811FB
17072904011E1404
F5260D160419DFE9
E7FFFBFBF6B911EE
FA0E1A33C4DAF518
D6ED06E819FB1AE0
0BFA1616F2E615FC
D30AF820190CEA02
09FC160F142313FB
F7F41202FCF50BEF
CA22050C0C1CCFC3
E4F20BF915A115FA
FAF82A34F3E80A19
F4C70E0D120C1809
0C241E0A02E61C12
CE050B0C010401FE
10FE0CF501252802
E0EB1506D7FE15DC
F022FC250009D5B0
E106120818CAFE01
0AE4122004DB1A1B
F4D8F30A18081C02
151D000BF80D1F06
D80B1109FC1328F6
FAFAFBF1041530DC
F7F5230FD4D70403
EF1A0224130DDBC6
E7F5220301EBE5F2
F6F3131F07EB0D18
FD01DF1B080B1AE4
052D0522E913100B
FA162108021E1EED
EBCE0E07040A40D4
EC0226FEF0EEFE07
F015002403FCE3BB
E1F5080711EBE9FB
FE0D011205ED0619
0C02FA43F022ECF3
1E280204E1E7FCF9
F70B280ADB1AEF01
E9C5270301ED2EE8
D0D61FEF00F80911
0DFF1A111D03DAA0
F0DC08170B0CE717
FE14101AF8E72227
E8EF0B3BF0120004
23FEF716F2FCF803
F1FEFC1BDDFAED06
06EA0F07F9F716F9
DDDA30FFE6F4111C
1E0332FC0AF1F0BB
F7E623E80206D921
D60DF031F5F81309
FFDBFA28EC02F9FA
11070022F8050407
11201432DBF2F6E9
E319F1FDF5021313
1BD22CF8F207FA0A
0FF417EBFB20E5DE
FF16E9CB0FE8DD36
EAF9EA08F7061407
0EF201F8DA16E61C
01F6FF1219F20ADE
1912161BEE101310
D610F4070BF40D09
1DC0020515E71742
22FC25E0FB26F9D3
0EEAF8EEF8D71228
0010EB05F30206F6
0C08FDE6E228E112
1108000B09F510FC
1A0D07DC011EFA02
E739E607EAEF1114
F9BA09FEEAD60E21
270329EBFE280ED3
0EF4D7F8F704141D
FB30E20FF2E3FEFC
17F903E0EB37D706
F7F11AE71FEFFFF7
17070003C6ECF500
F9040D02FDFB0B06
0FC9F918F6F7131E
10F221D30219F4EB
2A06F70CE6DEED1E
EE3407FADEE81EE9
24F407FCF81BDEF7
0DDF0FF819FCFBF3
F2CC0724DEF3FBFD
05D7F8F50505FFF3
15ECFD1708F8FEF0
FB0427E1FB0204EF
1B1CFB16EFDC030A
1611F406F7E701F7
0012F505FF0B0AED
0CE900FEFC0D1CE1
EDF5F81E10002B01
F7DAE90EE80DF1D9
ECF60CF6FE14F30B
04111110EC100FF9
FBF3F8F0EDFA090F
09E9E60FF829F112
FE14FCF3F4D60A06
161FE323DF1315F4
1A1A07120C18EAFD
041EDC08E6F32CDC
E905F2E9E300EA0F
111B0111D9FF1102
E9DF08DFFD0F151D
09FD0806F8FC04F5
0D0DF50AFCF40709
0505F5F30507020C
FB010405FEF407F7
09F4F30203F30EF2
0B08FEF2010A01F7
F707FEF9FAFB09FB
080AF8FCF500FBF8
08F604FFFBF805F7
FF04FFFB05FBFBF7
02F90201FA030E01
FF0107F6FC060507
F404F9F8F3040509
FA02020400F5050B
FE05F9FBFD0901FB
F204FB01F9F7FC0D
FB0B0800FE0D0B09
FEF5F60FF8F1FDED
05F3F7FBF7040607
F2FD0AF80BFCF204
12F00504F8FBFC0B
F80DF408F6FE0AFF
FF0AF108FCF7FE06
F4FF08F7F60009F3
1FF91BDF06F4F430
E8EB05200DD11CEC
FDE401F12DFE261C
3706F5180CFBECFE
2A1D24FEE0DB0513
FC21F2E5E30109C4
2BEBD12304DEFA2F
E81218E41E2AF22E
F00BF5EEFBF5E91A
F5F0F2150CEF1614
E717060CE7292C0B
2F08FF0B0EFFFCE8
0913140EFDFE1900
1224DDE0E4F606DB
10ED012F0009FB27
E71107DC28240A24
EB100002E9E60725
F6F6FEFC28EC0CD9
FA2227FAFCF51512
E90D1310FBD40CFB
1EF127050810F605
26321901E21A07E6
EFDBF2DDF9F9E3CC
F7F414152622FDFF
E20EF10507E5380A
FBEBF3E322C429EB
07F611EA07061B35
E60809FAF0DFCE1B
2BF52A080133E516
1A321303DE1AFEE1
11DAF104F6D6D6DB
02E1100316EA15F6
F7F50C0FF1E3FBF3
FBE0F9ECF5F01FF9
1BE209E7F70E1705
E104F9FBFEFAF51C
18BBE800F61DDF0E
EF1F1EF100320B09
10FBFD09E9F7F8D8
E0E00309FFDFFEED
E70E010AE4FF04FD
EE18F4E3F7E02511
19D90801F1000916
0AF5FCE1DE0316FB
13D5E6FEE6350517
F31314EFF415F9F1
0115FE11F8EDE8EB
EBDD0B131DF025FE
D1090C07E8DF0D09
EAEFFEFB0AC41D1A
F2DDFBFFFD061919
12041ED4DFF41C0C
21B9FC05FB1A11D4
DB2223F5F332F9DE
F60DF13104EFDD0A
E0F0080011EF1806
F2FA070FC9E01000
DCF20DE2FBE81D1B
FFE30BF909FAFB24
FEF208D7E5030D19
1CC0F31719F924E0
DF082601F42EF8E4
0A13FD2B0F16B4D2
ECDC0C1808C61505
F8081006E5E117F5
E8D5F6F40AD91C1C
09DA17E6FFF1002B
0BED0AEAEC04F71B
13CDDFFD12FE32F5
D404160EF70803FC
1C19F83A0013B1D9
DEE2F40EFAB00501
19ECF805E4F4FBF4
D9F203E70AE11FFA
0FF012FAE9ED1317
F7F710D5FE03072B
1B0FFF0D050412EB
C70807F40005FFF2
18110E3F05FEA1E4
DEDAFE0F03B807F9
10E8FA09FFE901F4
D6F608E70FE51710
18F2120AEDE0240B
F61026DC12001C10
2C21FE09082822F1
CE2308F4090600F6
0B1AF934100CD009
DFFCEDF7F4B71F04
02E8021CF9EFF602
E4E8EF0308F72B16
06DB000D00E022F2
F40204DC1BF60B06
061F190DFF1B2607
EA1713FCF60509E7
060FFC1A0D2BF509
ED041FFFFCD9F4FD
FBED131BFFE8E409
D6D2070708141511
0DFAF815FBEB17FF
F10007F710FC0FF1
05180E12032725F0
F20C0311FD051204
0D24101B131E01FF
FA14160011ECFEF1
F9E21529EAF4F401
E9F3FA0906020D2C
010DF50C07DE1904
E50608F7F9150CEA
E802F20E041A3CF5
E70E02F304051CEB
1115FF211011F805
F41011100FF6070A
01041C03F3FB000A
F4EA02260500002E
F4280001F5E317F4
EF0404F0DC0215F8
F6060F16FF1941F1
F70603F7000BFFF9
F40AE614130AEAED
EF0211010BEE03EE
F8EC14FD02FBFFF8
1915FE0FED100F20
02130E11FAF30708
040F09FEED03160D
EDDBFB0CFFF12EE5
0505FF170704FE06
0905F1FB0E0DEFF8
FD00FFF9E503F9FE
ED0A1E03F80305FE
0E0C0100EBFC0B21
150F0009EEFCE61A
06F6FE05D30FFA00
EFCCFF0BDBF727F4
1AFDFB0109EE010F
2B140D000A0EE4FF
F8F40AEFEFEB031B
ED180EFAF013F911
000B15FFEE12FB15
2107E8FA0301FD1D
EEFF1CF4C7FB19FD
EBD60705D9EE2EF1
03F6FB11FD08F4EB
12F8090D190EF6D7
EC0C0FE8F30DF811
0023160FFF0B0FF2
FC160F0ECAFFFE25
0BECEE0615F7060D
EA0A16F9D90304F5
04EE211AFC061514
18DB0503FA19FCF1
18F5F8F60721EBC8
F903EBF1F9F20BF1
E22906FEF411FE07
111801F8EF0FE435
14E711150F05190A
192D1702E4F90D04
EDF72318F80207F8
19DAF2F106102114
20FD0BF8FD1500E0
0A02E8FB0D0723FC
DD34FEF800F7F7FC
1D22E7F5FC1AD41D
12E601120B06031B
210A0AE6D1FDF80E
E9230005E40CFF06
3DD5F102FDEF2010
180604E60908FCEB
110AC6FA1B1E2401
EE26E8F9F7F1ED08
2311F1FC1A21EC06
09071009110717ED
48100B03E50A08DD
F22AF4FBEEF4F505
23CAF7FCFBDF090C
16F524E6EC1BF712
25FEE20BF810241B
0229E2FF1614F214
FF2507EC230EF207
F0F50129FA161CD9
3C141614EE1724EA
0E1002D0F0FDF6E8
0AF8DFDC05D1DC1A
1DEC1FF2E902D613
0A00E6EF16F82217
29F0EB0C2B23EFFE
EE22ED040AF50320
0307072AE6143AE2
0832172408240B00
FF07E8F4E521EEB4
EFEECBE1F3ECE625
18FE1D0FEB2BEE27
FDE3F6ED1DF20C18
1AEED6FAFE1FD60F
F8FF15EFE9FFDA01
21F92612EE172E05
FA08F70D0321EFED
1110CFFD00E90DDB
CAF8D2D61313EE1C
05332218F60C0CFC
03E4EFFF2BD1F021
D9E50CFDEBE7EC0B
FBFF21061C18CFEB
DEE122E413FB13F0
CE01E313D0EC1A02
0ECEDA1518EDDC13
1111F22B1E0826FE
D50316FE30F70DF4
2313EB26D2CDE9D8
F4F3F8FBFA07FA08
000E0A06FCF4FD04
F9FD01FAF3FA0807
FB07FAFFFDF607FB
0BF7020607F80CFE
FBFDF5FEFDFC0409
04090EF208F7FC01
FEF4FE0B02F4F904
000CF404FCFCF7F4
F6FEFFF40BF3F504
02F30C07FFF3050A
FFFAFF010B00FA06
02F9F3F60A0B0EFA
FA01F3FEFEF60CFF
060CFDF6F5FB0D03
04F5FF0407FA02FE
1D0B0BE904EC1900
13D01740230E011D
0CDBF0D138CF0808
13CDED00F5E0EF11
19FE2DF217E40A22
0409090CD01020ED
3AF6F52B2DF3E914
C9F70B1C0327D910
F91414EA0AF90D18
F2F5F3FD20F80D0D
F3170F0CF3FC11F4
EEE9F71504F804E7
1D2523F21409FAFC
111B09ECD422DEFF
29E70236F7FFF6F4
E2F6E707020C050E
DD03F317EAE91B08
E6FC11D908D614E8
F22709FAFFFC1CFF
DCE30613FECDEAF7
0E15280B02EDD0FD
1A0FFB08F8350AE5
13D714FAF5FBFED3
EF03F4120D02E7E8
E31CF5FB00FEF619
ECFB09F710E1F5D6
1F25EB08001337F4
F7F20021F6EBCAFE
02ED1C1BCB1CE3FE
F40BD5E4FE38EBEA
0AE8120EE9F2F6E4
FB092EEB35021A02
E319E7200EEEFB04
ED0307FD11DCF8D6
1D0609FF051E26F4
F8F4FC03EBDAF704
20C3F709E612E7FC
112602F1FF2D0CC0
0E04FF1509DCE6E9
12051BF114FA1CEC
ED18FB0802F3F719
ED040FFA0BE0EDFA
F20C12FDF5100EFC
110E0EF2EBDAFFFF
15DAFEFDF819FBFA
06220DF4EC20EDC3
100DF212F4EBEEED
F6FD06080A1115F5
EC15FD1004EC0509
091B00F1F6CAF1F4
000A0206FC121811
F1131CFAE0060F06
10D5EB1EF815E5D8
D80700F7D90AF5EC
E21C08FCED0EFFC9
0513131606FC19E1
F2F4F218FB0EF309
01F8F9EDFDE2EB00
2105010D0B111AFB
100E23E9FA090915
0EFB0034F0FFF6E4
D105E9E7FD10F7FE
E40E1FFDF50DDFCC
0C1E0716FD081CFB
FEF70420100404E9
F2EFE3FA0DFC0A02
2AF0FFFFFBE00F00
EFFF14E7F6F10F07
05E8EA0D0D1E12F1
D1050D15FDF3F2FB
00161208F51FF2EE
FB000B09FFDA0EF8
26E5F9371B210AF9
FD0AFDE90E010702
0AF2F802FDF704F8
EA0A1FE2001A0101
06FFE8170C1819EE
DA0D01000104FEFD
FB17F0090A2009E6
F20CDF0E16E21905
15E707151B0A1BF6
DC120AEE0D090C06
0A0D000F11011CDE
FF0A26D0EB0A16FE
1128120B142B15FF
D417F3FF09101505
061D090FF817EEFE
03040A0905F212FF
11E20A1E0F000BF0
DD0505E80D050F04
050E021FF31229F2
EA0618E4F51CEB02
12130AFF111A1702
FB0DF41301271601
131208001A1115FD
1E09FA061CF90BF6
F5FA071A09FEF5FC
D905FAFA14FCFD07
FD0C090A080F2403
EF1B19EAD92DEC14
F70E0C05020F2FF8
090FF10B020D110C
000E030B1614ED08
1A1A150D0FE5F31C
00FB0D24F1EBFFFF
DB10E9FB0705010D
FE0E07130CFC0D08
E9120BF0F321F108
06FE1700170B1A04
F708FF0C19220B02
10130310080DF10F
121818F207FEF714
FEF7191106030CF4
F303EF0DF0010D0D
0C030F100BEE051A
FB0423F3CE162604
FF011E0508192105
0C0205110E20FD08
121D0A050F1CF6FC
141A17FA06ECFC09
FAF31304010B0000
01FD021AED13FA14
FC011502F0FFF223
FB03FFFAA8091CFC
E9DC16191C07220D
08F90600FB01FC21
19FD1515151206FA
0B0B02E610E2FF09
F7F915090A041703
FD1102FBE4021705
06130408EC04F320
10F9E5FFAB0AF80C
E3D91E1603FA1204
F9F3FF06051BF3FE
110B0F1D040E07F7
091403DC18EAFB02
FA170815FA2E1004
03F61501FB060F02
020B0F01FEF60624
FD03EDF5DFF5F507
F4F2231AFCF605FB
00EA0118F31BF7FA
FE0502090B0710DA
F703F1FDFEE51609
F31D0A2CE52910EC
05FAFF0CF911F315
0E0B0C0BF208F5FD
F70B09EAF31BF70E
09EB092310FA1AE2
FBDB1AF001190212
0DEE000CFB1FFAEB
ED05EAFAFEEA18FE
F41100FEF013EC03
F9FCF5E4EC08EF3C
02F70E0E13F618F9
15120902DF00190D
01022C03F1F51DE6
0DCE0A00F2220909
0B0CFB13001F1DD3
13FEDA09EEFF0206
E61018E501FBFBF3
F20EDAFFED140043
F7010E1210F51C10
2B0FF817E5FB0C0F
F10D18F6F6020D11
26E517E6DE0A0006
101BFB08DD2420E2
F4FCB807080A1BF3
F10023150AE00CDC
0404EFFF0614021A
06F31200F1EEFE04
2E140008E50B2004
FF1E1AF8F6F40BF8
1BDB1100EADFFD07
FE042901F41105F7
0408DF1814001619
021600FD1AF8EDFD
0025F0081728E10D
FFEE170A0BE812F8
420E09FDEA1C1DF6
011500D6F1E9E20B
1409FCFE0BD9DAFA
03EC2B03F01BCF0F
1FFDEB1B13F41B13
12F4F70BEB01120C
F60B18231B26DB27
15053C2107FC18E5
00180725F4210B0B
1103DDF51209F7FD
0308F70723FBFE19
191D20FA040DFAFB
1BE7F01B1FC50C1F
F6D1EDFCDBECEA2C
12F53307F311E01E
F4F725030608190A
EA10F22E0703F1EE
08E5DB0822DE0F19
DBF1050E2716E120
1A1B2308CE1221E8
13E8D21B0CBCF4FB
F2E7FB04FB0E0605
0A012F18FA24C904
13E4381F06FBF6F1
CF1BE202E9FC04FD
0FF00106F400EE11
E50B001905F71919
C9001EE0F7F6E9E3
20ECFC2CE3E5EDE4
0BF508FFFDF2FFF6
030307050BFD0AF9
FBFB03F4F70108FC
F80DFB0204FDF40E
0B000303F80BF3F6
00030303F706FEFF
F50AFD0D02F8F6F7
FCFFFAFDF80005F8
E9F71FF105F3001C
E5E2EE2100E41810
06291E05FF071315
EA060907F30F04F6
000F1F091E1F110C
FA080EEEE82302E5
F71521170AE6F903
E1E8F30209F7FF0D
EB1D12F717E32706
16F4F6F7F3F2E1F1
EE1C100BE31F080B
FF1913130516F5F6
FA04E9150324DE10
060AEDEFD6FAEDFD
F0FB06F302F11202
0A00EEF8EC112808
E00626E8FEDF2219
0AE5FAE60DDD04ED
DC140609FF05230B
E8F503280EFDE7FD
09FB19F51511D5FA
1D0810F5D72AFEDE
09F9EA0309042700
F40AE6FC0B1910D6
DD07F30D02F72114
F4EB1CCC0AE7F2F0
ED1F0AF804F01D02
E7F8FB26ECF3F30C
05012E1C00F9E7E9
270BED0E0C180FE4
08E400FDF80807E0
F416EF16081CF9E5
EA25F5EE200E040D
FCF4FEFE1BC7D9F5
03F9170807FB0C1B
0EF61C14F9F0E30B
00FA111FE330F215
0AF6FEDC0507F6CF
F5E11E08FFF50FC4
F4182800FBDA2303
E52B05F310F3F900
F3F8F5E70AC4DDF4
1AFA20060CF515E6
11FF0DFCF9E1F3F5
29C5FD06E63BE6E3
0E1C09F5F813F1C4
0105000DFDF909DE
E8060CF9FAD71DF9
040BF50307030BFE
0BE905FE05EDECF7
14FC0FF4FC08FEDF
FB1310F2E8DDFAE9
0EC6FD03F12CECFD
E600F6E7E02505C3
02080DF6E40218E4
F614FD19FEEC16EC
010B0606160F040D
EB04F40800D5F6E7
23F20808EBFC13EF
00101A07EBFE0CFA
03E0F9120C31F7EB
D4F0E1FDF51804FC
03080E03DD2317E8
0004EC1403EC1AEF
ED12FBFA16090700
F505E7061EDE0605
05FF0503F30906E1
FF091BFEFA000AFC
FCE9FE011B28FDEF
E307F1F7D914F907
041B1313F0110101
020BF1F6FBF803F9
FAEB0B1112F817FC
F413F0F414EC06E4
0E08F917FA0E26E5
F9F713120E06FFEF
EFF5E60D02110DE8
E8FBE906FA12FFF2
FD29F9FE04160710
F103E6EAF3F61E05
1B01FF090A1508FA
F012FDE710F6F3E7
0706F905F21B0DEF
F2F61FEAEFF6F7DD
0528DC11FF1C0001
E00CF200000BFE0D
15FCFFFA11FA0702
F707F90402030C09
10EB000C19010C0C
F20A08D90A0D09EF
170C0304EC230BFC
DCFA2802E4080BF8
0510EFF21A1C0603
EBF5F2FCFE0D1B01
2F240CFB0A01030C
FD0DF319F5F4FC0D
FFED07160DFC1308
EF1603EBE2FF14E8
06080625DE2B15E9
F0FB1FFBEC1ADA0C
030EEBFD2D2B0C06
080AF3110B101209
3925040B1106041A
FAFD02FD0600FDFB
0FF5F827130402F3
F0320CFFE7FE0AEF
19111C10F82407EF
E0F51F05E917D703
070E09EE070E1F05
FDFC0415F212151E
3625FA19140D0812
FC0E05F7010BF206
FFF2F61A03010C0E
FB12FDF9F81304EC
180719140819FCF7
FA0733E8DA2BD9FF
08D0FAF9100F1B0C
FF0D150C100F0E26
261D141E0DFB0613
FB01FEEC0404F40B
13E9F50806FB1CF0
F2FDFA13F50506E5
110907140C10EDFE
040219F4EB2909F8
02B609020F191407
EC11FE13150D1928
1A2A0E200801FF12
FF0AEED0FE16020D
1BE1061017FB06FD
FE101415EE120CFC
0B00F71BEE0DF916
04F90B03E52805FE
EFB8090B0F1203FD
EC1B03051A120018
F32A0E08F81900FE
080B00E2FD041908
FCF31B14FD08F7FC
FC020A07EA161906
08E8E214E71DF70B
19FE01F4E80BFDF2
E1CB000A0E061BEC
09FB0C061A06DC0E
F2190E12FA1807FF
0400F4DD030E0715
03150F08FA10F9FF
0D0303FEE604F708
0207F307F4060900
1104FDF0E70FF4E4
C7FE0AFCFFFA0BE1
F4EEF214FE06EC05
EC1B0A15F915E2EB
011EE7EC06022E02
EF1706181207F7F4
1A090915EC0A1211
FF16FA0FF108160E
100A06EBEAEEF6F1
DDEE1611FDE709E7
0BDDF811020DDE0A
F3FF0F1AE20CFAE0
0419D8F7FEF40A13
F6141300160B0CF9
10EC0211D0FB0429
F902F516F308011A
FA0A0406E609F3F9
FEF60304FDFDF8FD
0AD2FDFEEF07F0F0
F80B0814050621EB
FB0ACAF20AF900FD
DB0103FDFDFCF5E1
08DFF2EADA09F025
04F6FC1C0CFE170E
F5FFFBE9F1F92302
FFFEF1F710F4FA0D
04C0FF08F6E3D608
ED000E13EC0412EB
F104D10F040413FD
EB0B00051005DFF4
0BF8F2EBF210EF35
F305FC1109081C0A
2A0AFBE6F1021EF0
070BF2F804E8FCF4
EDF011F7FEEED8F3
FCF70F0DE815EBF9
FDF90225060F1408
0003FE100BF8060F
1D28DFE7FB1EE219
1E1A1910F1F8F605
2D1FFFF8F9F00601
0622F0E8FDEE030B
F6E502FDFFFDDBFC
FE092D09F50E0407
09E905200E0C0B08
11F6ECFBF2FE0E2B
05EA000AF648C732
19342A150B0905E7
3606FDF51AF2FF0B
1C12FAF011F009F6
FCF3EFF33501FB21
0D193C161730F418
0BCEE81F12D71034
3102F508151709FF
01070608E714E724
0907171EFBFC0912
21241708021AED1E
1115DD03DA0602E9
C7E015F1FCD8E91A
030B20DEDF10EFF3
08E0050D03F21B33
FC01F80000FF2506
FE03250CE81BE70A
07EB02051104E7FC
16FFFF0B110AEB0C
0CF1F1F1FD13030D
EAEA0303F106F70D
F30913EAE416FDF8
03EC002316F805FC
F40BFCF4FF08F709
0800FAF00801EDF7
0EFDF0F9F4040A09
07F7F6FBF108F505
FBF6FD01FCF409F2
070708F60AFA0C01
F5070C0108F5F7FD
0FFC0CF8F8FA0BF3
CD1F3CF5FEE7F536
E5CF1C32FAC30011
0F3F1C151011322B
EA0A0F2CFF1DE7F5
F0F2FC16172D09DB
073A18D9CCEAE4D4
E91B280002D6F5EB
DBFA070717030923
EE141B0204D50C13
1E04F4FDE1E0DBF4
E01E1813F319090E
EC081316023BEF03
E815E80DFC11E0ED
1E13F0FEF0FDE702
F20BFEF906F032F4
1805FEF8FE0B2915
F0071CCE1FD92B06
1EDF21EE05DCFEE5
E20207FCF80B07FB
F3F61835FA2203F2
FF0F18D90107E2FF
14F10812F308D2D1
00EEE3F9EFF740F6
EF1C0818E31B21FD
F3111AE0FB041112
EDECFEF22ACEF60D
CCF315E401FE2900
0EF8F218EDF8FCFE
2AEE1C0D0B02EBE2
150AFE13F00CDCC5
04F6E4F8FDFF0CF3
D9FEFB21ECE411F2
DA1EFDE104070E03
FACFF8EA22C5FA10
04D535E8FDED0A14
1603F200EB01FE11
0DEE000EFE1414F7
FC0302F2F8E6DFC8
EAF6310FE70D0BD6
F0F81011F4EC1F11
070E13ED0FFB1114
0300FBE207D4F9D9
0BF20EF7FEF6FAF2
0912111900F7F1E9
19BFECFEDE26F6CF
EE0113F2EBF6F9C4
EC1913F900020DF1
EB0622F409EC2007
F60D070201E5FE07
170E07000BCBF2E8
0B0203F0000104FE
F4FB1A08E3EB11E7
0ACFF500F014F8F5
F3FDEEEBDF06F1E0
011A1802EE0311FC
0406041AF6E1F7FB
F806F9210DFE050D
080AFE000CCFF50B
F9070CEBEDFE0F06
00041C0DEE1302F5
EADF01F4022306F8
D7ECF10FDB1B0AFA
0F1802FDE614FDFF
03FEE305F6E9F8FA
00100A060BF41114
FAF3FB0311E5ED04
0B06FA05FB0D0805
F6FC3903EC151BDD
00EEF1090E26F2E7
E105E4F0FAFF00E9
0A0D19010D1AF7FF
E70304FFE801FBF5
01010DFB0C13F818
081009EE05FAEB00
1009FB0CFC1BF7FC
F4FA3A07EC0BF9F2
010BE20614FA0AE1
ECFDEDFA0303010A
141402E814F9F2F7
02010C08FCF61AF8
16020F1510FA10FB
F513F0E300F8FA00
26070708F00FF2FF
DCEF180FE504F8FC
EB20E70A08120600
E108F7F401FE09F8
342C03F7FEF801FD
FF050312F7FBEF09
14F0120D1BEF0906
FC07FEFD08FD0AEC
1E0CFD0DDE24EFF2
F5FC0A10E7090FF3
0319F0F719F9EDEB
0CFA05030AFD0D03
371503060D03060C
FE08EB000F06F006
0C00091410FC0602
040702EF010C0CEC
1F12031AF52B08E0
F5FAED09FD0DE603
2913F3F42110FDF8
1A02F80803131B0B
2C260518FDE81126
F2FFE706FF0602F3
10F4F4190DFB1E0B
092AF2FDF8FF16F8
22130A0D0516F8F8
03F4FDF3041ADE0F
0D0E0AFD1E03FA04
FCFE0D07EF1C0D11
0D101610FAF10E25
DAEDEAEF0CFEEB0E
1CE3F91DFFF50CFB
1516FC0109040D00
0F02110B092509FD
F60F05F2F414FDFC
0CD50E0008061512
F200F8EF0F0D1316
FB1EF5150CEB091D
F810EED2F900EEFA
13E21613F40F0306
0819FAFE031815EE
0A0EFC1BFD250C14
FD0A02F2001820FF
13BFF5FFFB081004
F11005F6030BF519
ED28172117020A1F
F9FEDDE6171AF714
03ED12FF0E0503F5
1A090A0E0107F8F4
FDFCEB2B0B190309
03111BF40F0D24F6
EBD60BF9030612FA
F819FAF006FDF3FE
D71A1C0B09051612
0A09D9F70B11061A
08022905FBFAFA00
2206190F0813FD01
0907F813FD18F40C
111022FF031010F8
E6F6031604061DEF
0D12F912FF01F7FB
DC28171A08190EF9
0019E70104FA1303
0A13160BF6F8E9FB
27001B24E4F8EE0B
0007DF15EE0CFC02
05FF17F5FC0DFDE7
D6F8050E050802E5
05EAFE201CFCCCEF
D315F420ED16F9EC
0A17C9F4FAFB3118
0810111614FCF1EB
1B010118D40602FD
0DF5EF14FF0908FE
0810F3F40200FA02
D5E710010102FDE8
F0F3F702FDF4DFE4
EB180C16EF1AF5E8
0D1BD102070E1B0F
FD1615070B160B0B
1C021608DA000F10
02EEFA0D00001FFB
01F9FEFF04030A0D
F2FB09EEF7FD0E01
E2BCFC08FAE9E308
EE19FA15F51909E0
03F2DD140B081908
FB100F0A140700FA
1DF5FDE3E208011B
F30BF50214FD09FC
FA06F5E90F061C09
F106E60CFAF512F6
04B0ECF5FADCCA05
F806E606FDFE01DC
09FADFFBFBF93512
EBFDEE230A22EC00
220A0D120918E512
F91FEE0E091814FF
281408E1FBF30302
DB15E013F6E30815
13D4E60304CDD1F6
D5FAEDFBFBFC06EB
121AE8FD00F91B11
E70EFC091CFD1117
2AF7E2151E1CC01A
142F14F7ED00F3FB
29091BE1FA0CF11D
FA08DFFA0D0F0712
F9D9E9F62D04DEFD
D6ED20F519FDFCF6
0416FF0B0900120F
0503CEFB0DF81236
11E1EAF31A34DC17
13370FF8E804F5FB
2D121BE20211FA25
0508ECF4230203FC
05D9DBE42B0BE126
06FB1CE2F719CEF7
09D8020517C30425
28FEE7010A131005
0DE5F401ED22FF24
0D14281408FC091B
282B2101030ADB16
2813EC18040DF6F8
BFD204E2FEE5EE13
E4FC1CE6FD06DA11
05E31429FFFA0D27
EEEF0204F0FD1AFE
F2FF28010510EF17
04EAF9090CFDEDEB
2903F51F0917ED06
0ECDFBEEF60DFD15
F0F6080112E4FA02
FF020FECFC1110F6
0502E92222EC01FE
D01EDFF9CF1DD4FF
25E9DA0C350FE2E8
1C39EFFF272A0214
1F02FF04D7FC1EEF
FB46FA2506C90C16
33D8F7CD170207EE
EAF21F142511E1F3
FF300D0B0201EE26
F5FF2CF300F90616
F4FB13FDEAE6EF02
031302051105211C
DD0F031501120807
FEFEE708F20DECF2
150804FFDFFAF6EA
FC1BFA0113090AFE
010B30FD060E0F11
E02A15ED05EDFE05
23FDF805E5ECEBEB
E319171FFF11FF1E
FC06F90AE93402ED
CF15ED1BF815E512
27FFE8EE1FF7EAF2
D0F2EE0D1AED24FF
0E1002F4FD051316
E80A09CC0DF00408
00FD0A04FCE9ECF5
E50A06FEF2101E0E
08FF0A26F8222C00
12061D04172C110F
3CF2F409F8FBE2E1
FBEDCEF714FC2503
0013021EE50E27FD
EA1603EB05F60903
F8E4F6FC2BEE0E10
DBEE07E404032B16
0DEAF314E7FA1211
1EED22190322F0F6
0E24E43AFCECF0E3
FDEE0303EE132B03
E0E80C14F7F51FEA
E82806F62D08020A
12FE02F614E4EB0B
F5F905EB12FBEF15
0D09F812EBFAFC15
15E0091DF120F6D8
020AF202E7D900D5
F3FF1200D41020FE
07F816FE08F62810
101007FE0C060A04
FFFD0D0805F6FAF4
EFF812FCFF030001
F2091422F9F60AEB
0FCFF70AF625F8EC
F011F412F8F30EED
101A08F7FD230C0F
0BF309FB05F3071D
EB06FE0E0003FA07
0B100D0504DAE9FD
EDF81AF6100C1701
03133014E00909E0
F6EBF2060E2616FA
F8060DF5D801FEED
0006FF030BFCFFF8
2013F7110709F3F6
FDF81213080B110A
0F071817EEE6F102
F906F3F9F703F4F8
FE051C22EF2307D8
EED4FC140611FAFF
E4F9020A02F414F9
22230AF2030E0016
080D0807FA18FDE5
FF0AFE0E0707FEF8
01E20E02E4E6F908
0508EF0C0605FF03
E5FF290AED1B16E8
02E7FD140D02F6FE
DE00EAF0F4F10D00
0C1306081007FB00
F10F0E0F0B08F9EC
FC0907070CFCF501
F3110900E5F2FE16
0D0F0D040CF7F9F2
FBFC2512F20DFEF6
0DF6FD0AFFF4F7F6
DE08EF0007090201
290C07F408050F0D
F0EF1A0CF5FE0CE8
F71002F818F7FE13
EE0BFFFDE708F00C
1D05FFF80C18FBFF
DEF12226FCFBF3F3
0A1EF10600F1EEFC
E5F1F6E815F60A07
2D180AFF06FF06F6
0F0600FD0CE00AE8
F80AF807F0EAFE03
0E0CF8E80104EF0C
180C07F8ED16FB02
D203060312FBF0F5
0F13FC020AF6FC00
11FBFEF20FFA0A00
251C0C1712FD020A
FD0AFC110EF015F0
0004FDF206F70909
160F06F4180B01F1
162118F7FF190D04
E000F90B03F8E003
2117EEF71EFDE9F9
12FDF5030C0E0BF4
0514F50E0CFC0305
01FBEBF310E10AFB
F6F5F50207ECFC10
0713F4DD13011BF5
2A240715101903F7
F2110A090EF9EA04
010BF2FC0313FBFF
0BF10019F51B1A05
E632F91F03F10D16
F516E7F501F1E00C
08EDFDF60A1901F7
1F2E06DF12060FFB
0524F61B0713FD0D
F2111EFC0C120209
0BDC01000A0D00FA
FD19EC0404F8F4EB
E118F40505FE0E16
131AEAE00902F209
0BE22D06FEFD01F0
2815F8F7000B0D0D
050D0423142A0019
FF1016FD2B1E25E7
FECAF9090D071311
072F01EF0716EB07
DE26F90513011F09
FD06C2FA0600E9FE
F9FE20F20407FAF6
20F5F71DFB0D0311
F718EE090610F410
0D012DF91B0B1BE8
F6E20DFC09132101
0622FCFC0117E7F3
DA1BFBFE030F2901
0A0DDCEE08121A0A
0E082105090BEF09
18FE0F20F402F5F3
1C16FD1DF52914FF
0C1516FB131AF5F6
E3090909001611F6
F013EEEEFB07F1FA
F614F40509051406
1206DD02F50D22F5
11F722110BF8F70E
14F2052AD2E7FCFC
0203F108E7040EEB
090C0AF91E0DE707
E80D0BFFFC0B11E1
F8ED02FF070A00F8
DD0FD10EFA0307F0
0001D7070C0624E5
FD04130D10F307E7
2CFD110DCDEAFBFB
0812F2FFF308FEF9
010C0CF51715FE00
DB00E20D0B091EE7
FCD50508F801EEF0
CD1EF4FF05F60F01
03FBE20A03F51511
031BF9FD1601F60D
24F9FFFAD80813FA
071800FB08080C07
08081002041504ED
ED06FD000A0BFDF2
DA98EE040202F310
E90BCC0815FC01F0
03FEE9FBFF010906
FE0802100A04090A
0B12080FD7FBFE08
EB13F1061B101603
FC14FE0B0DFC0CEB
F3FA00F8050410FE
FDE2E401F6E5D7E1
0C1CB7190AF92007
01FCF60506F8250E
F3F4FB191BFDFEFD
26020BECEFEFEA03
F734E3F5EE0E12EF
0204180F1D19F80C
EA02DD0701F915F9
05E9F6FEF5E6DBF8
F60CB20105F229F7
F220F0F80FFB05F9
07DEB723092F010B
27F808E4190AD519
0D4BF4FFE70DECF0
111D1CED062AD309
F723D6001EEF06F3
08BEEEE324F3EF08
DDD6BD0AFBEEFBEB
DA0F05EE16F60AF6
10FAA7112826012A
FA00F4F81322E31D
03341EEFEEFCEF21
2F3221E6F610F92D
1215D9F41C09FBE6
D9C7EBEC1F03E043
F8E4C8EE00F4CFD1
1AE326E715E203DE
24EAE511FC21E022
0ED01E0C3409F73E
FC2F2200070724FD
1D31200FEF1BE40B
22FAEFFC14E527E6
D0DBE8F312EF0109
FCF60530011CF707
D6EE09F6F8DC100B
10D3E6FBD304FB23
F6FB1EF81022FF23
10392006F7F921EF
021C0D0C1B1AF0DF
16EBFBE122DA31D6
F3E9EAEB0B1B0609
0D14FE2BD31419E8
C9E3EAFD21F100F5
00130EF410000809
0217240D03F1E9E7
0C130F11FF0B0B23
E40E1914F7FFF6F2
060E02140207F3ED
0B11FFF2EAEE07EE
F40DF50500FE1D07
0E0F05F8F004FAFC
F40613EBF7F30D0D
020801EAF8FFD2F3
0507FFFA0BF80623
F210FA080505F205
F613F8FC02020A04
0606FBF2E9EBF1F7
F90500FBF4F50F01
01FE000DFC190CF3
C81E2EEE0AF2151B
0FF9FA0DCAF6FDF0
F90B031C161519FF
020F1F0CE0131ADE
F0F10734061A120F
19220BDB13E3E8D1
FA0A061217FC0A05
E4FFFA21E4F618D7
EFF703DB15F60811
F60F140511E9F3F8
EBF40B0106F01F07
FE0F1419071713F7
22C6002904271817
3912FAF7EAE3FBF0
0B00EC1009FC2DF9
0CEDE712040D1BED
EE36EA0B02010813
FAF826E62BDFEBFF
E7F41E0101153234
0102E024F91701F4
11E6FB35033106E2
1E20D01DF5FA10CC
F6040D02F9F22015
E30405EB04F20C19
F719F8F7140D07FF
05F206F631D303FC
ECEAFEDEFFF2031E
F5E4FC3EED0E08F0
29E1F322FD32DBF4
FA0FEF230103E5DB
FE06FBF0F61C230C
1901EF00EFF30507
0AF203FE0C100819
06231A00F4FBE5F9
FDFC09F614002101
0314181DF219F4E1
0017E2FC093709FC
EC13FB07F0F00AE4
14EFF2FB000D0D09
04FD0BF7050A0A35
EE09F905FC160812
FD250AFEEECB0109
F2F1F6EF010E11FF
FFFE1921EA1706E5
F9F3EC051127F800
E810FFF9E002FFFE
12FB0414070F0C1A
F506E9F4FA0F090A
FDF1F209F30BF509
F002F904E5E4E609
F8F6FD08FC110EF9
0204202A01060ED1
FDD5FB140E14FFF4
DAF9F2F200FB0F0D
08F30B14FFF7FD15
EB02FF05FE1AFF02
020DE809F707FA15
EE1305FDDB06FE19
080BF1070D0D0C01
EE0A18190E061DF3
15E9F00D0806F6E8
DBEDE3E7EFF80603
180EFB03020D0AFD
080301FFFE08F9F8
00FEECEE050AF1FF
E8230710EE1E040A
1DFEF71402090B08
F7F30D290F000EF0
13EBF51512040EFD
F2F00004040009F7
1707081009071414
1A040C17F1010BF5
1715EAF90A04F609
F923FFFFEB19FB1D
2801F000F4150AF5
E3F1FF320C02F0E0
0215F6090FFBF6E6
F9E207FE1DE70605
08F506FF170508FE
2105010303FB1CEC
1318F30EFFDBEF06
0402FBFD0F0DFAF4
2B03F5FAEA161800
E1F8FF241BF6E4ED
131101F50AFFF0FA
FEEEF7F90EFE090D
0DF5EE0506EE29FC
160002FF01F907E9
0A0AD514F5EDF20A
11040EF12110010D
2D1905F6F91805FE
EA09F7261905DD0D
2320EEE40B0BF0FC
FA07FD0F1316F8F5
F503E0F5FFE92612
1A1404FEF6070402
FB0DD2F900F20222
0F1005D72F050F15
123BFC000F120702
EA0B282A18F6E7FC
1619F9EA1503EA01
01180428FD1001E4
E80CEF090EF80B11
2C190FF6070DDE0C
F4FBFF0B0AF30F0E
041113E017F92313
F70F04120B060519
FF1A1F021E0311FD
14D80703FC12F710
053B1D05EA04FAD3
E60BE2FB0E11091F
151DF4E71206F9F6
FF0427FD05F50B04
0E040A1009F91514
EE10F7071D24F800
18100D031D1420E2
05D906F6FE110A11
F43A1DFFF20CF1EA
0506CA130A0F07FB
FE10E40AFD2101EF
F10E39FB0BFDEC0B
05110832FDE9FF09
DD2BFE1AF1100814
15112500220E1CE5
000B0603F914050D
EB39FE07FE0FF707
08F7D509EE1E1DF9
FD0EDF11F0011DDA
010C2F03F7030BF4
0117042CF2EAF4F7
F60F0710010804F8
0F0C0B0211000201
F316FC02E7FCFD07
FFFDFEF802F80DEA
0310BE0302162AF4
FD09FB10F80D4BCF
1403130C08E701F8
02F7F21DD1E7FBE5
E80AF9FFEE0A1CFB
ED1B1705FD1DF90A
EB0C06F5FCFD12DD
FAD8F50209130305
DA07C321120817FF
1C01F105F00127CC
FF090B1C04EF0C02
FF06FC16DEEEF8F1
ED1EFF07EC1C01F5
040816FAFD290A0A
D811E3F80D1706ED
ECB7050B1CF6FC08
E606CB0308FBF8F8
21FCFF02E5F322F2
0B1A0518150EF50B
0E0D0600EFED02FD
002409EC0E130C06
0B1118FF0806030C
DB11EFF920030CF8
FB9807000601F004
E409C40A15030C02
FF09FE0FF6F001FA
0CFB0D1D0DFA0808
07F3020AEAEC0FEA
0122FBF800111AF5
0713140B1B08F6EC
E70BE7F52CFE05EC
F8CEE2F6EFECFAF8
F110B10F0FF8121E
EA050AFF1308FDF5
F2F3FF301003E8F5
05ED08F205EE12FB
EB18FEFE020F05ED
F4F915F61112F503
F00CCB0A2DFE21F0
17E2EEF30EF3D3F6
F20AB30D020E3301
DB0516020DEA12D2
06D2B5390E21E8F4
34FB03D60C04DF11
1A3AF21AF41FEE09
2F021BE1FB24EA04
D62DA9051FEC1DE5
15C10DD6260AE517
EBEAA31CFA1E17E2
F40B07ED000C17EF
08E0C824FEF7FD0A
27F0F0EA0209E938
112A040DE4340C1A
160A1AF6F31A010F
EE16C2F710E528D8
EDD414E31F17FA17
F004C82F0A201EE1
0BED31F300DA01E6
06E2D80CEA1ED107
03F621071FF8EA30
11070BDEFE002AF6
01031205F732F0F9
1307E4CC04CD1716
E2FBE60111EEF61D
0AF40710FA20EEF5
E1E7EEF6E0CB1EEB
F906F90D0EED15D5
E223EF23F3CE25E1
1AEFEA10FD0E16F8
D9F9EB1021D4E426
0CD80603DF0CDD2C
0619FD19E3E503E8
E3F81FF00C1F091F
FF100CED0C22F206
E61B00E506051619
0E120B0CF4EEEDE8
0406FF080B0F121B
DF0F200DE8000AF9
FAF40607030E02EE
2512EEFDE1E408FF
0005F7050EF51BF7
1E1A00F9F7FAF609
0609FCF40E030EFC
0EF011EDEFF8E4FE
F7FDF6FE0A071139
EDFBFB0406FBF9F2
0512F8FF08081100
FF0604F7F5F7F0F8
FB13F207FEFF03F8
1B030C04F80D0607
DA0B34F91ED20907
0D121EEACDDFF7DB
1C13E51423242018
EF0F1D151C3006E1
F8BADE34D8F11EEE
39F9F9FCDDDF01D3
F11315FD25F418F4
E31E0901001C15F4
FB121F2028D901FE
EA0EEF1F23EF02E7
F90AF000FCFE1DF1
131E020924220553
00DEF91BFF30FF11
330706E8E60313E2
0008E11714F51A0B
FDF1EEF703FA1C14
F50FF812FFF3E511
0DF026FE39F1FD0E
F5F903F210092E19
0D1CD81B161CF3D9
E4E50BFCFD2425E4
2412F410F0FC0AE4
F5120113F60F1111
EDE6F5FAF9DD121D
FE00EDF60BFBFEFC
020815FA1AE9050C
F5EDF7DA02E81814
FEE6023AFA0F0EE9
FCECEE01F63AE7E7
11EF0225F115F2E5
180FF2E3021E3B1F
1E02E404EDEF0E11
F3DCEE0BFF0F12F8
092B0F04E7CDFDF3
FB1106F2110F13F0
07F21233FB1702E4
0FF2D6F3112EF8E7
EFF6FA1BFA00FDF9
19EC050EF708100E
FDFCF303F2100606
FBFDDC0F041CE90F
0A2B0807D4DBEA06
EBFBF4EF100013F7
0905281CE923FEE8
0CF9E70B0738FC0D
FFE1F3F3FFFEF404
07EC0A0602FE0225
0611070904FA1507
F4FEF20CF80DEA11
F52DF513E5F6F4FB
07F20BF70E0212F1
06090C25031013E4
EEE2E017130EFAFD
E8D7EEF0D7F31310
0FFBF9FBFA0AFC21
0BFB0A0A060EEFE5
FCF5D017F41CE90D
E7320803EF12EB0E
0AE2E9100D070005
F90218270E1012E2
05D8F4260005EFE5
ECD4E8EAF1E71301
F7F2FCF7060D01FA
26FFFE0AF6F916DD
0E06E2FAEA1FF40D
050E09F10925030B
0AE6FFFD061A0DFA
EB00102C150104E9
FFF6FE2E18FE03F2
F9ECF7F318EB0DEF
FBF4FC000D141A00
1C0BFF1C04031FF6
1605EA0BF414F2FE
050F0EED0D2300FC
1ADDF101050F070C
0602F23B09FE0DF7
FA09FD0619EA05FF
09FBF3EE18EFF5F3
EEE8EEF0FEF62010
3411070708EA22FD
1B02E21F00F9D9FD
00130B030A100E1C
13E3F1FEF6041413
FC06ED3113F7FC04
F21A0BEEFDFB01E9
16F606E61BF40616
E9E0DAF702001AFB
3616170307F018FB
EB0CBD25EBD5F508
10F402D53215F40F
1BF50B02F9080827
0110F65720F9D313
FC1D03D909E5EF00
1810060112FC0BF9
F3E0EBFE0F18180C
181703F308F60907
DEF8C61FF0EDEF1B
00F823C31B0F081B
F70C17FC0CFAFD0E
171114341000CF04
16F610E900FB0116
1D21F4101F2201EB
0CF4E9070F282532
2C16FFEFF9FE0304
FEEEFB2000EDF8FE
060EF8E80BF7231C
DCFF0B0C2C0EEA09
100E1710240111EE
19F1FA18E4000218
12341D0CF913FAEE
0AEEEAF3EE1E210B
0A1803E9EA2E0205
EE072A1507EA110A
F719F01FE5E60B01
D30F04FD151CE709
0F12FA1B1E0026E5
1BE4FF09DFF91A21
09472DF4F809FEE6
07EFE6F8E428290E
FF0D0307F61210F6
F7193A0202F7F3F4
FB11D83EF8FE0719
EA05FF10F305F90D
FF010007111605F7
180A1418F104F80B
F4201008F8F4F7F8
17F8E60DFD1725F6
FD210421F21A2CDC
F813270BFCEDFF0B
FC150018DFF3FC01
EC000607F7F7F703
08081302081CFCF4
1F101205F8F60CF6
04DCF50B0E0B0007
FFF2E30208003CF2
EE00F90EF4FF43D7
FBFE0FFD05F51EFC
DFFD0716E1EA0FEC
D2010111FE0808FE
0E0A05FC102E120A
0D0E05F40CF915FA
F7D40F0109FAFB08
01FBD10B0DEDFBF5
13E9FD11EA091ED7
0A0810FE10F2FE04
D31C061EDBE008F3
D510F70B04100E00
06FC1C030C350AFD
DB0CE3ED10F30508
09BC0A041AF305F7
FA09D3100AF9FE06
0AFA15EDE30112C0
08F415020D0CF10F
FFFD0107E8EB0FFF
E6F4EBF5FF1BF505
02F81B060A18E207
DE15DE0F26F1010D
0DBEFDFD00EDFFF0
E215DA2400F80C05
FE030C02ED0614B7
02EB1012001FD50B
E802080CEAEA0DF9
E310EE01FC16F5F8
16FB140AFF1DFEEE
DF1CCE14371307FA
2CD8DCF90EF3F3F7
F301C31312FC0917
080E0A0FFBF8F9BE
EBC6E422E11AE7F4
F7FC06D204FA1FFD
D6EC0AF5EA0601E8
0CF525020220F7E7
D10FDF06320E18D3
15F0F9EB150DEE12
DCF3E61723211C08
F50BFEFFEAFFF5A6
EEEFBC330C1BEDF3
09FA18A60618DD0C
0E0BFC0EE10CED07
0A0511FF1F3117F7
CB15C21C12FD1ACC
19D9FEF11E07FD08
ECF4DA00072516F0
FAFC1D18F415CECA
03F0D826FAF115F2
08F400E80EF30620
EA0AF31BC80D0B06
16FE03FD0931FD09
050CE70DF3D80AF2
F5000EC6EEEAFB11
01FCEB06DD2D120A
E0D309E5F811FFF7
18E7E70EEC0EEB0A
0BE91DEC1DF90E1E
230DED03F7EB2CE6
1D08131A112BE1F4
15310CE6EED209F6
E81AEFECFCDBFB14
2D05DC0DEF1CEC1B
EFEFE3D810EA1E0A
0BFE0507130004FC
D5EA0B200CE920F9
26D6E00407F21EFC
F802EB181001F407
13FE11DF05E40306
0A1EE11DFDFDE3DE
1701F5FC0D06EF16
FE0AE4E20302E421
F50E09EB0DFD0606
00061AF3F4FAE3FC
10F9060BF9FB020A
F3081012010401F6
0308F118EF040208
0208EFF6FDFEF0FF
F105F703090401EE
141A0C0501100A07
ED0D0CCD09EF0E12
0C02250801F4E2F2
0B0EF8110F081426
F8170805EF1AF905
0E0FE50BF2F607F9
010502EFE9FBE2F1
ECFE14080EF3FFEF
1E150DEEFC1007F1
DD1B2AE31BE30F1C
140327F9D9D9E4F3
F919F11613221F3C
E60A091100280B05
EAF1EE32E0FFE0EB
3322F7F0D6E302D7
F60427EE02ED1510
03212208FF010FED
08130CF40FEEFF1B
161721020BF7FE07
DC0A0B1DF31A17FA
2F2411101D11E71C
0BF7F108F91B04F8
2C1607FCE10A16FE
FAE9FC1104E405EC
1BFAF2F6ED062CF6
FBF9E8110C00D32D
121B2F07FCDC1615
0CEEFFF8F5123922
1221F52815FBFEDB
F5DDF9EC142317B3
2EFAE7FAEF0E0907
20EE0D1EEAF8F814
00ED07FCFA021424
F8F9DEFBF91CE80B
150B3315CCE70B17
F0E915D8F7031A03
FB010310FB050CFC
FED5ED051B18E5F2
0BF9ED280205FFFF
17E5FB0400140A1C
27F5F2F9FBE8F50C
0AE8D105FF16F601
1327180BDCC9F8EB
FAE0EDFB0EFA17FD
02F6130FEF121008
1CDEF206064306F6
FCECFF090100010E
0AEDF50E03140E10
FB01E8F5FEEC10F8
F900E009F81CE0F1
192508EFCEEDF4ED
EA0FFC0A0BF4F8FA
0B0C2B00DD1CEFFE
FCF0EF181A2705FD
0FF5F90602F00E13
EFEEF1F226091611
1A000A0A00F108EA
F4EFE8FE0C23EBFD
E60D120AFA0EEFFE
0000FDFB0F020DF5
00FA300CF41304EE
03F2FE25072DE3E4
FBEAF00BEDEA121A
0BF6F1F51C02090D
280404FA1012FCE2
FF0FF6F8F126F50E
E417FEF91A1CF219
FEDBFBFB110A1722
12FA210DFEF308FC
E6F103380903F3EE
F1EBF4F3F7E41F0F
FDEEF7EBFA0108F2
451001FBFBF411F6
0511EDFFFA210AF6
0233FE081E1BFA05
FDCF0208FE070124
0F10032202FD03EC
FAFAF82F03F00002
FFFFEBDB0FE703F0
E7E9F7F3F50319F5
2C22FD04FC0732F6
F710F41FFA15FEFA
FF0E12F1111AF6FD
0BBF120AF102F517
1114F73715090AF1
F61301E802FCFAF5
2110FCE808D1F7FF
E0EEE5DFF7012602
20130001DFF228ED
FC10DF2FF204ED02
1B0D0DEA211B010D
FBC7120DF206051D
2E2BDF1F120DFA12
F11606C30500FDEF
2D10F3E516E80909
F6CFDEF0F70E22F5
06050E11F0FF27FE
EC05EB35E9D5E80D
08F209E22609F902
FAF4FD080300091C
1D1FF5201116CA10
FF0A15DB03FE0F11
2A22F3FB0F200E03
2DDC020C002B1C14
08FD03FE12FA1E20
EFF5D50EE4F0FD1C
F9E211E40A191014
E5F218023B040210
381414020914DFF0
16FD22E9ECF62405
113EFDFF1D26FFF8
28D60E080D200627
051BFEDFF4091114
12FBF42003000513
F319F505E8030D19
E5FE12072C15E30E
1E27100A1C1010E9
1FE3070CDDFE1008
F3250C11F3110DF5
0BE70B0FF414F718
FF1800F0032C1305
02091119F5E50B0C
E502EF17E1F70812
FAF90DFE0AF6F00B
2113F3FD181010F2
10FF1D220BF10505
F51E13FFF20A04FD
19E21005ED16FC0B
100F0505FE142B06
01022FFE07F40613
DA06E131E4F405E9
F7F0100BF204090C
0F20F503EF10F8E3
31091109F6111104
E1F914F607F70EFC
25F1F3F5000007F7
FD10FA0E13145104
F9FE02FF00E90D0F
E00FEF13DA0210ED
0DF10911F0FD0E19
0B1D061903F70AE7
1C16130B0AFF07F7
FBDEF2FC040408F6
05E6F701F301190D
071511FF04073800
FBE718EF0A00FCF6
CD20F91FEBF60AF1
F1DCEDEBEBF9190D
26FF07FC001B081D
14FAF6F317EE0CFB
0ECA0BF503FEF300
F7E906F7FAE306FC
F6060FF8FC0129F6
08E516EFF6F7F5F8
CE090B2FF8FB1FE8
CAE0EB08011E04EF
01FD14030217F2F7
F7EDE0FB24E7FE1B
0FE0F604140011F3
EF01F7FD01E20B08
FE14FFE7FFFD05D3
FFF4FF1BE407F0F0
E8F6110CF7E50AEE
E9E2EAE50012DDE9
0DF208120B06D8EF
E203DAF81CED1210
0CCEE90006F30FEC
EEF4F708F6F11D0B
070E2611F40707B9
04E8152CF500FEFA
E6F7FBFC05D10AF8
CBDF00040621EBF1
1E001B11FE02E300
EE00CF102E1DFDF8
17FDE905F8FA12ED
E8F9E91C06FE0430
051503FE01F4FEB1
06D5F83BF0F2F4DE
FCEB18BD21EB0EFD
D6CE0BFFF41FEBEB
F9F21AFA1020F3D6
C4FCD10812080FCB
0F01E2EC19161B0C
E505180F1703221B
F809FF0E0806F5AC
0DC5D52A130E12F3
F3D711AB280DF52F
F1F1090DDD01FFE3
03F9081F1C2AFAEA
D925F1FB3BF921B9
140FEBF014031315
FDF617100E4525E8
DEFC2714F703C9D3
F9E9D836F003F91D
E5DD08F91B0D0435
E3160B0BDAFC12F9
101422113027F0E4
FF27FE0811E927D0
EE2604E419FE172B
F3FD07FD02590EF6
E0CB0CF5FD12FDE5
22DED91CE623D737
0CB909E63215F737
183811170E010CE9
3F2E2922173CEDE9
0D411AE815F636D2
F61BDDD025D3E81F
210BAB110F3406EF
EAE0DFEB15E11B18
FD0209F3F0F9F50A
FAE4182118EE05FB
06E3FBDF0CDA10FA
01FE091507FCEAF5
15E720EE0CD804FE
FCF90B01091FF3FC
11F6ED1F190F0015
C805FFF111EDEE1D
FEF60006FF06010C
03060700F207020C
01F2F1FEF603F601
F3F3FFFE090A0CF6
0804F307F3F70801
FDF50C03FFFAFB0A
F2F8F507F8F901F4
F3F8090308FDF40A
F305FAF41AF0FF02
110528E4F9F4DAFC
F1FC14FD19012021
ED0EF81EEB0F0E13
F4FD0819E40CE5EA
090602FBFFEDE2EE
DEFF0DF4090D1DF8
27122307F0060700
F50C08DB12DD0D11
14172FFDE3EEDFEE
06FBF50411100A3A
F502FE102415F5FB
F2EFE21DE2FCF1E4
28000AEA00F707E4
EEF70BFE0B02150A
FD102CEBFA160EFC
03F0F7F405FBFAF6
0C2F3EE5E6EFF206
0CE60B1D0312F904
1000FE04F916F8E9
FFF0E607FAFEFED3
31EEF8F5E5FB1104
03E3131B00100500
021115F1E31C15F4
1EF0CFFC04FEE908
121B230FEDEB0714
F2F6E200E8311DFF
0A08E600000802C0
00D7FB0CFE16F3C8
1EE60305E1FC0CFE
08DB0921D9F1FD25
1300F90EF0FC0716
0401D608EFFFED03
020E290EC0DEFA05
EBDF0010FB17180D
0EEB0800F9F70AF4
10C90612101BEA1D
03EBFE10E41705FD
FFDB0116F9F9FB1A
1210E9FFF5C9070E
FCECFB07F908E8F4
021C1AFDE5CDF3E5
09D3E50BF9FC0E10
05EA19FAE90503F6
FEEEF12105FC0000
14E9FD02FE001D06
DDEBEF04100B090E
FF03F7F603E3E3DC
FD03E604002DEFF3
0E0B1DECFAE1E2F3
09EDFEFDFFF8140B
12021705E7150607
EDF60F0E01080501
F6F207F4F3F7090F
FEF8E61506FE1307
13010202FD10E1F1
F5F9150005230401
060C0DE418090305
11D6050D0BF8FE23
0EFB3918FA08FC0F
F0020033041EF8E7
F9F8FF08F1FD0B12
EEF6E5F9101817F0
2C0316060EF7FDF5
07F500DEFD160EFE
061309F41A0EEC0B
FEC9FB080BF60B2D
20F62B00FF00FEFC
F7F60A261AEF00EC
F500F5F8F1F5140C
F1FCD4F20F1B07FE
21EFF00600040101
061CF60A0424080A
F210F1EB0F09FD13
0AD90901FDEEEA2A
320D13FDFAF41701
F2F9080F1C01F6F0
0C1C01D4F8D705FC
E600D7ED031015FA
05F6F7EB0D092814
FC2B0621FC1D07F8
0E0F0EFE1116E7FE
06DD0602ECF7F614
240E05EFFBF91408
F60709DA09000710
1D1F0BF00BDA0E16
E3F3E9DEFB1900DE
FA0E16F81FF82221
F31C0735F40DEA0B
160BF5071603F511
07D20D0FF506FB24
3C18E8C90612FC1A
F1351AC8F217FA10
1D19FAE712F1EF0E
09EEF1F1121DFDEC
EDEFF31105F62112
E20BE727EFF7F104
0DE7F0F8FC190610
FCFA140D0700F702
4B1AF7CE120BF71C
05321CDB1215221F
0D1AE8FB1915FD09
23DDF8FB07210BFF
01F8F10419F7140D
F404DD0FF2EB1622
05E305FFFD10101F
E91B1309320C0BF4
3E0FF6DE1820D3F7
230819E70DFC1A15
F924F3EF21280C0D
1AE42323F801E506
F4000AF50A041514
0908F80E02F70421
F5050EFEF9031608
DF0C05FE2D080109
152200001E09EDDF
28EF160FF10303EA
EF1AFBFE0D08FE03
0DED16F9E4E10B01
120818EA0920240B
FDFDFC10F4FE040F
F2E2F51BF21011F9
EF0412090FEF0B0F
171BFB09F8EBFEE6
20E91319FDFCF3F8
F409F3140E0509FE
1DED24FCEAEF060C
240B160A06131802
FAF5050DFDFAFF18
DFFCF125F5FD03F8
E2FB05020108F21A
01170808EEEC0CE7
29E5FC06F5FE06F5
06E1F7FE1202050F
14FC01091AF3F90A
FC0FFBF800F93201
060E06F709030E00
E20FF31CF9050AFF
06F9F8FAFB150C0F
0E170013F60213E5
13F0F006E308FD02
04CEFA13FF11FA02
05F704FAFAE80C17
1917FC0206021E0E
0DECFFF20701EB01
E52C131EF0FD2BE8
F2D9F006FC0307EC
17FF00ECFD18FD03
08EFDAF10BF615FE
FFC7EDF105F30603
00F3FEFAE7FFF405
15070CF4F0EA16E6
1505EAFB0B14E5F3
D413141A00051AE5
DDE8F602020DF101
17FAFE04E60CE3FD
DAEED6F523F4000F
F5F5E2ED05F3EF03
FA00FE02EEF3E6FB
1D021AEFF7EB1DEC
0CF603120408EFF5
E9E3030D06071809
ECDAFBE81B12F8E8
23F00AF9E4EFE0E8
D108D70C1EF6F41E
08F7E60F0DF614F5
E60303FD0904FE13
1DFF0B0D04ECF7C7
19E5031305FDF7F4
E4FFECF21DEDFD0F
D7D0F8010819EDFE
19FEFDF1EEE7FAF7
CDF1E4241E0FEF0E
20E7D100F9FD2008
D2F00BFF02EB1121
FF13160E01F203CD
15DC0227F80CF2D9
E80309E721F6FDE8
DCBA02070D16E1F3
F90619FCD6FD01E8
D10EE1181512ECDA
1FFADF19121B280E
FD000FFDFDE5161D
021914EBE5FEE7BC
FBDDE51AFB0B03E1
D6DD0AC61BFCF21A
E0B51CE4E40806F7
E002150DE50202E6
EC08002415FD01D6
1E41FA172B0A240C
EFEA05152A3133E0
0BFE251ADAEDC2F5
F5E1E4F40903D7ED
E2DEE3D1ECCAF40C
D2E7F91DCE111DF5
EE05033E3617E80F
DD10F90BEF0F0FC6
EE1900E7EAECE904
DFD932140D4B1C08
DBCE1EF0E716D3D5
04E6E9F2FA07F4F2
E7DFF0FEEAD2280A
F61DD634CB23FC04
E0F0242A2F2EF3FD
E2F6DEF9E6140EDB
E7D221D9DFE4D711
F5ED1AEBE418E60E
BAE9EFE52AFEF808
17EDE8EDF6D813F7
EECEFD09FBD32AF1
2100D6E505D70BD9
DCEDE91E1507E229
EBDE10ED130C0604
FEF420F1E90FE6EB
09F3301211011E12
CEFDF5FE17F1F40F
F206F8F5F408F6F6
F5FE05FFFCF7030C
FDF904FB0308FEF5
F205FA02FBF9F70D
F9F2FEFA0D060C0B
0509FFF2FBF60BFC
F80CF6F3FB0005F6
0106F204FCF30BF6
F10BFB050E1301F3
0FFC0CFD01FB0718
FDEF0EF70E01FCFC
EF010713E4100417
08F911FFE902F4F9
FB02050700ECF600
04FBF5EF04FD0DF2
0BFF03FE03F70AFD
FA0A0CFD19E20207
201711E9DDFFF2E6
090405150B1FF420
EF07001414220702
FEF4D41CEBFDEFF2
2B0EFEFFFFEB05E1
EDFC07F9FAF8FD06
191A1DF4ED1F01EE
16E902F3F9EBE6ED
111C23F2DEE40310
19F7EF0F000FF217
FD08F104F70706F1
E80AF1FAF00826D7
2ED50DFFCC0A040D
03000F15FDF713F7
FF0909F9D105FD0D
1DFEE9E905F7F8E2
19FE21FADFEA1D01
10D4BF1ADF410004
14E0FED3F007F8E2
F5C5F925E5F304F8
12E70CFBF40E1B11
E7E40F1AEEE70E2D
160D0DF107E7FAFA
0804F60CE617DEFC
03071E03D1E20EF0
FBBAE60EFF180015
25EC1BCD1312F6FA
05DC09000419051C
F7EC060CE3EB24FA
F5EAF60CF807FEFD
220BFD0D0DC4F9F9
020E0A1E07FDF4FC
F71015FCF9E9F5F4
F9BEF108F6F2E622
12E918DA01071012
DCEB09210DF6F3F5
FF0A02ECECF82203
E1FDD8F81D01FB00
2917FB06F6EFD4D4
FDF6031D0315EDEE
071602FEF4050206
FDBDEA0CECF0E51F
1D1408EA1006040D
E80F0528FC1903E8
EEFE08F7F7F5120E
EFF2D0170306E904
FE061201F917DCDE
09F406F5F7200CFA
080313FC1B02F2FA
F2BF0611E9F2F736
2AFB1FF215EC0C13
DE040D261E1804F0
0D010EF80B061806
E5FCE60B1105E2F0
04F0FFE9FD0F02E9
081404FAFD150F0C
F90E12EB2103F5FB
F8D6060BFBEDE62C
31041FF5FFF412FE
F8051024140302F9
17150BFC0CED0902
E804EBE9FE18EEE8
06F90DF00E031CF2
0315FD17091B18F7
FEF8F5D7120AEDF3
08DE17FEF901E923
260518D500061B10
EC0CFB1110FC0104
210810F5F7EDFE03
FB09E9E4010206F3
F81303F217EB2F05
E92304210124F50D
F7F30107FE03E503
F0E71808F605FD0E
321C05D714091318
FC030FD20B0EF712
2CF7F1F701EA0115
E60FEAE80A12F5E3
FD0704FE1AF41A08
F700ED31F51AF608
0CE5D807FF120108
F7FC0906FFF3EFD7
2D11F5BC1616FE24
0D2A12CC0E1A0D1A
1406F1F60EE5EA0A
F9FDFAEE100DF6F8
F9F8F4F40EF4F914
FDF7E41BF4FB10FA
0DF2F1F9F400040A
F0FE10F4FCF906D9
3714CEC30708E8FF
1C271CD506080513
F01608F10422E407
020820FA0BF1E1FF
F4C9E800170B100E
05EAF3F80BF8281D
01FCF108EF0E251D
F21F0FFE2804FDE4
2BFFEDF61E11E9F3
3AFD27F21510FDFE
E10C06EC0F27FF06
01F5160005E2E10B
F7D903F416210113
FEF2FC09F2F40D1C
04FD0104F01A0301
DC0019FF1BFF09F5
201300EE09F3ECE9
28091CEC0513FAE7
DA0CF31F1B0DEE1C
02FC1AEEF4E8EA00
120714F700290A02
1507F31A0E050D14
10030704020212FB
EA0C06F929FB00F7
1D13FBF8FBE3FBEA
1CFD07F5F20BFCF8
FE14F30C1AF8FC0E
06EF1409FDEBFA10
020605FFFC1F2C11
F40AF7FF1AFE0801
E7060921FE0A0BEC
F40D02FDFD1A0800
FF080B13F9FA1AED
1709F514E816F716
03E9F1FB0610010A
1A10FF0AF6F7F518
10070D0EF0FB360E
061502020710FF0E
F407F91BFA090B0A
08F4020AFA080602
1511FC19F7F60BEA
02F8DFF90125FB11
09DD0600F81F06FA
07FDF4EFEBEAF818
1E060404FCF1FD01
01FFF0F3FA10EF07
F212140415FC1504
F5F007F2FC02FBDF
15FAF608EC02E2E8
F505D7E72913F70B
0DCD090C0D05010A
06F611EEECFEEB09
2403F6F2EAEF0404
0BFAF40A090000F3
E025FC02130C10F7
F3E10BFD0305F1F4
0D0718FBD314E8ED
D201EEE13115F912
F7F8E90414E7F4F0
0DF10EE704F6010D
0F0219F4F0FB1AF4
2200FDF115FC0DEC
E31601FF0D01130D
F2D1FAF4210DFAFE
21FD11DCFCFEF5F3
E6F6D30107F9F90E
02F5FAFB110A09EB
EE031CEE01FE1412
16FE2A00F3091BEE
1FD7F5E9EE06F4D9
FF06F2F42FF21D1F
F5B609E20A0600FD
0BF222DDE4F70DF3
01EFE01E150BEE03
0F02F70B16061003
F3FF00EC0605131D
03F51BF2E9E1FBDB
F1D3E80DF0FD00E1
E1F212D31EDFFA0D
E7B912E501F6EC08
F2F145E8D80B1106
07FCF82F1337FB03
08F4070F0F112D12
F0ED1DFFFBFD2900
0FED0802E3E4E5E7
05CFF10900F60CCC
D4EC06D0EDDA0104
F9B511DAE3F81000
C3F13C00F40F1128
FDE8E9050815D90D
080F1207FEFC1306
FAF41AF6FC2A3DD3
E5E81928E8F5D4EA
01E0FAF308FAE9F0
E6E0E1DBC5BD0633
CFE301DDE11118EA
C8020D1420290528
16E4FD090D0806B3
F12F16FDEEFDEAF6
C9DC22031731FFCF
DBD70808D9EFD9D9
30D50BE70EF1FAD6
F0C1E20DE3BC1B05
F7FAD526F91001DD
B0F2F00B2237DF23
04C6F0150C28E5DB
E4100028D52ACED5
F8F805EAFC16FAF5
94D1EA10F1DC24E9
29E100051FE00EE8
F0D10500F8E21F16
FEE7E9E701F012E6
DEF4EB250D190321
30E10ADA1117FCE8
E31B1A1CE116E9F2
14FEFB070C0A2AF2
EADDE203F7F715DA
F60EF4FFDF1BE711
27EFF7DB04F0D313
0A29FDE009DFFC0E
00EF040A15220403
F11EF1FDF6EA1403
0FEE1CDE04D5E206
DD112914021DE8E2
EFE20E0C0F03F718
FA0CF00007FEF80B
06FF00FF07F6F605
FD040B0410FA10EB
F61B0716F50E100D
040715FAFB14ECFF
FCF302FAFFFAF5F0
FEE1EA1409F50300
FEFD02030FF90826
E30801FC0EEEF92E
05FC32F4F903CFDF
1E0BF5FD11120E44
E90D0A280F111A07
EE07FC0ED106EADC
2AF009E301DBEBD7
DD0FE6F7F9E91AF9
F92317F1F010FF15
1402EB0216E7F00E
010DF9F6F8E11DF9
140E030BEE1CEE2A
211000FB10FC0607
130EFA0AE50D2DE6
1807F405E10D0705
130DEBF6E5F118F8
12FCF502DA200010
0E0E05FDFDF2FE03
070DE7ECF0DE2402
0EE5D10FEF1EDBFC
2AE5F7EAFAFB0CFD
02EE0132E509F8F0
F5F6FEE1E6EC0B0C
D9140D11F6F90911
02E7F5EF1607E5FB
041BFEF6ED0CEEEE
FD0AFB05EEFB0306
F6E8F812E80BBF2B
33DB1ED7002C0907
E903F6140008F807
1FEB04F9F7E1210C
D4E0EE071200F8E5
2A0B1A060F01EFCA
020F030B120C0201
EA1E1302010200F7
F7D3F8FCE1F3BA11
16F31FD50B13FA14
EDFD1517FC09EBF1
0FF70E0FF7F7F90A
F9FBE205EA17DD01
04050E130007E4D1
09EE14090D0905E6
F1FBF506F2F70510
FCCCEE04EFFFBC2D
1E0211DB0DF60A09
D41C061F0A2705FA
110907FDF7EE1001
FB01ECFA0011F0EE
FDF8020C091207E3
1400071A0D0E13FA
0900FD001201F60B
04BF0D14FE00C83B
361124EE00EF1014
D9081329211C09EC
0B140AF009F90506
FF11F60103EFED0C
0AFE14FB0D2014FA
0D1C052E061E07F0
0AF8FEFD10F1E6F8
07DC0F15FCF8C516
1C1714E013100C32
E4101129130BF718
1A0BF90000E70802
F006FAE90DEDE208
FCFFFEDB1EFF39F1
EF02FA4D081A1209
08F6FBFFF6F8D7FB
05D7230C0016EA02
161A2AD50F0D0318
E806FC090713F708
33EC15F80CFB1D14
EE0C0EE8220AE7FD
EE050BE415044605
E7F8EE4B0F2AFE0D
F8D2F10CEA0CDFE4
F10820E40503E8E4
071827D6131A0C0E
FB0AFBE30B130221
27F7F50B06F9FFFE
DCFF0DEC06F5EDF9
090706F913073707
EDFFF81C1E1AFDFF
0DE8E204FD0901E2
ED110EEE160800D9
180201EBFA160018
0D24FEDB010A0916
FCFFF8E9000FEF09
E10E0E000108DC0A
F4FAEBE611FD080A
FAF0FAF106041AFB
05F4F4FBEE0B2005
EE0710F60CFC06D6
2C05E9FB0C20EE04
281402D11AFB050F
D806FBF12129EC13
F506160BEEF7E600
15E4F002150E0DF8
04F1FCE703FE0F09
FDE92409F006261F
F41C160B29F317DF
2110F9F90A0FEF06
241A26D31C0407F7
D01DF7000725E90B
02FC2C18F1EAE401
FDED06060E25090A
0D03FB1800F30F04
0613120801130110
E415140B15F907F1
0806F107FDFCFCFC
00FD08ED060EF2F4
D707F400081108FE
F2052AF3EDFEF4F7
0CF60EFC1824160B
1506030C12021113
F70C0D13080F0311
EFF71FFC0BEF09FC
0B24FB0608F20900
05000401E6FDFBF7
EEFEFB0C11051210
12FDFFF50BF0EB13
05021205F61A2F15
FB03FA102A1AFC05
F406FF211CFCF308
E4FC0C0DFD060501
15130A10F80B1AF9
0F09FBFCF02EF012
07ECEEF5FBF40D11
FF070F00FEED0107
2C05FDFAEF0032F9
13FC08EF15000EF4
F20A000C10FA0C03
EFFFF80DE40800FE
FE000B08F91B19EC
F408DD010531ECFB
FF030E1406FC080F
080811E5F805FC18
180E04FFFD0C10FA
0B0D1AFD17FF0BFD
031819062D07FBE7
E90900FD0A0CEDED
00F8190AEAF20803
E600EBEC192BD218
1103EE0FF7F4FCED
F5F905D4F705FD0B
270AECFAECFC1009
15081504020C1AEF
020CE2FB18F30AF2
07F102050809E7F4
08FD2101FE0FEDF3
E4FEDEED140BE21E
FFF6F0FD02E4FDFC
F8E90BE0FDFDFE08
0FFB0AEFF5F01221
03F20AE4EEF70F04
0BF1E5071DF02302
09EE02F62501EB11
11ED0AF8F9F90EF2
DCF3E90114F6FB16
0B16F9F414F910E6
E6EF130519EA130D
F6FC2604EB0B1212
F8F306F2F7EC13EF
10F1E70D0DE30F02
FDDCFCE51FFC011A
1DEA22FFFF0A0809
EDFEF707ED0BEF16
1B100EF904F50EDA
EA0105F606E9210C
00030D09FEE30FFD
F7EBFBFEF2FD06F6
D60D11FC09DBF807
EAC4050313150B2A
07ED2318011AF817
26EB021E0720F119
27062AFBF8050BF2
07EA02E3F5F722F5
050D16EE02E1D1F1
EEDBEF1B0109EFDC
DE01E9ECDBF3FA23
05C61DF62305F510
00F2270FFF24181F
08EEFA23071AF32D
09F817F002F71BE1
03E50BFBEE1E21E2
E5F7F525FEEDBAFC
0EF1F9FC17F8F7D9
F8FF0610E806E506
D8DF17E500F40AE8
DCF41714061F260C
16E007FE240CD7E2
F5150A27FD06FE0C
DDFEFFFC0F0000FC
FAF9FC14D609D501
2BF0100118F806F7
FAD7FD42F4E60714
13DDE7140FFB19ED
DFE7CE1308FF2826
28B01717161BDAF1
F318FA2AE32DEBE7
20FDF0F613013B19
D9E9F7FBFDE7F6FB
1ADB1BF918F417F7
FCE50606EFEF3B04
0507F4E304E816EB
EBE9F93B080F0728
29DEF8EA101D0AFE
FB1D031DE81AF8ED
151700FB00111FFE
F2E5ED0FF5F8FAF5
EA050402EB13DF1C
23DEFAF012DADE14
211110F008E5EF0B
FEF904FE010B110C
E221EAFEEFDF1C02
05EE1FEEFED9D8F2
D1121E15041BFFF5
E9E4120D1BF5FB13
ED1703F4F8FEFB1A
F9F6FE0CFDF100EF
FC1C1D14F008100C
1723F004ECF3F3ED
080519F6080F04F6
F5FEEFE8020006F2
F3DFF714F2F6F90A
EEF2F8F81AF0F91A
EA1D18F90A08F726
F1E802170EEAF11F
F11018D805F10C1E
ECF80C16FD091F2C
141B3121E9FDF5E9
0CFD10EAEDE4D6C3
D10FE52108F203CE
F9F90DF2FDE9FC1E
151FEB0E0F1DE30C
E91EFCFD05E3FEFD
0AF804E5E0EFDB15
2B07DD07FEEA163B
0C061013E4290DDB
0826F9FAE904EB08
0302EBF2F8F402D5
09F802F1E602EE14
0B120920100E0404
0319DBFB00EF0FFD
F515E61FD715C80F
2500D7EDF5F50D05
06E61300F720F1E3
F60F030F02FFEF09
F609F6FE0226180F
08EEEAF7D00CFDF1
FBF3153000061CF8
FA04DF03F8DF09F0
0BFD1117DE00C11B
31E526E9FB3416FE
F9EFFE12E111FCDF
0BEC1008E1EAF703
E1EBF5170109F1FC
05FE0F00E5EC05D9
0202FE05020C0E02
EF0406EA0AFB03F2
F3F5FC1AF0FABB21
2BF026E313221404
E5FD0F06F210F5EC
0A10031EF2F8020E
F4FF01F8EB1CFDE8
12FB07F8FEFD0ECC
04F71022F0040DF1
00FBF5ECEEFFF10F
0100FE02E8F2BC1E
10F01AE3FD0209FA
E7FE1412E9100801
0C0D0F24F7F804EB
FC0302FB031401F7
FC0414FEF30B07D4
0609FF10060106F9
FF06D90D020D0015
F0EFF918F618C9F5
1EF2F9F708F90E11
F20323FD042403FD
1C060E0BFBF60CF6
EEF70B0314FDEA14
F8FE04F3F31326D9
FD040932F91F0309
0601D70301F3FB18
07F2100C0A0CCFE2
0902FEE407090A1D
EA150C18FC001015
0F0BFD1C0ADE0AF0
03FE08FF2204E3F2
F4FF04FA16F354D6
F407FA38050DEFF5
0008D2FCE800F3F4
09F81DF9F917E0EE
F21A15DE0E090B21
F40AEBF80412011E
0D000202ECF2190E
E3FF19F431F7F0FC
0AF8FB0117F760F5
FD0BFF24F116F612
04EBE81CE8FBFAEF
02F21DE20BF6F7E0
02FAFBFF190EFD22
0510FAE40F0A0524
F8FBFC0C05EAF50D
DBFC10FC1CDDE606
FFF10B051D0817F7
02E6E919FD1401F7
0DEAFF01E603F900
FE0E17DB1CF7FADB
1A0704041E0FF50F
0700FEE90E091827
DB0510031402FE06
F2030EF40DF2E80A
0CFEEDFA1D11FF0D
0EEDE5F9090406F9
FBF8110EEBFCFE24
E6151BEE1FFC02C6
2909000C05040119
160627E4130412F9
C717100B0A29F7F2
05FF100DE5F5E304
21DAFB031E12FDEA
FF04FBEAFDF9240A
F40E2F1102091318
FA0631EE2CF316E8
10FF03F80B010411
301314E517130CE4
BD120505021EFC0C
02081814F101EFF8
07E6141918220306
F8FD0F0513F10A14
FF120B18F5030112
E2021A060FF71EF6
080AF00CFAFD0117
1C0203D9FE08EDE9
F205010A050CF7FF
010113F7FBFFF4FE
18F608F90F2C34F5
210702190C08F9FC
F70F04151E231016
F5E90B01FBE60EF4
12FEF1E0F9F20D1B
06121AEBFCFCF2FF
F905F816FB0AEF0F
FB0C09F705F2001F
0CF40BFFFA184706
10FB0819261119FE
0F12F70F210CFA05
F4F41014E70A07F7
161AF7FC0D081016
FF1BE5F4E221CE0B
16FAF11EF60C0E23
000505E70DFA0512
1A030CFEF9051C14
050C0709FE0A0804
0FF4FCF91D09F7F1
F603F514E90EFC0A
10F6180AF11BFFFF
EC01F9FB0B2FE9F5
FE0D000A0FF60E1E
070B29E1EF10FDFD
181000FFFDF70E10
121DFE0C05FF020E
F5F807FF1C0800F9
F7F50912FD12F0E4
07F5170DFB1B10FB
F307FFF6272CE01D
050E0517FFF9060A
0DF50AE8F2F9F907
071DFEFB02E72404
0514FD0B08EF0C05
FAFAE4F223F403F0
05060F21FB2BFD0B
0EF812FCED11F703
E5E6E50D1723F515
1104F002FDF5140B
FCF006EAFFF7F105
060317F1F8F3220F
FA2C0AEE0CD91211
FEEFDEE91CF0030D
0CEB051418FFF6FD
0CF40CE6FF11F9F2
EBF008FEEF050FF2
020C02091FF51CE7
D5F909F901D70214
F518130407130D06
EA1BF30117DA0108
F405FF110EF3EDFC
E6F917150E0A1119
060F1008EB150F09
F0ED121EF5120007
0E14F0020BFEFFDB
C9E3FD01FBEA1718
041401141AFAF80B
F5F7F11324E7F405
E2010004EFD800FA
01D9180C08151110
1DF51A120A190E1D
05E2FF01E3310911
0E210603F5FA06D8
E7DA02EBF3E61DF2
E9FC140715FFC4F8
ECC3D81D08F4F2EC
DDEDEFE0CAE4111C
16DF12F70AF60A00
0200210B262BF332
25D7EE050C471919
120629FF021006EB
FFF8EEFCDC2C10D1
DBEA0015E5E2C2F1
FEF5FF0A07060EE5
D90CF803B9F2110E
DCEB15CAEFEBEDD7
E40A14190C112742
0FD908223526FBE5
F41D1734FE2B1322
E9F8C0E80FF711E6
15DE1713E3F0D40E
0D11181727ED1AFB
CD1BF63AE5DE2B17
0D12F815F80801F7
FDE50B2FFD0F260B
23B6270EFD34F1E9
DB160916DB32E505
06F8E5F601FA2C03
EFC7EF0D13DD0218
14D70F02FBFC18DA
F1EEFB0ED2F52027
EDF4FAE1FDD703EE
E0EAFD1A18172619
0ED3FAE8FE10F5DC
F6FC0925F323DCF0
0A21E919DE122ADE
D5D9FE16F6EB0F03
030B06F512F90008
080410FBEBE4FCF0
E4F4FA0CF2150702
F5020309F905FE0E
08F2F716000CF9F3
0DF9FA0DEF05FEF0
F902F7000B04040C
FC07FA0B02050C05
F4170EEF16F7111A
FAE2EB1507E90AF5
E4101A10F3191920
0E120C19F00BEFD7
1C0028091E13120B
0410FEF7E70F01F2
EFECEC1906F2E719
ECFEEEFE190C061D
FEF2210726FF1903
EDF8FF1513D70B05
DB0410DAF7EC1EF1
F602F80EF4091119
19170F0DF814FAEE
11051716E5FDE7D6
FC0BEC12FB07FFE2
F4E0EEF506FAF90B
12100E12221B0717
D9F8F80100FD0308
1F170EE2D2E70211
0B0BF6E7FD010B18
FB1427FB002314DD
FF1101E9000FDA0D
040523EEEA02FBC7
ECDA1800F5EAE901
0CEBFC28F0FC1512
F90BE6FC11F60EE8
FB29FCF8C9F2D500
1500F6E4110908FB
F7F60BF6FB07FADE
F8091115F50EFE17
E1F5151B1239FAF9
ECDCDEEDCD03F7FF
EB041931E8FA0F02
FE10E8071BDD0CF5
111A0900E8F4C81C
1CE91BE40534080A
E9E0F521DB19F8DB
04ED1F23FD07070D
D3F50608FA2AF7F7
DD030812A1EEF6E7
14031D1F08F605FC
F3FD01EE0DED0911
D80D0C0AFF09CA07
14EB20EDE50C2305
E4E50315EE28E1DF
0618222E120E0B01
EEF90008030D0102
000E02F3C1F608F4
02130B13F8F611F8
08FCE1FF0208F9FF
FBF902190304D008
FFEC2BFD03120E02
EAF61610F42FFE08
120B0F240303FBEE
E30F05F61EEF1624
FB0604F9BEE40FE0
0E14FB26EE120BF8
FEF6E0F91414FA1D
F907F701101EDEE4
01E903FD16EC0207
FAF60A1AEF08FAFE
1317F2170B080105
E6FFF6F617F1F719
100512FACFF12AB6
F10C1626FC1B05FC
E7F1E00803EA0012
FCF212F50307EFE7
0806FEF007DDFB10
02F60316F103FD0E
131E062DDD0D0202
EB101CF629F9E10F
0A021BE4F61028BA
FDFFF926FE0B09F2
ECF4D602FE081203
0C0815EC010BFDEF
0CFF01FA1AEEE90D
0F06EFFB14FD112B
0706FB29010A0820
F90016FD38EB040F
10F51BED0F0D15C8
F6F6F711F005FDFA
04F0EF0EFF1606FA
F5EC14EE130608D6
FA06EEF31304EF05
0B0FF8EB0E051330
CFF5FE210112191C
F0FF18010DDD0A03
0BE205051A0304FA
0E02F502FD240E05
072311FEEB0B0C21
FA0411DC0B070FC7
200200011B0BED15
061102F111011017
C610EF12FE09F90F
F1F623F7E3DEED13
07D4E81E180CFC04
FBFBF901F80712F6
FB172110EE0C0E16
FE180FFA0BF925DF
0F09060300120402
0B0F0FFB0E090307
C3FAF60D0418F5F0
17FA210DDAEEE302
01D1F2150F1E04DE
13FBFEFAF2FF1A15
F5212CF8F6F3001A
010E23F211FA12EA
12F4F9F9070A0D02
0C091CF1F9FDF7F2
F208FA07EF37FE07
12FC1016F7F7E7F4
05EB2A0F0C1F0BFF
0A0B01021601FF01
FE0D0705EBF9EF1E
F21A2AF80C010808
FE09FDF40A041120
03FFFBEDE2EAE6F7
0C130207F019FBF1
EB0006060109050D
0808340BFD2B2208
18FAF3130709F800
17151C08080D0D09
FAF31302EFE103FD
18051CF004F00F22
F702FDD9EF01EC06
0113FA0C0709F00B
0D0303EDFAF00903
0FF12407FA232C08
FEF4FC2724FC1109
1B030E010708FE01
F509030AF7050E0D
161217F4072CFE2C
EE07ECEAF433F212
18F00B25ECE7FE08
F50703DEFA0F0815
240F0EFB0FF62009
F718FB220CF11919
0FF7FC021FFBFFFC
EE0A051D00080FF8
1BF83BFFF216061B
EA02FB110831E80E
0506170E01E7FC0F
04F50ACDFF08EFF7
080403140FE1021A
081EF4130AF50F1B
FCFAEAF819F2030B
0314FC0CFF050AFD
1AEA1902E405110C
EBF90D071B2AE820
F9F918FDF1EDF500
13E81CEDF016F5FC
FD0B19FA00EA0E0A
0C0DF9F810FAFD09
01E8FEFF19F4FDFB
FE05041406160FFF
0EEC0BFDEE04092C
EEDD0208091DEC03
0B06FB08030603EE
0CF90B0706F9F6F2
F00E0FEA04E40407
1D1512F4FEEEFD18
01FFE9FA13FBFD15
0BDB0916F8E40E14
08EC1EEF03160A31
02D90611E51602ED
1A0105111F00F9D9
F3FE0A01FEF11200
E5F0FDFB05FE070D
0BFCF72622D91314
E1EB0EFA0AFEFC14
EFDB21140DDF1209
02EE1906F71F071C
F5EC1D1AEB11F304
00FB06FBFD08F6DA
DFE70DF3FCF403FC
D5F8F80811E9F80C
EBE9DC3826E4FB0C
DDCCFA05F8F1FB17
FBBA1F06F60DFF13
FEFFFD18022C0515
12FB1907FD33F9F8
FE0912F4FA110ADC
F2E9FAF7EB1F1CF8
F0F7E91103CED0DC
D1CFF64103E70D0B
F0D9EC03DDE0FB1E
05E412FAFB01E72F
FCFAF31B0A20DA30
12EF131E0945F40D
0A2B1BF6D21203D4
FCEA09F5E01408E6
BFF2FD1FFBEED3F6
19CCF62F1CFD0CA5
D501E220D7C91D27
F4DC10C700D5DD02
E2ED0D1620143741
01D617150F44EBD4
E1162043E647F425
030EEBFF152014ED
DBC91518C8D3F7F8
13EB0E1B20F4FCD7
EA0AE61AE2E41320
0E01EBE308D8E1F6
E8EB0A0D14132533
19FF1610F025E3D8
ED141036CD25DDF3
130DDC08FF173CEB
F5DDEA00DFE51AF7
17EA170B02F41FE5
F3E3FB05CBEC1F1B
F1E8F0E1F4E905F4
EEFA042B2D0C0B24
14DEF8E90B20E3DE
F0131515F918F8F1
1E08F704DF0F11EB
EDFDF908EFDF07F7
0407030AF40D0404
0DF6FA0000F9080B
0DFD0BF40BF2FF03
07010C090C090CF3
F8FFFC03000009FD
FA01F5F301060DF8
F80AFCF80D030204
05FD01F50C0E050C
E0FC000305060122
EEFBF81A06E206EA
F302060B02220C20
150706F91000E9E5
091813FD08FC000C
F619E7F4F20002FC
FEFDFB02ECEB0509
F106E6011B09000F
06E9350815010D0A
F9F40A0EFAE4180B
F10E15DE05E41CFF
EDF6F821FD010F1A
1AC40700F226FEED
2A020C14F4F9EDE9
020CEE0110FAF3E7
EAEAF5EE12EF0AF1
FF0206030FF00A23
E2FEE1E6F3F309E7
321101EDE80AFF16
0CFDEDEF140EF5F7
07FD050D030400E8
0D000ADEDF24FE01
10F40D06CAF8F60E
E7EA10F007E1E102
F6FC1611FD030C25
FC0CE00F00E704FA
F72904FFE4F6F825
0F11FFD0060D140B
F9FB07F50015E5E1
27EE24F7F014F018
FB0D030910090500
05E1F6F4DAECEE15
F0F72D2CFEED12FB
09F5E709F7FA0D1C
F116040BDF06D621
F4ED0CE30E451918
E5FAFF14EB22F6DC
22E8240BF5FCFF0C
F2020610071FF709
F10D060A8FF4F6FE
0EF90625ED08FE15
03F8E7F4F3FD121E
EB1FEC02E7F8D513
08F220FDFF1E0C15
E8FB080DDD0F02D9
1D0C23FC15F80D18
F5052100081B07F3
FD050B03AAE5FCF1
051F002CF3FF1406
FBEECA0E03FE0C40
FB0A02FF0401FC00
0B0129E9FA07FE0D
EAEB150EE421FAF6
120E120E0211F909
D9F510FC28FCF204
13EC0DEDAEDCEB0A
25200E2C020807F7
0AE9E90913F01C26
FC0AFAF001FD01EC
03F31BEFFEF60F17
FAFC0610F7E9FEFB
15200C17F919FC18
ECFB15E225FBF510
14ED11DEA5D522E8
150CFF2AF61800F8
F2F9E7FB100B122E
0EF905F212FB15F5
05FDFDEB0EF90909
0700FCFDE505E916
03140313FD1C0D0D
E8F520E4441B0D09
150A02D5A60211CC
0312090FFA09FFEC
0C08F6FFEE100212
08F9F8E514F503F3
06F201FC1BFBE412
200803FFE7080629
E1EBFD260109141C
F11010F636FC0C0F
17F9FFE5BBF7F3C4
020DF111EF0E01DD
060B0F14FA0CF51F
FFFD01ED20021CE4
FDF4030B2407DF0F
0A1BEE01FF08FF20
B2FCF91A0220021B
FB0B1AFAEAEE02FE
0FFBE522DB0CEAD7
0DF800F6020E05EE
01252A10ED0A142C
F911F8F225F20AD1
00F8F2091A13EAFC
0706FDEAFAF7021E
CA05FA1AFE1702F8
F7FC1408D2FDFA05
0BE9D724DD03F5D7
1509E70007120CF7
F64026FF060F1A14
F613FFED070B20D8
1B01001A18120011
0D1909F2FF11EEFA
E208FE20F70D00F4
10F5F9F701F7E702
FFDFEA13E428F6DC
1407F7EF07FD110E
FD392D0DFF01082E
FBFC14FE03EC1AF0
14F9080EF4F1071D
1A1315E301FBF4F8
060F0511F826F1FD
07F9020418F5E807
FB054506EC1C0E00
19FAF40514020F01
040D1810E90FFC1D
F51E1504F102EDFA
1D050B000D040327
FD03F7D8E0EBE803
0CF300F00C02ED00
EF0509ED0703091A
050A38FC070E26ED
0600F21A1D13FDF6
0BF50206E6FC02FC
E51C200CEDFFFFF6
1F1833F408000C29
E0FFFAECFC02F014
07090D040F12FF09
0502F4EB05FF1918
22041E0EF2F32DF8
F601FC1226F50E21
00FC0D05EEF60F06
F7251814FD070B0B
290C250409121020
E7F4F5F8FB26EB08
0F0A070D06F50202
FA03F7E7EA1015F4
130FFEFDFBE02303
F409F5252200FF10
0BFF020203F70BF5
F2091517FF12EFF1
2AED27F9F5060A1C
EE110B160A1AFB11
00040CF6EAEE000A
0E0509DEE80FFBEE
1E0F000C03E60D19
000DF31A07DC0518
03F1FF0719FC0DF7
EF080811FF110DF2
0CE72819E8F8FD1D
F01609080E10F61B
FBFF1F02EC0DFF03
02F90800F412ED02
FC07F2FD06FEFC06
FC1AFC1603F7EF11
18FA0BF6FEFD0CF4
05FD012AF3110012
0EF81F11F8EE0315
FEFEF8190313EA02
FFF4FFF70A12FD06
FA040A08050CF1E8
FA0BEA020202F904
080200F804FBFC10
000A08082018F402
EFE40711ECF60DF6
061116F0EFF80F24
EC0518100A1FE7F5
0301030A0E0FFEEE
00F408FBFDFEF8E7
F8F2E1040407E21D
0305FF0F16DC0710
F4F800040A06F106
00CA0A06FBF40E0E
0F0904FFF5EE1F21
F1F80818F51EE703
1009050F111F02DF
EBFBFFFF0012F8FB
F409E30CFAF6CC0D
F2F0E41E04FDF423
00FFE109F7FA0227
F8C51D1BD90DF30D
FC08EFF9FA041CF3
FE03010A0D39E615
FAFF03F0040103EE
02D808140E2EFDD6
F0ECF205EDEEC1EF
11D3F514F30DF9F2
EE03F70BD7F5EF1A
13DD14020915FE2C
F101050B06022A11
EEE50C020DFFFF05
FC0E14DCE91DE503
0E001317073C10C6
13FC0822FDF3DCE2
0DC9FF0A1DE40BD5
FD2E0717C5D306E5
0BFFEFE71303F014
D104F42909011819
F9C7EFF5C91BBFDE
04091B1CF528D4EF
111101E1141F1CCF
09DC1640BA15F9B1
07E1F6150FD803F1
2A0C1E1BFCDC03E6
0D37D3F80BF10DF9
FC001C140FF40809
FBF20B01C216E9F9
DC001704DF3AEFE8
0308E5F6031A2DF6
0002DC11010AFA15
16E712101DF52EE3
E4DDE4F1C2F91F22
0CDA0DC8F4E5EAE2
F0E9082E30081A39
22D6E6C7ED29F3C2
DD0A211FEB10ED12
2A1BE4F0D61F31FC
BDDAE119ECE927F0
09EFF20A08EC1DE6
1C001203090E1AF7
05F6E00CF218F2E7
0A04F2F610ECF404
06DAE80914F61205
DEE6090A0E140611
1517FC06F2120412
E000F0EF16F2FB04
EF0811050DF90115
ED05F915F8F31504
0501F60DF4160105
1B000B020AFDF8E9
F618170402020F1A
0416FE00EB0AFBF8
F4EFF504FAEBF20F
F00503FF05FB0616
01F019F81AF81E1C
16031B0FFDDCEFF3
E7020B02F901160C
00050B2F0B1806FE
09E10521DF0BF5D1
381101F4EC08F8ED
F5F603F0FDE00502
E602EAE12A2AF700
020F15F52EF0102B
E3E7DEF702F70409
0FEB0CD9EFF9260C
F31307E5050BF918
1EFA18020013F5E9
EEFE10D6DC1318FB
17F71F17E1F6EB08
E0ED1B030BF1F92A
03071F09FFF9F41A
ED0ADEF1FA07120C
050010F8F2F60613
0B0C03DD1020130C
F90AFE0CF712DF11
1CE825D1EFFEF121
15130E0DE705E611
FDED03D2F7F11423
FCF2153EF8F90018
E4FBED06F4001103
E403FA08D8FDF80D
0615F3EB223624FF
04FC1A06F224F4E7
F9FF14F71214EE09
10ECFE13F715EC0F
F0F508DBBDF30806
1FF00C4701FD0B18
07EFD0F10D0B0A31
EB18FD1DE9F2F417
02FF030B1A252002
05EE0203EA1EECD5
08F3170A25FBF516
03FDF8071A1FEDFF
03E2EFFBADDF0A05
1B060D4E0EE90111
FDECD719EC0E0F22
FE17E6F90DFBF70A
06E815F7EE1E1417
F2F20CF3FC19FFEE
0A060F07FDFDFA19
040C13F12711F8F1
07F217F7C5DD011C
23020424F90709FF
0305E907FA0F0826
F01BF2F1070A1105
12FB12F00AFF1B0A
F607EB1BF0F1FDF9
1E0B05FD010AF109
EAFA1F012A1FF8FB
030403EEA0DE150C
0A0E0D1A0D09EFFF
01F6FFFD0F091129
03F8EEE606F70CFF
140B04FC0BDEE716
0606FD13EFFBF619
02FB0F120A231912
FAF510F636291BF4
1913E9DF8AEE0EFC
090E021504F5F7F9
021116FC07151A04
FDEC07F02012130A
07F602030C05D8FC
100BF009EE0FF527
D0FE1608041E0F0E
FEF50C0A17251701
1B10D90881F21BE6
061AF5F6ED06F5D4
071B0C1119FDFC20
E70600F90F020F02
0B0416192017D2F0
FE11EAFCF6F5031E
C1E50913FE170A06
F7F3FB01D52305F1
100EC41A8EFD0CC9
F813F0FDE11703D7
FE2022F9110D0319
DC1201F216F804F4
02F2101A04180EFC
FF0E03E8F415D110
C9F71114F514150D
FAE80EFFC20BEEE7
0EFBCC45A921F9ED
FF0FFA00EA111605
073623F2130B0226
D80A19FBF8FFFEF0
0D0B1710F9082BFA
040B26E4FC0EE00B
EF07FE22E61611FC
FCED00F3E802EFF2
F5040A2DBE1B0E07
1A0BF505FE151B11
ED2010FAEC020715
F00315100D04FF10
15FAFF0B02F81622
141316E9F9F0EEF7
07F81202F917E505
07EF0DF5E9FAF70C
04053511E810FC13
0EFBF9F817F70209
F50D131CEDF70D0D
FB2B1708F00B0007
020C1BFF02FFEB25
FAF2FCD9E8FFE902
0AF41900070AE607
FCF5F4F2E600F903
10F91F0CF1EF1109
0AFE02FE1E08100A
18ED03FBE2FB06FF
0A190C15FC02FA15
170830F2FC02FA43
0A00F7E5F20DECFF
02EF1C070E07FE0A
FC0108F2F00F1B02
0B0E07F8F5D52707
F5F101041DF91A17
19E5F9F3F6000FE4
FA2C1006EF0E09FE
1CFB30FC070BED2B
F501030F0EF9FA17
EFF90C0F050E0EF4
FDFDFEF4EA0901FA
0C1A020705CFFE02
F0000A0F1BEF0403
F8E705F401F307FD
052B0B1A0E11FDFF
0EF430090C03FD25
FB0403091015E90C
06110408E2150CEF
FE0B02EDEC06F1F0
FB05011604F1F700
F710FD0EFCF7071A
0002F70E01FD08F8
0522070B0A1C15F0
1DF01C0709F9F125
F8231318FCF7F20A
0C08FDFBED0F03F4
01FC1308FE17D5FA
0012FA0014F5E201
FE19E906DAFFE813
011AEFF909FFFC0E
00F2E90A050707FE
0DFF0DF80AF3011F
E20F151CFC08E4F8
FF05020B06FC1E10
00000101FFF3DD08
0A0DE5041803FB0D
0B21F9F400E9F207
FB11EE010711F7FE
0BC20C0EF5FE020D
0C000A09EAF81028
05F923FEF513FC01
030D1103FC0DF6F1
ED030006F408ED09
FD06ED0213F4FC12
00F8FB13FAF307FC
EAFB030C150B01F6
07E1F614F2F8F708
FDFA0A1BFA040E11
EFEEFA140A2CF8F9
FC103100F43BF1E8
04170E25F114FF01
D9F9E8F114D3D602
0CE0F321ED09FE00
E4FBE6FAEB040525
03C611FCE3FBF916
FFE5FFF20D050508
0D0E22FBF912EE0A
0EF918EE051C0EF8
FE041227122DF9D4
FDE3FA13FEE0C5ED
1AD4E70AEF11DB00
0002E5ECD1FBF719
1CF000F608060123
F4F4000B15F93717
E6EF1F07FA0BE202
ED0908F2FC26EB11
2304122C223E01B3
1AF91C1CFFDDDCF0
EDD30AFF0EC508C7
2301FBDEBDF2E8F7
F709DDEA1107F9F4
E8EF010318D204FD
FEF5061DFFF6C0EE
14E9010F0B39F6EC
F51F220A101208FA
13F71844CB21D3EA
04EDFAFCE1E3EA1D
311D20E510F9E4E2
0A2BE51132F923E9
1617F40CF5F7FFDF
FC0E13ECD1EFF71E
22FBF8EBF80F02E3
0BF9061A0B120318
03FD16F01C30EF16
21F91C1305EE2EE2
F5EBEB1AD2FB151B
19EDF8F2F9F3ECE3
F6FE03230F08F824
2204F7EDDC03DF0E
EFFD1A1FEA38C9F3
260BE303E70D14FE
D8E50805FC002D17
FCFAFAF00C0A0904
F40904090AFC0E14
0AFEF6EE0002FEF8
0902FF0800F5FB08
FAF7FD0EFCF1FC00
08FF0FF3030BF3FC
FC00F6110806010A
EEF3F6F708F5F2FA
C8001CF7E7F0F0F7
27260B1FE0E1F7D8
0D12EE0F1223F912
EBFA0C13081AF7D9
E9EAE317070F2501
32E0FED9FDEAFFD7
151FDD03291C1E24
232602F3EF11E8EC
00F3F2EB09F1D202
08FCFD09F0E5E60F
FD06F909EF00F8FF
E90DFE0B0521FEFD
00DAF02EE0FC04F3
190710E6F6F9F8EA
F60310FCF1F81228
F5FE1E0D32161102
15210108160DF618
DDF5DC21E60FFB09
FEEEF0F1DB041805
F920FBD9F401190B
230EFD1EE110E2FF
EE060DE5DD041006
18DD10FBE10D09F5
09EC13FF23DB052C
030F2000EDF8EE1D
FA0ECFFEDDFC0301
FD02FCF1EFF2FBFA
DF01120C0F201C10
F8F90312EF1DF113
0C0611F6050CEF03
2D0609EB0405FBF6
0AF924F3F8F4F22C
EB030C190701EE12
05F9D3000EFF01EC
FFFEFFF9D8FE0E06
F804FF0D1329150A
E9F41A04FD3DF2FB
05F712F00511F4FC
29F5091C051EE4EF
EEF8F3E4EBEC0723
F8EB0F1BF507010B
01EAD010FD0F0511
011B07FF0BEF0C1B
0001F3EEF2140901
E6DD040DF921E3F1
0FF90BF1FB10FD13
18FD0D1D0E1208F0
FCFB04EBE3F0F923
0DFD0D25FFFC02F6
FDFDDCFAF81A0809
0B00F4010DF00427
FAF5F5FE00F91010
F5010508E51504E6
0FF811E706060911
15FFFF09280705E8
F7E304FEE9E7FB23
21EF041AF506020C
FAEF02060C02120F
0817F8F90A031C08
13FE130F0A02FA06
EFFDED090A08FD03
20070E0B1522FA0C
02050A0E231510F2
07F8ECCEDCDF091A
1904001203030FF8
F9E502F402F8FD09
FEF7F5EA17FC2829
F0F81F0A06FCF003
F10DFC220BFB0311
0CFF110807371017
020211FF252317EE
0D0EDCCFCEE10CFF
FF0208FA03EF09E9
08EF180508091117
E9ED05E20DFC111D
02FE1EFF01F2D60C
1002FF1010000326
DEEA160E0A200805
03040F100F1F13ED
0207DA11B0E319F9
08160903F60709DF
0A121D011D07F200
EAFDE6E90A07FD16
04E81DF604FEE1F6
F51008FBF6ECF231
C9D82511FF330913
EC040FFAE42CFBD5
FCFEE738B40C00EF
0A010EFDEF0A00ED
19111C021FFD0808
DB01F0FA0B010006
F6E82809051416F3
F60EF6F5EE01F023
EDEE2625EA2E1407
040203EDD11CF1EF
FF0EDB32C118DDFB
0DFC141AE11524F3
E81D290806080B09
E501FAF3FAF00903
FEED0A16021933F5
08FFF4CCEDFAFB0C
06042807D926F40B
09021109DA0DF101
E3EE1E21E502E8FA
0AFB091809030FFE
F91928FFF4F5041A
09072D10F302FE16
05FA0AF50A091B0B
050AFFF0ECF7EBF5
14EE1DFE0212FDFA
02071BFDF813011E
0207460CFCEEFF06
090F110408091213
F4F60600F5F2F9F7
1B18160E0E080510
0CF62313FCF3F834
01031CF6FCFF01F6
F2FD110212070901
0AFE01FDE6080902
12022E0B0BD1FE02
0B1005041E030FF5
0FF30009F2020F04
0E1B0D07FCF6F410
0DFC3C08FBFBFF26
0A021DF005FDF0F6
F0EC0818F106F0F0
FD000A03EE0209F0
F30BFFFC06C702FE
FCFC0BFE03F7FFFF
F5F0FCF9F7FB1AE9
161600FC090500FB
F1FE3D07FD0EF014
0810010205090CF4
FD0C0A1FE902F610
02F9090EED0404FD
0603F30C02ADEC0B
F40BF513F601030B
F8F6EBF6ECF22E05
101F0102F4FDF2F7
F6EF2B1111FD0817
FC08140B1A011115
020011FAF31AFC06
FCEE080AFB0AEC13
F9F9F91110B00606
1512FA1BF2F70508
0107F5F40012120F
0803F503041D0AF7
F5F415F8FCF7EC12
09E60906FEF404F9
0103FFFEE6FE1CED
10020022E60EE915
F317F2FE0BD8060B
011B0C0BE105FE1D
0411FF060A02FA0C
0CDCF4F41007FA06
F401231202EAEF0C
F3E61E13F5F10BF2
06110DFEFCF4F505
FB0701060209EAF0
0B13EA0E03E10AF1
F10FEE12F202F211
EB0FE7FBF509FD18
06B902F0F813F300
F1FE1B1200FFFF0A
FFC80C15020E0706
FE1B1DF4EA1E02F3
0AFF0E1D04F7E10E
F9ECEEF401DF0601
0AFD040EF5F700F1
E2E6F7FFE716EF11
11BF0FF3E413FAFA
FFED200E20F6F519
FAB21108190C14EB
0212140707400DFD
FD2007282418F6ED
E8F3FCFE12DAE1FA
08F7FE25010B180E
E4D10BF6EB04FA27
17D8080CF40BFA23
FAE7F81613040504
09F018F30AF41FEA
E9011C05FA3FFB08
0CF7F8371F1A13E4
02E60A0A12B7DA0A
FB0C131114FDF7E9
0FE0F0E3FC01EA1E
FF1605FE0A33132B
F0FBFDF00DF110EE
DCFDFD19F4DFE71B
0BEBFEDDF01EFE09
FC080E201B08F2E3
16FA111212D9EA0C
E7C107110CD81CD7
1DE502F3CB06F614
1115DCD40515F600
DCF2F80126DDD8EB
E2FF260D03ECBFFC
1EFCFD080738EFF4
12011125FF0DFE11
FDE10B1C01EFD61F
1DD800F716E90AF3
F7F403FDE1ED1A19
E9FFDDC219D3EBE9
E9F1FB1C11F51027
12001EE0F111F2FD
FF08171FE726DECF
0415EE160319000F
D0F8F5F9F51DF511
08EBFF0203FE11EC
FAFF0E17DE050503
05EAF4FCFBE4F3F2
12FEFAEAFC07E917
100404F2F9F9DE17
03100A11EE13F8E8
1CF9EB19FFE6F11E
FF170EFD0C171300
FB0D01FCF706F20B
04040700F7F7000A
0902FE000209F7F5
FFFA03F5F7F8FB04
0904F708FCF50B0D
030D0DFA000B000D
F6F6F9FC0B0BFE07
FB09F3050308F5F6
E3121D14DDD5E6DC
2223FB28EAF9E4D7
FF08E00A1718F00F
E5E4150AE6111DD7
F8FBE2242622281D
32D21AE32EFD03CB
E20BD40E30191206
1820F006E4DBFBE4
0EFDF6F4F913E2D8
05EFE4F9F1F2E522
09F5EEFDF5F5F5D7
E6FB00030C280617
E519E51EE3180BFA
1803290FF3F9FFFF
1B0C18E71D02051E
F6EB211B0EE113E8
10EF1BF6240F09F8
D5CDD71ADFE42A0B
0BE60205D90E0DF1
D4FB0808E60C1310
2614EA0FFC1BFBF0
F70D1B0FCA0105F5
0DEA14FB16EA00D8
EEDC221734D416FB
06EC12E90BE90708
E3FFD405D1FC3AFA
FD020405EBF01AD2
ED0A0B16F71B0E0A
F8ECFFFC202EFF03
1CF8200AEB280BF0
370E0EF8FC01FEF8
19F10A0211D41615
F9E8020BFCF60B13
05F5E4FD05FF13FE
F5F9F503EDFA1900
FFFCFC120C1FFCFE
DBF308F21C1D0FF9
01F70EF505220411
31EE2413111705E5
F6F1F9F111EE1920
FFDD0C12EDF0F3F8
F4F6E6FEF90B2615
ED02FB0DFCFD1007
E6FCE71DEF06FBF5
DCFA09FE121D11E3
040A04FAEE02F803
21FA10250F1CF9FB
02EDF2EF0CE6EE26
F9F7001BFC0002F9
FAF0E4F505010E04
F503040716090D1F
F5F00C0DEBE91D19
011201030909F2E1
0806FEFFEF1EF202
15F80533210FE5E7
F4DFE0E9FFDEF215
0CEA0722F00FF8F3
EFDEFA00020F0200
010C04ED1607171D
FA0C270606FDE202
08F60C0A04FA08F9
17F618FE112B090B
1B09121C001D06E2
FFE4D9D30BEB0523
FFF2FAF7FFFEFE00
F3E80CEF0E0106F8
F612F8F505091C1B
F7F812040507CE06
04021519060E1F01
13102108081C1602
0418150D13140AD6
06EED5E7FBFA052A
00EC08FAE5F611F0
03ED21F216F7FC0A
F605EDE30AF72A3B
E7E230F50A10D9FB
0C14081506FA1E11
160015030F230CFA
FD1511121E1F0CD2
EB0BD310FCFC050A
F3FD0E12FC0BF8F1
13FF10FA0AF8FD10
03FCF3FEFEF61712
EDF01BF5F20DF7F1
FAFB160202F9020A
FBF81511062BF505
F514050DF214F9D1
EF10E8420306F509
FEF011EFDB00F4EA
01FB12FE0FFBFB04
0CEC00FBFCF6FC1E
E7EC04F8F42619EF
0800F405F6EE0D1C
FCFC0F0EFE28F9EC
F70CFD02F6070EEC
051FFF2F0113E803
FFFE0A07FA0AF70B
000E0DF50B0519F6
120D060908EEF20A
EAF11703021917D5
01FEFFFDEEF10915
FCFA1404E91BEF03
1B121503F015000A
F1022726F309EFF3
FA08FE1409F50D09
FCFC0D0213F516EF
FC0D0C11F901FC03
F7F10CFF05F310DE
120B03FA15F20E12
030B190EF71415FE
0805FFFD03F7FB19
06EF3E1DFCE3EC17
F80D0D0D15FE1001
FF0501F21702110A
211213FF08F7F705
EF092110EDE809FB
000004F227020EE7
F3EC140DF42105FA
0E12FD0DE4ED07FE
05012E1502D6EF00
040DEE1007F41500
F2FFFE0202FB17FE
1A10F7F90404F90F
0CF82BF0E4F61017
110C1508F709FEF2
F2F71714F81011FC
1AFBEF17DDFAF714
F9011CF2F9E5FD16
02FAF20C0A0A04FA
030EFE0EFA031D11
140DFBFE0A0206F3
08FF25F607F21907
F504191108091BEE
04010CFCE608F2F9
080FEA1DF30BF001
FBFD1CF7F9BFF50E
E909F818FF08FF16
FEFDF20309132312
0C05FEF0090809FD
F9F114F002F00F23
F1FA1A0E200A0B06
021308F6EC1B10FC
08FC0212FEFFEE03
EAEB101307C6E4FF
020B0F28EE030612
EF0AFC00F7FC0F03
1104E50E0811F5F4
EFE50B0D0FE8FC0B
F1120A04F2F406EB
FCF5F5F3FC0213FF
1904F61CF719EE08
02FFFE0603E90503
FE0D0D25C915F80C
EB0CFD0C04F60A21
1CD8F4F011FC05E4
F2E918F203E10805
EEF52101FDF20506
E20E0B02EB0AF9EC
1A0AFD280424EEE6
07FCF8F310F3E5F9
F30C0814EC04F70F
E701F80CFAEDF929
0BB907DEFA090508
F3F922FFF9F5F6F0
FAA53302F80C1816
F40115F5FD0EFCEE
131103130F01DEE4
11E803F80809E6FA
02FEFEFBEA07FD16
F4F4F1FAEBF9F117
28AB0EFCE803F1FD
04F2001413F9E70D
F9B120080A1725DB
F7F512F1F114F620
120F120B0DFB01F6
FFE913F21808EDF2
FE0E0B2409021309
0CF4F2EFFA190630
30BC25FDF718FB0C
F3F7103002F6EDFE
0CBD25F00EF30FD6
F3FC0405EB2EEB32
0202F9290BFD00F6
FAD5F8F3FDDDFAFE
16051D413DF818EF
07060AF404F6110E
06E9F5EAFF050C20
EDEDFA1C10DDF702
08D4F400D6D7EBF7
08E8F8F5DB14E528
16FA040EF8F1F1F3
FCE1150B0CCEE8F2
04D00C450BF02BD2
12EE02F9C71F0AF4
32CAF3EAF0110609
EBF7EA1F29EDDAE0
F9DB07FED2E6D9DA
3E01FEF2FF17FA21
260006F1E6F50502
E0F3E40C09E40512
18FA18F90BCF11EF
F7FE002002FB0F11
FEF8DDE513E5F7F9
E6E5FD0D09F11927
0A0C19EBF3F7E91C
0B1D0D1CE42ADCE7
FAFCE5060001030E
DA150AFD1714ED0C
FDFB0D04FD0A0A0B
0B0D0311F7FCFEF9
FD09F108FEFC0BFA
F5ED09F50CFF020B
0E0E0EF7F7060203
04FC0505F70AF703
FFF1F204F7F40501
00FBF3F6040BF809
050B14EF04FB0104
F905021A0BFF2710
F4E4E8F61DF1F409
10FC05FE0EF4EDF9
F9020F04F7E80AFF
F40C12F2E10405F5
00E2EA0DFFF8F317
F90D01E906FFF212
01063CF816F0FA00
E2ECFD1F14EF0906
F4FF07FC06F324FC
E8EE011AF8EA030F
17EF11F204050401
0A170FF3E3FEEFDA
F00E0E0A0BF8F3FD
EEED0D0104F6F1ED
16F518F526FC0DE1
ECDFD5F2F1E82828
11E1FA0EE7F6F8D7
FAEC02222C1B0A1E
050A11D8FF2901FB
1211F716DF1AE1F3
10FF180708EDF804
E6E91E2CE4EF0FEC
050529E61CF213E2
EBC00A10E2E81B34
FAEC0D0EF4FB0ED1
F3FC02F8F3180E18
0F1E16D4F42E0DE8
12F905FCC00CE9FF
0FEF091616EBF9E2
D3E0EF3213FA19FB
FFF4E7EDF1F9EDE7
E5EFDD06D20F2C13
00F5F103000312D7
12130703FDE4FE0F
E6E00000050403DF
F9F10802002F0DF9
1CEB09F913EEEC11
10FD060338C1270D
15E00AF7F1F9E8EC
E809E2F4DF192212
F9FAEB01FBE8FFEA
0108ED1BF5E2EF04
F1FF050F070CF902
FEEAF6FD0B29F603
2CFD18FE17EA04D2
141E16F2070D0E1E
FCC7FE07F8F2E9F8
FFFCFE17F4142212
E416FC16130020F6
F407FC0DFCE9E900
F20A05F30B072504
FAF10607060AFD06
1B09082C110308DA
0013FEEB09110504
F9E7F728EAF80A01
FAE6E9F7F915090F
FB26F90D1F01100E
07170C04EBEB06FE
0CFCFAFD1EFB20F5
F5E1FD0C0708F211
24F200121EFEF3E5
F4FAE9CB1BF5040D
07EDF212FAED0700
FB01F011000106FE
0FF2FD061404FC03
F4110604E8F3E902
060904F60C0216F4
1AF9050103FE01F5
0FF501F5FC0FF1DF
06FEF3E620E7E705
10DFFA0DF00D04EE
F6F810020C12F506
06F1FAF718D705FA
EF062BFBFD00EDF7
08030C0F07EF0FF5
02F4061004FFF607
230E00060816FDC8
11E6EBFC17F8E807
01E51011F8FC0505
FDF00007F106070D
01F2F1F007DE1110
DAF423FBF512E7F6
F9F1FB0FF6F314FD
19041208110403FD
100E061F120917D4
0201ED1928100517
FF0E0F09E80E0AFF
19FBEEF4FD060112
0F0107FAEDE0070E
F8FA0FFCF21403EB
04FEFDF8190821FF
0C0D0C190608F40E
0DFB04F81400FEE8
050DED242506F4FF
F9FD14FB09FE040C
09F4FF0500140002
1A030912EBD40908
F5FC12F6F11C1ADC
FF0303FB05FC1B01
F2F71910FB0B000C
081505E702071207
0B02FC182216F40C
02F80E1B06010C02
FFFF11050B17FDFC
1C101FF6F6DFF800
F1F31802E7051ADC
F6F208EB13061E0F
FAF9150CEC19F2FB
0F02F70AEC110C0C
F9061D2307FEE914
ED1AF71209FE0106
FD140FFC090BFB02
270518F200F6EB05
E90E1E06F2FA27DC
F7FA02F30F061505
E4F93010E41D1900
09100B0AE8F9F10E
F8002A0F0106F01B
FC14FD0DF80EF7FA
0304EC0B00F60E0A
32F2FDF6FD030907
EE102401F1FA16F6
02F1FB0B14001E06
F40D2CF5FD161006
01020E27E305F419
F3FB29050AF1F914
0B16FB0C08070F03
FC1FF8FAF1090914
28F0F3FEEEF00E0C
0CFF330CE4F71BF3
F004FE081704F9EC
F20D0F03EB0F1000
12FD0F1CEF030006
F30916FC04DF0FFE
FE11FD22F8040D06
F901FDF4FA09171D
FC0005FB06F00AFE
F4162303F2FB06F1
F2FE05FC0AFE26E7
F80D0E0BF1081CFE
14F61133F61B10EA
FB060EF709AA1308
F31B1216010BFB15
F1F1021004FE1D1D
15F5F7EAF7EEF207
03F7020B0CDFFD03
F0EE1D0D04061001
F6FC0407F4FCFFF1
1305F322FF090108
F000FE0809D200F5
F8080D26F1F71413
F60011150AF7072A
01EAFA070EFBF8F7
0100FF0712F10D03
12DE1B03FEF91903
E8000DF2E305F5F9
1607102AF82904F5
E904F40D06E80701
0B091A1FD400F811
FF11130CF8E9FD13
1AD0E8F805F8F8FA
F903FCF306E70DF3
EDE41114FBFE1DEF
DFFF03F3E812F007
0F170434030CF8E3
1005FBEE19F90103
F50A0800E41EE908
F60E0515D3E9EF18
1FCBFCF3F402F30B
F601FEEE12E70CE1
E9D52704F40F15F3
F6F905E6F103020A
130126160003F307
1001F9F511FF0500
0F1A05F8E91BEC0C
FDFEE510D501F726
2BC40D03FB20FF0A
F6F8F704F3E412F0
04C91909FD2E18E9
F004FC03FF00EE04
EC06EA03150406F6
0DF8E704EFF517F2
2EFE011BFB0605EC
1B12EDFA000EF532
3DCA1AE9FD0C1815
DCE3F00BF1F1000D
02DD00EAF40718F3
F5E9F412FD0CE928
16FCCE090E00FDF8
03D90615F6DB02E2
1BFD181D2EED08D6
1129F8FBD808F1FD
2EF7D2F604FDFB18
FCD6DD0804F30011
EA0CE521C402EE04
29D7FFE006EFEF1C
24FDE2EEE8EA00FD
EDEE12E6E6F81CFB
01DB0B29FEF404C8
03F71D02D7060902
2FD4EEF6E013E6F9
E7DFEF2C2B13DFEC
11E4F7FFDB0BE601
220401E8180A1517
0E0E0DFBE61B1FF3
C9F6F210D30212F6
EA1B340FE3E0DFCE
16CEDEFF1FE9EA17
F7E4C9E211E5CE2F
D4EA1D1301152B11
0703EC0E25110C30
10EF393D0F13FDE4
2A300FEB242F1DE7
DF24163807FF0508
0C04F8F7F4F2F3FD
FE0EF80E03F208F9
0A010400F7FCF400
F9080EFE07FE02F5
030A0C0C050EF8F5
F80A0D07F607F5FE
F80E0007000EF7F6
0B0300F8FE0CF7FE
0FF20F03F7F90804
09FEF50905F81506
FBE8EDF50F03EB00
05F70504F4E3EB09
090B1F0AFCEC1704
041C0AF8E6FBF4F5
F9EBEE130DF0070A
F1050CEC0BFBE114
F90A1803F7FF0CFC
FE05EF08F20718FC
F6FCFAF7160BFA0E
10EEFB1105F9F8F9
02020DFE00FC0F10
0814080AF304F0EA
0DFAEC15F9030812
F9FEF5F706FAF10C
230C26E6330013F3
EAE5EA010DDF1915
11E70AFE1D0DFCF1
09F6003336F51324
1FF90CDB151E080E
060AF507C91EF80C
FDEF202119F9F8FE
F3ED1E28E7FA10DC
10F015DAF70108DE
EFD607D9ECFA392F
25DF1707E9020DC4
26EFF7D7E6101B19
FD0D14DD11141BED
12FEFDE9E508F213
08F70919FDFAEBEC
DBE3DC2110F104F1
07F0F3EBEB05F202
E4EDFCE8F412FC07
00FE02FCEB102ECA
1405FA02F0F2141B
F6F10A031B0106DF
F80801E7F810F910
0AE21513FFE2DD05
EF0BFF0B26DC19FB
FFE015F1E4F1F1F7
DA01F4FBEF022517
FDE2E2F11BF122F6
FBF7F121DBD0FF16
E51010011DE710FB
FD0CF9EAEE1DF0F8
06EEF92DFFDA0AFF
F02106FD1222F9F9
11DB1205EBEBEEF2
E0FEF408000C1FFE
00FAE80507FC06E3
EBFE0228E9E403F7
020609FD11F913FC
F61905FDFC20D0FA
1804F11511F715DF
F32615E21A1004DE
08DBF5100DEAFADE
E306E8FA11100208
01080C1AF7010BF3
F22213FBCDFA10FC
1412F6FC0A1226EB
0BFEFE0F0401D513
0EF20A0B0C0500DE
031007E40C0709E3
11DBFF0D10EBFFE5
F01FF2FB050611F0
1FF5E70007F9FAF1
FC0109FCD6E3ED02
07EC020001072FF7
15F8F1240EF2EE05
150BFF0406F804EE
ED0500EC1F0AF4E6
0EE6FAFCF6F401F9
03FDF8F90B0BF6F7
01F7E505F3EDFDFD
F60E14060304EFF3
0DF102EE0B0512FD
24EBF20F15F9ECF1
1BFC03FD1803000A
FFF9FDF91E0FEF0A
14F706FCF5F903EE
17EEFE09031BEB00
0906F612F9E2FF0B
E8FC0EF0FDFA0703
0B1101E7080C1BEC
1608F4060BE20307
06FAF004121209FB
F9FCFA141BF90F17
080415F8F80A0103
0002EEFF02F4FB03
180406FDE8DC110A
06061DFAF612F4F1
000FF2F2130E2AF7
0BFF040D1CF1F40D
190C00FE0D0E0A09
060CDC1520FD05F9
08FDF3FB0B07FF08
18F0FD12EE0BF505
19000B0AFEF5FCF3
000823FEFF0809F7
F910F6F40A0717FC
06F30F1C161007FB
04FB1DE911010A19
F41CE41E20F4FC07
F8F80D12FFFFF9EB
15FE03FDF000FA0A
FE1006F90401F808
F00D34FAEC0200FE
FF0102FB1A032D01
01010F0D130FFC09
00060DFFFA02070D
FB21110C1C04080F
FFFBF828090A07EB
280F0CFAF3F7F807
12FF02FF05FCFA03
EC150A10ED0113EE
09F90B0812FD2904
F4070E120115180C
0007F915F108010C
F2020609010F1903
EC110610F8F90706
181F1309FFF6F118
10000EFEFC02F917
F6111A0BEDF10FDF
F5F4FD171F0117FF
01FA1F0302001CF9
F6FA0B11F9FE0C06
EF04160A00F91607
E21CFDF2FC03FD0A
0D171302F00A0C00
1CF702020502FD07
F8FD2212F4F208EA
FD13070A07FE1609
EFF8230AF1081DFA
FC121B07FD1805F7
F5070911F9F51A00
F40E1D0A08FFFC13
F5160FFFE5FE0417
12ECF7EFF006F416
FDF7310FED0308ED
FFFE09090B0622FD
03F71CF7F1F82101
00080C1103080CF7
FEFC04FF07C41E09
F3000F11140A131F
F1070ED9F70B060F
1ACCF9EB09FDF717
F909090DE400F9F7
FBDF1A0701062501
FC170006F0FD0102
0D01E531FF11FFF0
10F50F0909C71C08
F72D140E05180914
F91003FDF9F5F214
FFE911F104F91214
010EF6F7F70804F3
FA022A09F51620FC
E70105EBDC06F8FC
F6160F2E0AFEF5E4
13F20C0317E1090A
1A0E05F9FC0C1E0A
0714000DF1EF1904
09C8EEF409F406EE
0107EBFF0DDD08FC
12F72D0EF8F800ED
F51003FCD520FA1A
1F0D0319F704FFFA
06F6F3E11FF60D06
06150EEDDA2FEDFF
F610DE08DFE4F724
18B70BF606E9FBF6
FC0BE8EAFDE10EFD
0CFA23FCF01909FE
E80905F3DE12E919
05F9ED03EEFF06E2
FEE6ECE70C0107E7
071A10E9E117EA01
060CE5F9E4FC0715
20B118F91112FD0C
1601ED020AF514FC
F4C60AF6E521FDF5
E2FAF9EAFA0EF510
00F7C81107F310FC
F7DFECF7F1FCF9D8
290B1B0A190BEBE8
2112F6EFF7211D27
46D309FCEF173203
08F8EFFB16FA0FEC
FCCFEBFAD9F11709
FEEE0DFEFEFEF11D
3000CF19E9F20800
E5C4D1FD02FE11DB
34F116FC3714F6DF
080F21F8E21CF20E
1FE7EE0810031F09
09EBE70A1EE0061C
00D9F3F8ADFBF3D1
12DFF9E50BFC041A
4F0DEE08CC03E3FD
0AFA13D8E8FB0CE6
0CD811FD0007FBC9
03050808E0210004
27D6DEFCE311FAEE
F5E7070127F3D6EB
141BFBFCEDFAE9DF
D5FAF90314101F0A
2C02F605E005FE0E
E1F9F8FADE0E02D6
F02A2AF1DE03E5F5
0A10E40912EED619
F5E8EBCA0DE5E733
F1D9FF02ED013028
0918121909EFFE31
3419360FF4EAF6D5
E3FAFF042427F9EC
F41B202905FAF91E
06FEFCF4F6F40EF2
F9FEF20D0EFAFAF8
02FA0A030B07F2FC
F4FCF3F30B0B0A06
0DF9F30BFCFAFFFF
F6F5FE0B020504F3
F50C02F30A0A00FF
FFFF03FDFEF9F20E
F50CF5FD0B0B030C
0B00FB00F80603FA
06FCFDF6F50A030D
F5FB09FDFDFDFFFD
F9FDF8F80107FE09
FFFA00F306F70DF6
0CFDFD0DF6040307
0A01F4F2FB07FCF6
F30705FEF6FFF6F3
FF0B01F5F2FFF906
F9040B0D0B0409F9
030EF6070AF3FC0D
F8040803FC0EFE0D
FE0300FC010E0202
0306FDFD09FCFC00
F50A0CF6FB09F800
EAE91BDFE70BEB1E
ECC7090928DE1030
F52830FF11EC190F
19E90A1516FA1A00
083420DA36032A07
DBF61CD8E50FEEF2
F5111738EFFFE7E5
DBD3E6001EDDF517
DE0711F906100C15
FFE8D4F01DE8302E
2017261ADA0B0E12
341F1DEFE827FBE7
04140FFE272338FF
F00802D2DDED180B
F70DF716E7E3E4F2
DFD3E5DF38C308EC
F6EBF0FBE71AE51E
F4FE1DDDFD092605
2C170C07ED121DC3
201F0E00F029F403
EFF506FB291415BF
EC0317D9D9FC0E0C
FD0F0D1AFFF6F7DC
F20FF4D53AF80008
F4EB07F8F912EB06
E80206E5E6061E02
260B0C05010524CE
2105DF17E9FDEAFD
F31713051CF613F7
06F812D7F00B0C01
0EFDEA2905F206F2
D214ECE52711FBFE
F00109EE03EE11F4
EC1B1A08F2F40FFC
1A10E80719111602
0C131612D1DEEE03
010C0602110112F6
08FA2CFFF509F8F3
0106000509EEF7EE
EF1C03E81C2615F6
F7041A0E0FDC1FE2
CB2B0300F8EB08EC
0A22071407252003
E916270AD4F5FE0D
070DEF000E0CFCFA
050718FBFEF1C5F9
F8F3F8F909E209F6
0225F3F5080C2AF1
FDF2FFEC06F4FCDF
CE000FF6F7F517FC
FCF90519FA16FE07
F9090CEAE1EEFFF0
081CF90005012A13
0C0CF90211F3CD02
25080113010012F5
EFFAE6E31D1927E5
0FE80001FBEDF4EB
FDE8F8EB10EFF5FF
0AF4FF1AFB130CFF
F3110108F80E08F7
171012F00E0F2802
13F5140509E5C7EC
04FF07070C1217F2
FEFAE8E61B0511E5
08000806F904F5F0
02FFFAF9F5EFFF00
18FCF21AF400F407
120710FE0D18EAED
FA11F3E40510190F
21FA0BF5F6EBD5EF
070FF8081D11080F
F40BD9D615FE1B05
14FC0AF50F0301F8
FCFD041706F8F104
07EE0900F7060913
F7050BFCF21CF7FE
ED15F3E0100C2606
0915F80E1BFEEAF1
0414040C10112310
FD07CEF421F4180A
11F606031305F3FC
2B07FD0FF90EEEF9
01ECFCF61000F510
FB0220FEF316F6F5
021AFAFE09F624F3
0213071B1013F3F2
EA12012003232115
F90BF60B0C06F804
E6FB0E0CF90FFC04
FF1C0C0406FA0C0F
03FE02FE080A01FC
090F0F0AD810F4E7
FE0409F012F41CF3
F719EB15071009FE
F300F415091A1314
F70BF40509F92C15
DB1206140A060EFD
0A2E02FBF804EC19
0CFC1F0EFD19FA02
090F090AF115FEE9
12140B11151A27FE
0204F307010A1500
0401FE0AF6060FF5
0712EE050EFA320C
F522EB0B14110709
06150208F8F7110A
14F918FE05F7FAF8
FC15051F020A09F0
050C121515082803
1BFCF700FE0E1C06
1308FB17020F02FE
F822F70D0307241F
FA211AFCFE0BFA1C
0F2B0EF9F010FD1F
01E40405EEF00913
08F3FB17ED10FEE2
1413F414260230F5
09F0FAFBFF101204
190CFD10F814FFFB
F6FBF703F90217FF
08150C140D080D08
FF32FCF1EC15071C
06EDE50A02F30B03
1A160112F81D0CE8
10050B1A0E1222F1
051DF7FFEF0006FB
FD0B001E04101108
1107EB0A03C7FAFD
F31D140A07180B05
ED230CF9E6090911
06D5FFF113F80801
0810F417D2F603F0
1FE632030A181DE2
FB280504D804E8EE
0411E51F08061FF1
1FF2EAF106A7EA0B
090EFA0018111413
F41A0703ECF90D02
03E0FFF318E9F307
0710DEDFF3ECF5F4
1AF728110E0510EC
041BF11BC4180E14
F4FED71009FC1DF3
16C7EEE1FBCDFFF4
02080EFCF40D0C16
1818F8F4DEF00900
1EEE02EA19E3F3F8
10F9E3E901ECECF8
0701251300F70BF3
EB01F603DA290F27
FDFEE202F70505F1
F4E1E3DCFEF33509
FF050B090218100B
0E19FF04DAEB0003
1FC7FDEE13E8EB07
EDE5EDFA02F314EA
05E71B0CF120FC09
E014F403E615FC20
05FDD1E3DB0903FB
09EFE8FDF3F326ED
13E40D010B0AFCFD
F61DF2FBCBEB1208
14B406E9F6F7F6EB
0FDFE80326EFF6D2
F9F8F1F6051908DA
EAFE0E0BDC0EE93D
3807B9ECEDF606FB
FFE00701D70C21D8
230A1DFB260D12FA
E0120B10DEF02214
0FEB1CF3FBEA23E3
20E6EEED3DF00300
06E4EFF4F90B18E9
F60C080DF0E9EF2F
2806D71AE5050E12
00E101F7D7122DD9
2BE92DE8441107CD
E7F6FA140CFC2814
07EDF7F101F3250B
09EDF2ED27F10819
21DE1BFFE5F8EFF9
FAFD010316F1FE11
2E0FCF1ADEF8DE25
F9E9F9DAF70D0EEA
11EC2706FF0B02D1
F40A1220F40B12FF
F7E1F203F70A0FDD
F3F8FAF415EEEEE4
1C110200F303FCDF
E500E4FE1E160B07
20E4EFFEE0F9F40E
07F6FB14EA021CD5
060F2208090E0800
F51BF828E8E51C18
0EE8EDD61EECEC25
22F2E2F71AEB1528
1227250AE0FAF926
02132F0ED5E5E6ED
0CF1F502EFDFF717
E1FE2005041DEF28
02F50E06FCF4FBFD
0C070C070BF5FE0A
FF06F30506F608FC
0B01030B0EF90102
07F601F40AFAF9FF
F8FDFC0E0701F700
08FF0CF90B06F5F9
FC0CF7F9030B0205
0102F90CFA0104FE
FC07F9F4FFFD03F4
FA05FCF407F803F3
0E0EF4F80E00000A
010E0A030B0C0D01
FDFD0E06090EF401
FBF3F305FFF6FA0B
F6F5F2F4030BF5F4
02F904FCF90801F7
0C0909040AFFF507
F404F90B06080408
F9FC080401020E0E
0C0BF3000C05FA0B
03F9F9FAF40CF605
F60DF6040A07FCFF
0AFB06FEFDF4FFFD
FC051DF30BF00508
F309F5F606CC051F
F0220412FE110B13
030F0107F6F5F3F2
FA291221FAFFF901
F221FCFFDEFAF8E2
F311220101F50601
05122005EDEBFA09
D6130EE71AE5123D
EE13C23016D1FFFB
FA362633EC261825
2723130AEE17D9D9
011815000625090B
FF210AECDCFD17EC
D80DF5FFC4D20502
DDF9FBD33CD7051B
F8F72D0722FA211B
DD26D50EFAF513EC
1D191127CD400AF8
FA16FB27F926FA0D
08F0F5060C33FD05
1A2016E1E7E107DD
EC302AF70EF10DE3
FC21FEDE2302111E
05EA17E71517080F
F02BEC16E5130AD0
0C00013EFF53E2ED
FE06F61FFB170107
11F1EE17041FFC0E
14160CD904E500F6
DD15FEFB23ED0AEC
1037E4D626112F09
EE030E120CED120E
CE47051DF8E9F6ED
1506082FFF3E020C
0B1703FDDFFC11FB
01FB09FB0D1D0CFD
0E151BFDF5DEEAF6
EE06141131EE01E6
2313E8DC16FB2D14
E109F50720051201
E74DF20DFCED1AD3
2617093BEA39F417
ED2308FBEC0B0608
FE0CFAEF0C08ECF6
E9251AF0EDE3E705
E50800F21EE2EEF6
1AFAD5E91F063A12
F1FCF504F4FD1E03
DC0EF30EF60117F7
1C0B032CFF1BFE0E
FC1914E5F0EE0B05
F4FFF105210E00EA
F31200FFFAEDEA12
E215F2050CF5F302
02EDD4EA150B2D07
FCFF0F0504EDF812
EDEEF4FFFFF91317
110BF4011718FEFF
091312F5FCEFF915
F8061E110E0F180B
0BF213DEE9F2F6F3
13FE0022080B0EFB
FBE805DE13101D19
040E0A07EE020807
E1EE1008FF0AFD10
130B111FFA11FE01
0C0402E6F4FDD407
F80B120FF81A08E7
1CF0F8E10700F401
F901EE2012090C08
F0F510E811F2240D
0B1A0B170E1B0812
FD1020FC200BFC02
06101B060B0E0EF8
0A1518F4F219E204
F1FC0BED0B1D0BE0
0702FEF60306E4FC
EEF7E71D0B10060F
F30BFAF101F70E06
F805FBFB070A0017
2AFD12F721FD0003
021510FB071FFB02
0C1220FAF714DCFC
DC0AEDF011102BFA
FCF4F9FD0E09EBF9
0204112C0524200C
F703F6FF15E901F4
F0FE05FEFC1BFC11
1C24080114F70911
050816F008120301
072110150A14F4E5
040501FE0F0D2107
19FDF8E718FC0AF4
F012FF260A150AF9
F3FFFA121DF60BF1
F912FC220A0F110F
0212FF040E0CFB09
0EF82EF3F9011218
F01CFD020433F5DD
140C08EA201F0FF5
1E0FECEE0F0D0DF2
05090906F51007EC
07EA121D080429FF
01100316040406F7
071406090C150011
0AFB23EFFCFF140E
F20F0602F918FAE6
06E6031B180C20F7
1FF2E4EFF40113FB
13FD170BFA00F6E5
05EA10150712200B
061315FBFB00FC14
1625F50CFA150A02
060112FCEBFC0315
0E0A03FAF7F9FCE4
14F7FB0D120B1419
FAFCDBF3F3170D08
1BE60F1BDF05F7FA
0BF8091D0ADA00F5
ED27161602011004
0D2CE5F9DCE507FE
2017E516F21F0228
F7F9050E040505F5
0AE6F71FF50C130D
FB15FF0BDAFBFEF1
100C1527C607060A
F50615F408A2F603
EAFAF306DC0514FD
1920FFE8FC02EC2A
31E8E2EF0801E927
F3F6FA04FAEA0EF8
15D90A0413F82B04
031DFA0CD9060B0C
1E10E51AE92400FA
08F509E911B8EFF2
FEFFD112F9110E03
1F0717ECF1F3FE1E
2BECE9E710E8050B
20FCE9EBE90508EB
16FCFCF506060ACE
F50EE404CC12090D
0511DC04EC2C1002
0CE0FDEA00CE13DD
1AEDDA0E1DF423FD
15F40B0BE8EE0D0E
0C0CE8FA05F908FC
28F20700E30BF112
F20DFD1BF402F0DE
FF0EEA08EC030B1A
2804ECFFDBFE2902
0BFAE5EA01CB39CF
10FDFB1B17D81FEA
F612F20FD7C71916
19EDE0FDF3F7FA0C
FDD50316F5EFDD0F
061EFC2DF118F0DE
DE13FE09ECF9E207
1F10EDE0DBFF1EF1
F5FCF71514E935EF
0F0BE6F61E0418EF
E204EA1DF3E12B13
01D5F3F3E505EAFD
29EEF7E213DFC9D6
FD14F105E400DECA
EB10EFEFE9E9F013
07E7BBF4BEDCDBF9
F2F41802010F05F0
22EA070606F90FF2
E200F11DFF041FF2
04F0F124E71812DA
1DECF8E12AF3E8DD
F2F3E4E0DEF4DEDE
0019FB0002EC0138
2EF4C9F2D4DFE918
FAFB1BF3DD0A15EA
0AE518FA1A08FFE6
F9F301D3F0FE0E06
28F1EFE9F2D200E4
F2E30DFF2D11F404
01F7DFE9F918ECFF
14F12B0CF90CEA1A
270CF414E32512F3
EAF111FCD40101E6
02F11105070305EB
F2FDED00F8F01304
1BFCFBE30FF1FCF0
F8FAFAED0EFEF90A
191BEFE50E150611
11040F14F60EF301
160915F6050808F5
F8ECF603F003FFEF
E9E808FD07FA0BF8
F7FFFCF00DFD0116
17FF07E208F80F09
F6FB0E16131B1309
FBF2FDF40B090809
FCF91615E2FFF6FA
19122119020B1EEA
01FDF9FFFBFAF7FB
F7000200FFFFFAFA
00F409F90D0200F5
F606FEF806FF0AF4
0A00FC0400FCF90A
FCFFFD09F6FDF8F3
0600FD040503F4F3
F4FFFB00F7F8F4FE
FEFAF5FCF60BF70B
FD0207FD07F9F80E
00FBF20D070A020D
F703F7060C0E0606
02F6FC090EF40C05
05F8F30A0BFB09F4
040607FF020A0403
F808FD06F3F5FD00
0102F80EFB090C0C
F4F9080D06FE0E04
F8F3F6F6050CF6F8
F60B0DF8F5080702
F7F7F20B03FD0000
05F307FFF7FC02F5
0D0208FCF3080B03
F9F501FA08FD0BFB
0905000EF90D05F8
19EFF507071615F9
E80CFD21052D0F13
0BEAF2FD070BEBD5
2BF1F4E613F0F0F6
10F5FCDB060826FC
F3FC1500FF0A1F14
02E8E31BEA07E610
F1EEEEF403FD010F
0B0123CF26F90116
FA1D1AF406E9FFD9
032900211D1D2116
E6161D28EA1EF804
0B090A17DEFBE7FA
0B1FFCF2F2FA0DF7
001F14EB22021601
1E19FE0007351A12
F22119F922EB04EE
DD35031CFFF50AE8
180CF921DE24EE2B
E92102050518FA01
15CBF717E803E611
FA2605F4FAF8EFEC
DF001F0E0CFC13E3
1120F22B2B2C370D
1DEDF50721E32F03
EE3A0524DEFE2CF3
EFF0FE46F441F2FC
01140AF52717DAE1
EDC7060C0410DC07
E01D02F40E1AE208
E1E12323EDE50124
0EF3D404231F2621
FBFFE71AFFF1FE0C
E7390DF700EB1E0B
0CFD0D06192520F3
FE21F3F00211E7F6
E9F1100709191611
E034EDFA0812F7FB
E9FA0D19EB02F1F6
EAEAD9081FF5171B
E500E90006F9160A
E15BFBFB0F0215FB
1A1609FEF8261EF1
FD11F0F500EFD018
01F3051FFE1316F3
E41EFCF40717EB06
F2F52FFDFCEDEEE4
FED3BC061DFE190C
EF09EEDBFBE722FB
E036E716091A1206
F003ED12D7141100
09FEDFF4F5ECDDE2
06ED0F0408FC0FF6
E12EEDDEF504E6FA
DF0D201513DED816
FFE9D4E6161011FD
F300F7EAEBEA0A15
F816EA17E11012FA
F820E212F61708ED
12FFF3F6FAEDD7E0
DCF0F3FC00E913EB
161ED3C7EDE8F9FE
FB20212318F9E00A
F5DD06CF070B2B0B
F11EFFFFF0031020
1230110BFD03020C
DB0C200AEF23FAEF
0D12F7F7EC0FD1F1
FBF0F6DE131F0DE0
06EDCBE3F704F90E
F70005FB1204EDFD
EAE6EAFA07F331FE
FC1F0F0CE9F50B13
242712F3EF05000D
03051C03FE040602
0C1CEA04E412DCFC
EEECEEE5EF1D00E9
08DFC2E701FDEEF6
F30E11EAF4F40AE6
E6F8F108FFFA4004
F0FE0204FCFA0B24
1515072706FA100A
0F072207EF06FCFF
F610F70FF016CDE9
E3DEF60AF9FE040E
00FACED5F512DDF0
FE0C140FE3EDF903
D10CF4FB13FB1BFE
FE11F905F7FB1418
1222051C16030609
05F80916F71E030B
FD05FF0F0A13F5DD
09E1FA220AE505F2
FF07C6C8FC0015FA
09FCF21DE5F408F2
DAFEFDFB0E0A0107
180DF20F17F31320
FB1A1C0D1A0403ED
0DFD2215E6EE0FFA
FD140500F208E1FD
23E0F20B10F500D6
200FB5F00DFE0DFC
F8D90E08ECF20707
F408080DF5F709FC
00FCEA230DF5E40D
082C08F81D150E0B
0406280FEF021E0F
0123F610FD22F903
0BE8D10CF316FBBC
0DE1C2F42AFFFC00
11091C09030004DB
E6FBF422F6FB3BDD
0DFBDD270B00EF1F
19370302FE180D07
18082417E50B2111
0A150C14021903C0
18DBC010FB1BFED8
F6E9C1F92AFCF1FF
12FE070AFBFD19F6
F2FD051D03E72ED3
0F14DD11F1F70017
211D0304EE101306
2C0906FFF913F90B
F602FE08FE190CBA
19D5F9150227F9E5
C8EBBD100B09F308
1A05102DEA0725FE
E4F5000DF7BF27AE
FD05D315000D201A
172B01EAD20DFA15
1613FF11E30F0524
FC08F10B000B16E2
1CBE1307FC17FDA3
D808DEFBE6F91515
0AF5E303E8F9FB15
FBE41EECE3CA39BA
00F2CE0A0CDC1D0F
28F213E8C30B1717
102D0C14EC14041B
0EF2FD0CFB11F3BC
0BD5FF1BEF080DC4
DA13DED704110D0A
1E010A13E319061D
DCEC03E8FEC718DB
1BD9C40DFEC82800
0EEB1602FE16250F
0000F304F00B09F3
15E5E7E5FB02E4B6
14ED131BE712FADA
F708E2E21FF3FA1B
19FF28F9CEF820EC
F5E3EED4E0C028D7
01F8D50EFBD60CF0
F3F2E6F5F3FE180B
FA1603000004E100
F9D7EDF71407BBEB
EE10F032E70DF9E3
FBFBDEECEBF6F21D
00F30EDBE80512D1
D50B34F7EAE027E5
FC00D70D0108E3F3
0CFACAF8FE0E192A
0D2F01E7F5E8D919
1BF701CE1708BFE5
E71FF121EFFFE70B
FC0200D9E3EDF71C
EFFFF3F4DCF0D6CD
E8E53AE8E4F110F1
0605E204EB0FE9E8
EC12E103F7F80013
251FF21EFDF7EEEB
12EEEBDE0CFBD9FC
F71816F9CB0FD3FA
0B1A0EE6E5CCE536
040008E9D5F8E9EF
F6E91CF9F30AF905
EBF710F6D510FB09
0AEAD9E41BE1E70A
2BE1F7160DF50116
0504EB0E121CF7F9
E01FF20AE114F70A
05EC26D7E4DC020F
160CFBFDEB17FADF
E30D14F70F07FB19
0A031EF40EF113F7
F200F4F3F4ED0EFB
070BF9F70DF2FD00
F4FC08F21111FD14
0CFEF0F21405040E
0BFB050BF90CFA14
1E1C0A09150712F8
EB04ECF71BE905F3
01DE180409F1F603
F5F6E5EAFFF70B16
250205E409EE0D09
EAFE121C0A18FF1F
FFFFF4E60E0DFA02
06F40514F80EFBF6
0D092900132118F5
F9EFEB08F0E1FEFA
0901FB00FB0BF9FD
030B0AF30AFD01FB
0EFEF30501F7FEF6
F302FD03F6FCFDFF
FD0301FFF407F2F6
05F9FA0DFDFBF708
020EFC0EF403F6FE
0C0BFA0DF3FE050C
0E01FDF90101F3F2
0D020DFBFCFFF603
F8040DF4F6FBFE00
0E060BF401F5F507
0AFAF7F4FA04F5F3
0802F800FBF9FA0E
03F706F30E0AFFF2
F502010DFBFEF700
FA0AF8F504020EFB
010B06F3FE0DFDF3
0AF307F803F3F4F6
0CFA0B0DFAFA0C03
F30E060C0A0C07F7
FDFB02F5F20DF40A
FB0EF907000908FD
06F5F8FAF60EF7FF
FF0AFBF503FFF6F3
0902FC0AFE050AFC
F405FEF7F9080DFE
F8FDF701F30700F9
F4FCF20AFA0901F3
0BFE04F403F90CFE
0EF70DFDFE0C0C0C
04000AFA0B0C0902
0708F00BFAF50DF1
F703FA0DF8291E0B
01F40000F212FAED
15E6F6EE24F1F206
18EBFA0A0006F2EA
EF00F9112023110C
F6E6060303FAF20F
F1F6F4090BF70AFB
F205EF15EAFAF2EC
EF16EC1113182612
1DC1E4FDE8EDE615
25E1F3EE17E40504
F8E4EBF10BE6F924
C9F80A0E161FF415
FFEDE70A0B26F205
F6DEFB3035EB0014
FFF9D9FFFCE81BEA
001FF534E4EA3013
CAA6FD1025EDF2E2
2CE1FCDD3309F0E3
ECDDEDF10DEAE500
CC040210142FF910
1ADDBB08D71F0A28
F0DAFD341EE8020C
FC06F90401E624E5
E13B173FCCEF1DFB
C5C1E8120A171202
36F200EE1601D2D0
E8C0EF0705E7D50F
D5F2DEF10E1EFD0C
02EBDF13EA091B2E
0CFFF11126FF0910
0408F70E0ADA371A
E4381D3AC913FDF6
