0A0BF5F805020CFF
010A06F800F5F7F6
F702000D05FBFCF7
0908FEF9FC000400
F6020E0B0BFC09F9
F4FB0A2201160B1C
020513F7F9F90C06
FD080AD5E1112D21
260F1E240A303A26
1C2911FFE60000E5
0AFC0A04F6F6F2DE
D807001F2B242B19
1A19232C0DE5E4C7
E409282715F711F8
07F7051DF909FCFD
1D181B2123221F06
ECDBB6D2E8242903
041519020508FDF4
07FCFFF7FF110D0E
09EEEDD4C6AFD3DF
F8F6E4FE1F11E5F6
F70519F90BFCF1EF
FD130A11FBE1E0D3
CDD9FDFD0805F7F9
0DF8F312F7220B01
ED0C08070A170C25
1A02DFD2CDD1F904
FBFB0200201B19F7
FC2A1AF3F4FDFB09
051623221AF8F3DC
E6EB120316FB1403
140FF5E40F15F3F2
FBED04FE10110530
2D08FBEEFB0C2314
29271F141023F6F6
FC0E0FDE01F3F2F9
06FF11351C10E7ED
F51D1C0E242D0B05
13FC09050DFBFAF6
191FEAFB04081C1A
1FE5BCE9F81C2010
04040A0A00FF0B03
131BF7FFF8FDE1FC
0D0F121109D9E913
0E0807F0FC081603
190D19FC09090BEC
FC140409200D120B
E6CAF408131A00F7
FE02F7F407FA18D7
FF0E31E2F9051010
12000DF1D1E20B0E
0DFFF90F00FD130D
070809F2F6FC2826
FBF518110608EFDE
D7EA0D050206F80F
F808170EE1EEE805
02050D16070D180F
16F7E9D9F4F20703
0205F4FDF80E07ED
E310E8F7F5010CF5
100203FCFDCDCDF2
F2F31BFDFE0B01F6
F3F90C05001EF7E4
1D03FAE8EEEEE0EF
DCE2F9F9FF1214FA
0112FF0314EB0011
F91BFBE8001512DD
EAFDF5E707F5F6F2
07F706F2FCF1EB0F
09F3FF15EEF00CE8
F81211E6E6F8E1F4
EEF4EC020AF408F8
F901EFFC040CEEE8
E4EF0A04FF000EE2
E5E8DBF706090213
0B100D0111EEFD03
15FFE2F204010208
F9FE13E8EAF4E6FC
FA0B0C09F5FBF9FE
07F4F3110E02E7F0
FD0414FC0204EE07
000BFF17021C110D
ECFCFCFE01ECF901
F2F4F3E2F8FC0FF5
F8021627040403FC
05100B160B130C1B
060AEBEAF5E8E9EA
DCEE05FBF505DD1A
1415170910FB010C
1408181A070413F9
EDF6EB131001FEF4
09FB0405F2F0FAE6
EEE1CEEAE2F3F103
FA05E5EBF0FCDBF1
FF120BF30D09F3FF
0E04EAF7E8F2F7F6
F723DFD3F0060610
0ED7FA1901FCFCF5
FF0B06F5090CF604
F90D01FF050AFDF4
09F906FFF905F8FC
FF0D0AFC07040408
0B0E0107090011FE
F4EE17F6E5F4F7F5
08FFF7F9FFFB0805
060801F1FF0E061C
1016160B17110C14
F1E3E6EBFAF9F30C
1D0B0201F50900E9
FEDBD4C7D6FEDAE6
E5EFF6EF1710F30B
F8031F161419EEF6
07F507F40003EEF0
EFEEE4ECF9F90AF5
F4F1E9020F000B0C
EAEB17F5FFF614E8
E6FCF800F7ECE8ED
FDFD0D090BFFFD01
1818080602E92205
FD0BF3F3F0D7EEFC
EBE4F0F408F4060C
1C1814FE1708011A
0B180021FDF1FCC9
DAD3D1FBF1F5EE01
FD0604001801FF03
201D1517EC2D2AF9
F60B0FC6E1D5E0FE
E9E7F8040E071004
FB0D0205FC1E131D
202E24F709DEEB1E
DCEADDE0ECEE0413
08150C1108EFF2F7
E8F20D24223F11E0
00D3DECBF3E9E5D2
D0F1062128201812
0BEFE8E9EAEDFCFC
F20A10E704EAF9D1
022502E2C9EC070D
1E0E110D0CEACFE5
E7E5D9D6D6DE042C
02F9CC003505EEDE
E0FA00FFF0050607
0CEFEBDDDEDECDD5
C9E71F141502CCFA
03F3EFF2F604F7F8
F3E71221090FF3E9
EDD4CED9DAE60C13
09EDEEFFE9EFFBFB
E30E07DAE2FA2120
17FEE6F3E9CCD0E2
DDF9260705FEF90B
EBE4EFFE0A09F9E3
FE16220A20FCD1D4
DED8DDD5E3F7000A
F900E10CEFE6F40C
2107FEFFFD12280E
FAEAE2C3E2FE09FD
FF1B1D1CFCEEE006
F8F9FCFA131D2612
0B0F140DE7D9E5F2
101606110A081236
17EED2040CF508F7
0A10160C111302EB
D7ECEFFA14FF1415
1A040528FFE0DF00
03E9FD0901121600
0C12F4F606FDF402
140B0E1E14151303
08F3E6EFF9EF0800
000E170C11F20409
18250E121B090C10
FF21FEF7160AD5F0
18170C15071907F3
F4F9000307151522
1C0CF715202AF3F9
1A18F2E821231208
100AEDFAF8F50C14
06032226220BF009
191CF4060AF320C5
140C02F703F6EAF9
F6F1F90308081537
24FB0A07FC02F3F8
0CF5E0C8ECEFEFE6
F7FAFC0DF0F105F6
F405200DF0E3DCFF
1A020600F50CF10F
F8D6E7F8FEF1E5F5
E9E306EDDEF0E0D5
D9ED06DBE0050BF4
0907FE0E00F7EADA
F90C0309F7E2F0EB
D5E6EF0B0DF9EBF4
F9F303FCF5FC03FD
F6060212FE0A09FD
0BF61904FEFF010C
100EFE0100F403F4
0A07F80702F90DF3
F70AF9050D0E08FC
01060803FE0A05F3
FFF70200F8F6FFFB
FCFD1F1F1D24160B
290FF046382E2127
3128180B01040CFA
FCF704020301291C
18FC202B161E0714
322B2A03140E1929
D7E1F700F306F31E
25F60D13FF072614
060F14170D080F05
191A01FB2FE3F40A
FDF9E7110704ECD7
E1000D0401040A18
0C1916FCEC011519
212F330C0A0CEDFF
FB20EBE2E800FA07
0C1F1505FEF907FF
FA041E0A0F020206
09071DCAB6EBE6EA
F4FD111303172824
1E0B0311FA021EF8
05FC0C0D04DDFCCD
A3D8EEF70DFE1F1E
1C141E1E1F00000F
0D05F3DBE0DDEAFE
EA00EBD4D5F70500
F9FB020A1423210E
FEFA00F2ECF3D5C8
DBDAE700F2EAE0E4
00F60A01F10E0A11
0705E6EFE9E9E4EA
D5E3D4CEE9E9F3F7
03FBDCCFEC060507
081B06FBF9EDDADB
E0E5EAD7F5E4BBCE
EC000701FEEFE7E8
010F0BFC031608EB
0CF0EAF10106FE05
1003FB07190821F7
F6F6F3E20C0A1E05
1904FA170007F509
F3FE0E120B01FB12
F1EB1B05F7F7FAEC
091D1510F2F81005
0AFC06010719F716
0A0D0E0AE6EF05FE
01FFF1DE0A07F3FF
00010F17EF090B03
060B08FE050C061E
EAEC06F2F50BD3EF
00F000F6F8FA12FF
FEFDFCF906141F08
0411F2F603F8DFEC
05E902E2DEDFE3F1
0604120711F8F0EB
F90C081406EBF4FC
09FCE8E401F1E405
E8D9F8E9E7F5FA12
12F8F9F9FE0C1111
0902FEF004E8F5D7
09EFE01D0DE2F5FE
F4FC070CFCE7F4FC
0A0D0417FDE7F102
1805E0D50AEB0D17
F7EAF9FDFD05070E
15E6F503F0FC130D
FFF1050D1413D4D7
F4FC1313171606E7
FF0007FAEDF0F7F7
FD00060706ED0C0F
0A18C7FDFDF3E619
242602F90A09F2DD
E5E6F6FFFB030A05
F30412020D08E50A
0BF0DE080DF9F606
F3F500F4F9F51600
0805F8ED06E80324
EEF71BF5FC01F224
1B190FF901ECFCFF
FC081205F600FBFC
0AF3F5241AEC1FFC
FEFDED231601FFF7
0AF7FAF7F105070A
060B110B12FBFD19
1ADDF3010D060F13
170308EDFB0BF5ED
0C2216160C0B111B
0312FE131B0DEA08
0AF40D040C01FF10
160DFD00081B232D
31162C1710100B30
02F70804090309FE
04F4051112E1D8E0
DAD7FF0B13021514
0AF8DEF8F8FBF7FB
04FE0507FA0AF903
08FB07FAFE060CF8
FBF9FEFEF900080C
01050908FF010DF9
FDFFFF0600FFF9FD
FEEE0A0B1A16ECD6
F300E4E0F304F90A
FA0C03F5EBFBF1EF
FE0EF6E9F1FDF70C
0904FCF4DBE5E5F6
0C11F40D070AE6F4
0004E5E4F90D0CFC
EFF3161F23FBF61E
010912F9F30ADB02
FBFCE1F6CEE8E4FE
FD121B0407010F11
0E1E1B11241C2F00
F90610FA00F8F8FA
EDEEE40F111C1B18
0B03020309040710
0A1914FAF711F6EF
F5090104FE0C0508
282104EFEDEEFC1D
0905050BF10A060F
0CF80DED0C07121C
FF02111E10FE07E5
EC0D08FE0B0701FE
F9F9F50B1007F6ED
20231E180E062D22
16F101F8FC070B0D
F3F40E00E6E5F302
030105F60C170214
EF190909FCFBF7F7
050008150AEEEFEA
F9F6F60EE1050FE4
FD1F2D02FF040B16
F90711F300050D24
0DFCF8F5EDFAFFFF
DCF21BF2041AFE10
EF211F18091009FD
0E08F61704FD0FF8
F4021BEED3F209D3
1212100CFD170017
1D06131016E4E912
F50403FD0C2D14F1
F9F2FF0700F2141A
150001FE001D0507
0CE9F0F201051009
19201EFF03EAE308
09FD02FB150701ED
0001120F03F3F50C
04170B16101D1C19
00F30C020C041203
FD00FC01FE09FA01
F6020909001A0E10
22251210F9062C0E
03F0F10F0DE707F2
110814EBF4071D00
FE14132B32372F00
F6F6302803F00209
0E03000301170305
030D0AF7F3001C26
1D190C0603090E27
0AEBFD0F371A00EF
0D16001205020206
F90E24272120020D
0BFB2007EB0F0F14
361CFD0F0618050B
FB08EB07FE071320
3113091708FA070B
F5FB1608290AF420
18190E1A120AF20B
17FDFC111100FD07
0BECF7EEF8F9FAF3
17F1F11A14140201
05FE090F11FDFC15
0B121E02F6EFF4F8
E9FEFBF308F8EE04
00F6F0F60B0B1603
0906012416250BFB
FFF8EBF404F605F2
0AE7010FECF9FEF8
FD020E0F111F1A17
FBFF0CE8DC09F003
04070EEEF5F70AFF
FCFEE40CFB0A1B15
10150A04E5FEFDDA
F30603FF0207F218
0FF91813ECE305F7
E4EAFF09F7F6F2EF
F711FDF9F903FEFC
0107F9F3E5DFE5E9
F700D3E9D6FCE9FD
F9E4FAFEE2FE01EA
E40109F808F4010D
080AF3FDF0EFFBF8
D70FD1D4F9FADCF1
F300051F040D0405
FCFE0106060DFDF8
FD0705F602EFFD06
F3F5FAFFFB06F5FA
0AF60D020605FDF9
FAF4E3F5EFFEECFB
F0E5EDD8F3EBEBE0
E3F8F3DEF3F60601
0A05E6EBDAE6EEE3
E0FEF5CDEFF5DDDF
FF1A061CF6CFDDCE
F814FFF9FC070AFA
05F6F5ECF3F7DBE4
FCCFDF00E8000504
F0F6E6C8DF01F7FA
06F0FAFE03000402
F2EFE9F4F9F1FE0C
05F603F9FFFEF9F1
F2F21D08F308EF04
03F90E06F2031509
0AFFF2FF020F05F2
F101FDFDE0F5EFED
FF01FB0A0E140A0F
0C1F170C0FFD130A
FEF10A0C0C0100F2
FEF41608F5EC030A
0D0600FE13FDFF05
0B01070203090405
0808F209F80F090F
F0F412F6050BF9F5
01FAFF0502F6F004
08F6F60EFD15EF09
11281AFBF6C506DD
0600F1F706F604FE
06150D0F140D1004
0B09FC01131BFCFB
F6D9DDFE0205ED08
030707030AFFFA10
FE03051202F2F7F1
0314180103E2DC02
ECF3F2F306F0080E
08EEEEF2F6FC020A
FCF1EFECE2FF120E
F3DFFFE901F90AFF
04071B0A06EDDBEE
EF00F90B0DFEEFE2
EBFC15F80DFDFFEE
ED030500F4FFFA12
1313FEF1FE17050B
2004F2DD05FD1DF9
08F7E209100A0700
F6FD0E141E071312
180A070210F60800
0DFA2514FE090207
0A1010F00209040E
1A0D142212FC0506
07EFF5FE0F122B1D
041211130BF1FAF1
EEF2FA05051E1818
1A04061F020FFDF1
FC1E240AFF05151C
1BEEF6EEDEF2F7F3
E91020220C001F0E
0F14FDF8E806160D
F4F1052E280806F8
D1D9EBF7E9092210
14090D200010F203
0201ED1F09E2F436
0D09F8E7F0DDDCF7
E107101519050818
070A03201D190217
06E7283723FB01EA
F1F0F2E5E5F10210
040F141C1C0B1628
1E3206100FE71510
0C12F6FDFB0CF7F0
EFFEFF0BFA080F12
111E042E3A2405FF
FF02211A1C0909F8
0111F802E3F808F4
FF0D1B1E1F131341
4C3015F2F3020F24
21FD0A1202091212
F4FB0100000B1520
2D1D1F2B0E2320FA
04FBFEF610E5111E
0B0C07FDE40207F2
001A14382E282729
1922FF09F3F61CFC
F11212040C17F1F7
FD1511FC080926F9
2417252A1C04FF0C
FEFEFE11183021FB
0902121906E6E5F2
FAE3D6C7ED0EF8FB
F0EEF6FD06F6F7F6
08F4E5F7EEF9F1FC
0BE9FB0802EBFEEB
0603F1F60BFE0109
0CF6FE0907090405
F5000DF40B030608
F9F9F708FAFE0C02
09F6FBF6FD030306
060401FF0A14081A
270AF42937380505
0D0DFBFC0AF7F507
F8F60C2B2302FC23
1A1701210C0BF1E3
EDEBFF272A290F22
03FBFE020AF3FE1F
18E8F9F60A1E0E07
2018F6DBE9FC062B
280701FD1D0021FD
FCF7F40CEEDFC0D8
DAF3E7E9FEEFEFFB
EEF8100C0807F5FB
071109FEF5F4050F
E8DBF4E7FF1515EA
E4FEF60007FBE3EC
FB0C06FC0B0505E3
0106172203FEFFF7
14E8F30402FBFCF2
FCFB05F6F3101A02
FDEFEDFC06013817
1309130DF5EFF60C
FCFF020300130805
FFFC11150BF0DD11
1A21EC1603101008
0EF7181515040302
0C0E000203010F1B
0DF1F5FC0A38F20E
1411120B020B1C1D
0A1C12120A0E19FE
090C1A1C2012FC00
051311FB191F2513
0C1B1B15231D1C18
1E120F0A04FF0E0B
120922E4F91E1016
0408090FF315101F
1217070607FA080B
FAFB0314140F26F7
030B03F4FDF605FD
0311021613F6F5EE
00130CFF02020114
19F60000FB1413E5
F20003FE00011123
03FAEEE6E9F9FF03
EBFF08081F0605EB
F5FD2CDFF9FDF2F9
FC06222606E6D3E7
F7F800F5F8EDF912
1B13F4F500090BFD
0005F2140A151F19
E3CAD3EAF6F9F5F2
03F7F7061203E9FB
0DEE09F9111112FF
0F1C2804D1B5EBE9
F301EB050611030E
F0F8F0150706F0F7
0B0E04FC03301BF4
CFD1F5F8F00102F5
0D071A0503D7EB2A
29DCEFEC03F3F301
252401D5DDE6F5F8
F1F1F4FA0AFE0DE7
F1E2F606FE25F6FA
13FFF5FA1D0EEBDA
F2FDF0EDEAFCF4F9
F9F506DAEDD0F306
0B1902EC0FFAFD14
14FCF60B0A09F401
F2EDEAF703F7FECE
EFE203FAF5F6FB04
0E0D0F09F40D1F13
14F9E9EF02F8F6E6
0700F5F2EAE904F7
0CFB01E5F5191216
1120161108FCFC02
03111304F0EEF4FE
F2E0F80FF6F30CEA
D4010B2A201A1F04
FD03010802100BFE
E0D2FAFFF4E2FC08
F9F40807EC18040D
240C190404230505
F8140D15FEFC111E
28F30AFAF300F317
25F509F808020405
0704FBFB0E17150F
F100172228110506
F4090506DFD6F4FB
0B0E0C062119060A
11192A33F02426F2
FC0B0500F60CF909
040B01FF0CF511FE
091FFFD3F81A0727
0C0D2A20F309FC08
0AFB03FCFB03F800
09FF03F4F80100F6
0DFA0B060004FAF8
FD0B0009F506FA0A
FDF4E6FAECEDFDEB
F1E1F00207F1DEDF
DEF3F2DC02FF05FF
FB0405140909F4E4
F9F9D0C1CED5CAEB
E5ECDEE7E8F902DF
E91D02F5060B1001
03E8CFD5DB020AF5
DBC9C8E3DA01EEF0
0921100D05EFE5FB
F50C0DFFFDE6DBDE
CFF0F200EDE4E2E8
E1FC04F4ED06FC0F
3C0835FFF5FF0500
D8F6F3EEF6F90A2E
231A08070407FDF8
F6EAD3D80A0B3F0C
F60711F5E6E8ECF5
0C130A16182C2511
1F22170F12FAE8EA
202B122107F506E8
C3EB12FE13FE0F0E
1A26261413271114
1105ECFD06040427
CEEFE0F7EFFF1300
16160D100D070E09
1AFF0E1AF8F700E8
09FFFE280215F310
111A13061C091814
121C0D0CF90E0E05
0B08FA02FF1406FF
0903F4FA0A15110B
1A261F0A16FE1808
09071209F40504EC
FE1CFDEA0EF4F106
0C1412210706F005
03FF0F0615170CF8
FFF612F1D61311E9
F000F70D16200FFC
03F0E3EFEAF10507
050E0C0AF5F807F4
C1161DFCE9FFEF13
121003FEE0D5E300
F6000B0CFC090105
010201E5E0FC1111
F906010103EA02F2
E2ECF302FA010613
EC101C04F9F808FA
F01907020A01CA03
FDEEE4EDF5F310FB
03FBFC00F8120AF9
FBF612FC0DDAD1F3
09E1070201F0E6F8
FEF013FF11060E11
0A160104F8060FFF
08ADDDF00CFAF810
08F602FCEB0DEE00
F209071404F8F605
040FFEFC14C7DAE8
0F10FD08FA0109F7
07F801F4F5EFFFFF
FFFDFC05FD0905F3
E5BFF3E5031A01FD
030CF9F103EC03FC
F8F000FD11130611
F90012FB04CCF1EE
F429F3D9F61303EB
F8DEF8EEEEF9FFF9
FEF9010F0000010B
1409ECF3E805D7D2
EB100B06FDF500F0
F4F9F9F9FFFDFAF5
EEF0E3FA180BF7F8
F2F0EAE9EFFF030C
060102F9F9FF0EFB
09ECF6E1E7EFF500
03F328FA060DE913
EA0211192806F814
FD0603FD05FAEDE0
E8FB0A0B0B1A0F09
05FC14301E3B414B
2A0A26071BFEFF07
F5F607FFFC14190D
EFF0EFFAFDFDF728
25312023181D1E24
15171E05180D1612
271C10F808FDF50D
FCF60A0519272728
19421D103E2F3821
0A2E433542162000
20EF0802FF04F7F7
07101D08140B0610
2E18413420302E1D
15211C0D0A08F4FC
F30203FF0B06F502
01030CF90804F303
0DFB09FBF4FEF3FD
F70D06F3090001FE
0004E9EFF1F8F0E8
DB1704E1D5D50AEC
E4E8FBF709F4F9FC
F60307E7F5ECF6EF
DED7CFD5F7F0D2D6
FCF51FEFF9F400E4
EEF8FAFF0AFCF2F3
140BF4E7E8072922
1E1E2316130A2C0A
2A12FB092A03E5F3
0A100D1C1BE2EBE9
01000D0F0B1C0913
1506010202170D00
1D05020B0206F317
EEF1F8071C16F4F7
100C01F7F7F8060D
FA01EEEDFBFD24F9
02F30AFAE8EAF30D
0D04020BFF09F8F9
0401110F0E000905
271D0EFE050D0606
E8FA111909F4FEFF
02F6001300F8F90C
FC05F51523090A07
D9120D10F0FFFB05
E7E7F20A030B0B14
0105040601FA1A0E
2D0F0F1BF529FF23
0AFF1EF80208F403
0A0811FE060EFE04
01151C2020321CDE
04130C0C14F70606
F907100003090AF4
F404FD050A06211E
222316E00BF00912
2012FCEAECFAF9F6
F002130906FEF8EE
F6F9092F223339E9
090B130D010AE1D6
DF06FBF7FC0410FE
070611EDF5FA0FF9
F9001D02EBEB0C20
2907EDDAE5F0ECFF
EBF6050F141C080B
02EEE5F8F5EA0A02
0D0509222E18E4DC
DAE4FAFF07172018
071D11F8E5F7D8ED
E107FF00F8EEFD06
0EFD0EF9E6D8F9EA
FEFC0F0F081E2013
04E4D7EFFDD6F1F1
10040811080C0600
FBEFF5F1FF14FE01
1816240F0CF0E9FE
DECBEBE2FD170B0A
15180C100505FAFF
F8FAF3FC0F190618
0E13E3E9F0E5F3D0
131C09F9FB0F0C0D
2006070DF40905F6
080CF90615FED4DD
D2F614E1FC1D01FA
0301070400FA02F4
F4EBFEFAF009040A
14EAB5B0E7F6FCDF
0BFDEAE505F50CFF
F7F8FEFCF905F9F7
F20DFCFD0CE1C7BF
E7F0EC03EAFAEDF1
DFEDFCFDF9EBF9FA
FDFD0408F1170804
F0D5C2C3DECDF204
F4F0E1080300F505
0401080305FCFFF4
02FBFF05CFB6BAC7
DDE2EAF20B071E3B
050C09FCFBF1F40C
F8FC05F5EAF4E9D7
C5BBD5D7F4EFE80C
F9F3244A14080825
130A0E1416110700
0BF8E8E6F7D8F5F1
E9DE060AF8F308EF
152327152909321B
3D2B1D292C19E613
00E2E7E3EFF7F5F3
08F703ECDBE7FE09
00262603F9292C15
1A243523180F1CF5
EE02030005F6F908
FE0EF7FA16F7F806
092613FE0E081811
F4DE010F06F5F60D
000A0D09F9F900FE
0AFD00F6F8FEF30B
09F30BFDF9FD05F6
0CF506000D08FBF7
FFFBEDF0F0EFFFF6
DCD0DEC6D8D7E4E6
EDFCFF0504F30A02
0A02F50105FBFCE9
D1D9E4C4D006230B
0DCBC8EDD9D6E1E4
F9FD070D08FE06EE
09D6CBDBBEE9E3C7
0F22140B15FE0011
190BC4D1E3DFF10B
0501F7E10102DDED
D500F80104211813
04DEF50E0D1315F8
F8143701F4F5F2E9
FE02D0CBEA0F010E
231C1700E5D7F209
FEFF160D0E1208E8
0CFBEEF5E0DFCFD7
F7F3050B1D250EF6
EDFEEAEAF9FE14FE
EE06F6FBFA06DAF5
D5D3D3F7F2FA1703
24221702FEF005E9
FC121100022004F8
1B06E8D6CFC2E7F7
F4F106141E251E04
F1F0ECF61301FF19
071F10EBFAF7E0D7
C0D4C4F0F4ECFA0A
1F330FF8E1D5F9FF
1309070108230A0F
F9080DF0DDD9E2FE
EBFFFD14362DF8F5
D4D9FB0DFD101811
15222D0D0A1705C5
DF00F514F2E6071C
1CFDD8DDD7FCFCFF
F2EFEE071E14291D
0DF4E2E9D5F11B0A
06FF1A1F1DF4F2E8
F3EEFDECF9E0E6F9
FFF42B040605F3EF
ED091515F9181407
F3DDDAF3EAF800E8
FBE5E40400F10603
04FA13FC011A1F13
FBFBFDF9E5DDE7F3
E8F8F2EFEDF9E700
02FBF50A060B3E18
1617140AFE1608D6
EAE200EEFEF4FDEE
FCFCE9F704FB1CFB
F714F10F24280DF8
FF09FEE1EBE2100C
FEF200020DFDF7F1
05ECF712F5FD1607
0901030EF703FEF4
D8F60F12000CFC12
1708F90509EDDBF4
E1EC00110CEBE0ED
F1F5E7DFEBFB1018
15FB0C241A0B0303
FFF1E7F308EB03FE
EDEBD5F3ECE0E9DB
DEF62325240F0B10
260711FEFDE6030C
0503F7FCFBD6EAE5
F2F6ED0206000221
20152A2A15102118
0BE6FB010E001605
281406FAFA050CFB
1D0E0F2210052324
131E12F408D60908
FC0C161D2A1A130E
0A1406061500FC1D
FD1D1E110317E2F2
F7E01A0DF304FD12
220408FF031B1C05
150406070C14F6FD
EBF3E0F0EAFA15FA
0BF3E9E1272C110D
131608F900FC0E03
E90507E1D0C8D5F6
F60B0FF600F5E5FF
02DBF60406EEF611
1303E4D9DFD3110D
E2F8F7DEF8030107
030603F5F7E5E5FF
0A17080B0AFBE5FD
06EED6F0DDF2ECE0
FA09F609FEFAF4F7
FEFFF3FDEDFC0A09
14FBE5D5E3FEE3F4
05F6DFF60404FF05
F708FC010300F603
FE090A040E030A00
02F6FF0C0BF4060C
01F700FD070707FD
04FE08010DFB0D17
1415E82337271720
331909FE06FDF30B
0CFEFC1C2AFCED0C
07F8EC1602F0F4D4
CDE3010B343F362C
0FFF06FC08F31B25
02E9E4F2DA050AFA
E2DDC2AFE6EAF403
EFE100FB06032A0C
000627FCE2E9EEED
FD0205F2F8FFEE09
16130E0901EBD4D4
E2FB07F404F316F4
FA07FAF1F5FB05F3
E5D4D5F3050A0C10
07E5D1C7E0F1EDF7
F9FAF5F2FF10FFFB
F4EAF3EDD4F20501
161A2A0D0D0001E9
D3F8F6FCF9ECEBF4
EC00F402F5FDDFE2
0824282A22162011
0B0BFDFFF7EFE90A
02F5FF03D3F5F2F5
0703ECED14121808
1403190B08FF03F9
EAEEE4FA00E9FBF3
DBEF0AFE04F900F9
051D001108F9EA0F
FEF8F30EFCEDFC2A
08EFF7D3E5F9010A
05F1FC1811031407
14FEF804FA0CF70B
17E6D42EF4231BDC
FAFA001EFFF7090D
E8F402F9FDFEF4F7
0D10170B12EDE216
0BF612ED2E161910
F7F90B12EDEF03F1
02F7FCEEF91E2E34
FDDBD827F722FFFD
3FFF1301FBF2F905
EC07F700F9F3F6EB
F22A342006FFEA12
00F9F7DA250C13F2
F8F51508040E0C08
F5E2F50316252424
0B0E0308F4F4F5E4
0316040301F80A05
160DF20503E5EAFC
150C050A2508C7E5
05F5DEDB0A1FFBF6
020F05FBFEEDE807
FEDDDFE5FAF20313
15FDF1160AFBDFDD
F80402F20A1D0FEA
FEF100120BEFE504
13110DFE191D0D13
1603F3CCE4F0EFF8
0B292202F8FD1908
F3F6FCF7031503FB
162327E90A0609D4
EEF6FAF51628220E
F7090FF6F5E7F9FA
080000EA1B180706
0428F3D4F2ECEAF5
00080C08F505F1FF
EAEFF6EFE9F7F1DE
003109F40911F0DE
FCF5F1FF04110EFC
F30006F5E5E5F606
FED7EAF5F31516FF
19FDF5D3F90E06FE
F00F150B00091705
F6EB02F7EFEE00FD
F71E1405F405F7CB
CEEEF0EEFE030C08
1F29050000FEDEE9
FCFD000DF21E1206
01F6EFF00C10F6F6
04F202FC080D061D
EDFFFBEBFAE80807
EFE5020108F41316
001C080EFDF0FEFE
1F11030B06EC0121
31030003E6F8F7F7
FD07FE1726361A03
0B13231F36090901
09E9103F1EFFF70F
15F4F501070DFEF7
F9FEE902F006271E
1C17350B04080909
0801EEF20DF6F30A
F5F8FF0A08090407
010A04FC090408F3
0705FD0400F8F90A
03F30302050BF9FD
FA01091CFBFC0DF2
FF00F1170C0405FC
040A0A15F9F9070D
060504F6F910261D
192632181D222226
2A2F1C2A1DFFEC02
0A0DF50C04F7F3F3
001928101E0C0E07
FAFD140D2F090C19
FD081BF50FFC2500
07FDEBECDAE3FEF6
E9D2F1EEF0F9F6F7
FA020E07F2E8F5F9
051F1F0501FCF8E9
DEEF06FDFBEDEEE6
EAEEFD0617F7FDF4
01FBFBF9FC0A04F0
07040D02F71AF6FE
F0F8F3F300E2FAFD
13F2E3F7F1FE00DC
05E41FEE000C1AFB
18171108F6F606F9
F1E7EDF905F7000B
0A00F8E7F7EF0EEE
F0151F011C160D12
120B0CFCFFF7FD07
0200F00607020601
D2C8F3FC06FB1F01
2F1D06022315191E
0DF60F0408060205
06E704E8CFD3012C
03F90407020E0D2B
27220A0C09FE0B08
FAF3F0F7E9E2FAEA
EC130B2707FB12F9
00F706FE02E5F4E9
D6DFFFFBE5F2F000
F2EE00E8EF10C50D
07FCF1C5D6E3E6CA
E2C3C9CDEAF51C0F
FBFDFD01F6F5D9C3
EE11E809E9F6F3D8
E1CBB6C5C7C5E1FB
FE0D060DFF0700FD
FC00F6E91D170915
02FEF2DEDCD4BCD2
D8F400131C151AFF
0CFCFFFF00F10E13
FC102C1FF9F9FEED
07EFE4DCE9E6091C
1A2B14170D131706
132312FC0B101216
F3E7F603F4F901FF
0408171F1C2F1114
1313050717241009
15293414F5FEF501
EDF4120C190D0A14
04171E111B0A130D
0121FA0C0D211FF5
22F0F80F03191612
1C0A1D12060D130A
0710181801020118
35280A11F6E4EE0F
1E0407061518070D
191A150F1005040B
0B100F25260A0110
FBD8200B1315F80F
0109000105F812F9
17F801FCF604050C
0C19F10704EB12E6
FF0F0506EBFBF6F5
EAFEF9F90803F0F8
E803F4EAF816FB07
F50B0BED170807FF
F8F1F1E4F3DFE1EC
FCE2F4E9DAD0C0C7
031EF30A030CF4FB
0707FAF1E7F5FBF9
EFDBEAF1DEE2F1F6
D5C2DCD5F0FCFAFB
F4F7E80C130BDED0
DB0C1C1401F3F707
0D18F5FA0EE0EEF2
140C13F8F303E51C
FEEFFEFA051C2215
0C010718F8FDE8FC
0707F814360B17F6
F7FD02F3E3E6FAE1
F60C21070A0FFF0F
F9D8FD1103E8E5EE
E01202FB040DFD0C
FC02F30A0101151F
0F161017291D2307
D9E6ED03FF0905F6
020803F5FEFC050D
F30DF90C0F07F607
090DF404050204F4
07F5FB06F7FBFF05
FBFF120E0600061A
181802FD0F230C13
2215010804050CFF
040B09121D0A0106
1E0D080A0501F305
FE193315271A201F
F7ED0B07070CF607
1B180B04090C1116
322F2E09173B4531
251C161A24021401
FC0EF4070800EBE6
0218030D0C12120D
0E1B2B25F303191B
21220F01FFFFEF0F
F709FF00F5130A10
080A02FE02FDFF19
1D130915FF1D24FD
FE02FFFDE4E3EF04
07F6FF0D0A0C1416
1008040D1D07F314
1A2DE51CF51DE5F1
D6DBF00508050AF6
0C040C14FFF91A13
FCF90601111CFA22
270604F0F1F7F301
101104060F0F0DF8
0D070F03090A0EEC
0B120A13F90A09F6
F1EFFDFF0FFF070F
F30A0DF7EAFDF7FC
0503070F222213DD
08F3F4F3FD0C060A
070A06F207F000EB
03E6FA03FD06F601
1DEDF7DB02F1E704
1CF5F5010C04F5FB
050D1EF604FAF6F2
DEFEFF001E0831E8
00F8F7150108EFFB
01FFF9F8030807F9
F6FEECF0ECF9F2F9
EAE615FB0603F518
071601070B130610
000AF3FBF4F8E5DB
EAF403FCF4F40600
F806F6FDE9FCF107
0D12F7100A1004FE
F9F8F4CBE4020BFC
E6E0F1E70007E7D9
F5F9F9F90012090C
291511EDFAE6EBE8
03100AFAEEEADDED
F00230E2F7EBF9F3
E1F01311180BFBE4
F2EAEBF703EDFD02
EFD3DDD7FA0B24F6
08F902FBF5EF1019
0EFAF1F0F3E0F30B
1A000502F8BAD3E8
1FF80E00F502F9FF
F9FC0F03F5E3D0E7
F5FD09050C040D02
DBD0D3DFFAFC0FF2
F7F900EFF70506E0
ECFAEAE8FE121407
1F010F040BC5E7DA
FA1BF1F0FF0F0604
1203F5F1FDFEFFF8
0F0B220E22200E0A
FAE5E5FFF80F0214
FE08121315090213
121C1119091C1704
0C0F0301CEE407FB
EBFE0C26FFF70602
11FB1427211D1912
121907071102E905
E7F90B0AF70B221B
0F00F5111B0A1604
021B06140EFE1413
13E7F6F8FAED1509
FDF4041D1AF1FAFB
1C31182317040113
12EF030110FCFCF1
E5E7F9F707FB1CF8
DE140E08FB262122
101EF51C1124042F
FDF00FF4FBF5F0FC
0C04F6FD031B06F8
F7012518291B1120
FC02F5F31D2E1B10
FAFF01F5070CF303
F3FFF80312FC0E01
100210260EF90C21
1609E9F30506F9FD
02030C04080101FB
F5F80809F8F3ED0A
F8FD04FD0D0BF507
00F3FAF7080DF901
0EF9FBF400FB17EA
E6020308F7071D18
EFF3F904FEF40AFF
0CF4FF08F1FA00FB
15F1F7F3E7F7E6FF
FE02F40E0C1524F9
06FAF607F503D7F0
0E00EDF7FFF001FC
04EEF101EAF3FCED
FF14F5F400051007
050EF60806F60401
E7ECDFE7F001F700
E6EAF305050C1E1E
1E2016F6F7F9F100
ECE4F2F7EEEE010A
03031006FEF1F30F
15172130240703ED
F70A14FE0A041009
041D0B0D040416FE
100C00FE1A0D192E
3CF00CF30305131A
0521200BF8130403
FDFF170F102A2104
010813381BFDF4FF
09FE0B25141A0612
1308FCF2F3110C24
0E1A2C1411010E15
18050AF60E1E1817
0D09010F09070812
141B1517170D1113
FDF7EC0B230014E5
FD000D08FFFBEF18
1C181A0A1A130E1E
0B15FF1C11FCF601
260D03E1F61310FC
F4F4EF0E22182622
0D12041408191B0B
F3F2FE100AFF19FB
0A000EFAE9010117
170C0C0C0BF90914
1A0A0406F9FAF106
F8FAF4DC00F70FEA
14FDF6F0061203F9
0DF30208101AFC10
F3E50705E4D4C3EA
0BF301F81B03E2E9
F411150FF1E2F90F
0307FE0802F2FA0C
0408D1EF05EA10F4
FEF5EC00F8F709F1
0AF0F3FFF6080201
FBF806230405DAD7
F6F9FD03EBE5EFF3
0BE6E3EA0205EBEB
F7F1FD01FCEEFDFF
18FFBEF0F80BF5FE
E3E3F5FCFDEFF303
F50002FCF1FB01EB
ED07031119EFD7DE
020B09EEF1EBEBF5
FEF3FFFD03110203
07F8FCF4EEF1E401
04FAFFCFFF0917FF
F7F9FD050C010618
0E0BFAF5F6FAF0FB
F4F1EDE6F8F9DFED
0501FB03E3EDF3EE
F7102312180B1B10
0606F6E0F0F4E9EA
DCF0DE00EAFB0EF0
D4F9F90608141E0F
09041025111E0CEB
020C0AFAF3F2060A
E9EF05F4EDF6F6F8
0B10011C2E0F132B
170B1312F6FFF7F9
F9FD1FF3FF070B13
262A1D2A26142F3A
3A2E272C1E0F15FD
F900E8DB061528F5
FE000E2428333425
2E252C453A2E3527
2B17F2F4020CF8E9
F5E3E9FE0100FF1A
2F0E04221D30221A
FA13342E15F7021C
0F1E1E2520E8ECF6
0AFDF4000400EFF8
0E10F416E0081A11
17100E12001A0CE7
E9F8F8FBF90B0BFE
F604FADFF8F3E2F6
F9F8ED080F04DDFE
E8FF180B060808FE
FEFE06FF0CFD0407
F905F90AFE00F30C
FC08F6FE0CF807FC
FD04FF090004FFFD
0AF8E7E7DEDEF00C
061013EAF8E7E7E8
DBCFD5DEF904FF0B
060B01FCF1F1E8ED
D2E0EEEBD1EBE5D4
DEF8D4E7F8F601F9
E8F8FF02FE0D07FA
DAF5C8C4D10D03E6
DCE4FF121B13EEEF
04EB0305030E09F6
F4070203FDEFF1F6
00152012FF1AE9F3
FDEEDDDD170E0A0C
EA04E7F4FCFB0205
E8EAE9FD05FC1205
1C16FE0BFDEAEBFE
FFF9F303F8F9EDEC
F5F9F51FE6D6EDF4
E8FD110908130B06
F9F505100C021005
070D0703FFF9D9F5
F3EFECE3DEFF05FB
FD15070BECFA0607
0603161E130C0807
E9EE0807F1E8ECF2
FA0101120E1F100B
0C0908F4F2010F16
2207F6E9FEEFFDF7
FEE603F7FE0AF1F7
FF1FF901F4F4ED04
16FD03181AE1EA08
0C06F61BFB0203F7
06FFE1EC0DFB10FB
EEFDF80814161A1D
210AD600F3DDDD0D
0A051A180904EBF9
E4F1F6FAEEFDDE06
0B1B07221508EFF3
FCEDE409040D1619
10F7F2EBE701F5E4
E9F4F50713310A1C
0EEFE80C0709FCE7
0DFD1C141B0D0BF7
C9CDD8E0F302FF17
06181908F2F0FF01
090DDAFBEEFB1A21
1D1B0C0EF9EDEAEC
F60B16110A0BFE01
FB01F1EAFDFBF200
E909F72C2B22260D
0A0E02F3FC0C0D20
1A040C070800F6EC
0AFBE406020D142B
27120E040A0509E7
F3F9110C0BF01507
FB0DE3FA0706FDE9
040604300806F6FD
FC140CFEF6040CF9
0A0111160EE2D9DD
ED0603E0F0EF1627
1B0CF8FA0A10120C
F9FA05030002050E
F7EAE7E7FDF6EDF8
EB0D1511050600F3
FD1316FDFC00F7FD
0A1113FCEDDDF8E5
F41CEE04F62B14FA
08F7F20609120F05
FBF303000EFE01F9
F8DB1EFCF608FC02
182D080E18FDFFFF
F8F004FFF307070A
10FE07FD08EEF1FA
F40D0BF1050B2301
00F6140FFE0405FC
F2FCF8FEF2F51000
01EDF3FAF606FCD7
FDFE010DF9E3F910
0008FDF4F5FDEBEF
F3060E0C01F5EC02
F3FDEBFFEEEF0A06
10FDFAFD1BFDFFFD
DCE4F8EDFB01220C
00EFFFFBFF060E11
03120BF6F0EAE9F9
11F308FBDCE0F01B
270D0CF4F8FFF4F4
FC0A0507053119E1
00EEECF512272BFD
05F500FE1811111A
15F30407FA01F403
F1FA160A0313D10C
13FBECE7E4FC0107
0B1700D7FCF90601
FD01FFF60DFBF9F6
04F60B0403F102F2
F9F70AFB02FAFBFB
F901F9F60508F40A
FAFCF1F0EEE4DEE6
D7EEEFD7D5D908C3
BCCED8F6FDFDFCF9
080708E9DE0305F4
EACFCCDFE601F9F2
EB19FE11F2D8EFF0
ECEB09F7F40B24DE
E105E5C9CFFFEED8
F0EF070C0BFB1714
18F4ED191013EF06
05074301040810FD
060CFBE8F5FD070B
0B060812F4FFFBDC
F8FCEE0208F539F4
D6D9FAFFEEF1CEF3
FFF50F0B08060AFE
F6F4EFEFE2EBDF13
F5FF2B07E2DFF5FD
E8F8FB1109F8F0FC
FF0A100F0508EBD4
BBF81CD1F3370C06
060602170B1D180A
FDF2DCE5EE1D0D0F
1301E5BDFA10E7DE
E203FD0F0C12110F
121A0C09F4EDE5F1
FF2332121EFCF2BD
D5FBF2FD0D15FEFB
0B0D0D22181FF2F5
FFF80200141E311C
11E0DFE8B6D40632
050907170DF304FE
EDF0E8E6F8F70019
241A1F08FAE3F7E4
9BEC1C200B02FD0F
0CF2EFE704E7F0F2
08EE0E071D291C15
10F203DADFFB0E18
06F8030FF3F2D8E0
E6F0F80309101C1B
1E2208F5E3E9F5FE
FE01ED1304EFF621
0907F8E9E9F8FD14
0BF8112C1D04F6E2
EFF0E0E5EC0004FB
F9F7FD1FF5F7E8E7
0C01001B0B02101E
0F0CFAE3EE0901F6
0001EEFB0DF61801
F5FCEE090202F911
0B0C151905F5F603
01191723FAF32900
0D041F00E5ECF011
FF1103FB0F161801
00F1000AFD1A0F0A
1BD0EDD9F80A18F7
08FEE0150E07FBE9
0011030002130601
E4FE121101D5C4C2
06191815160D08FF
0FF8FBE9EC04F2FD
02FD0CFEFF07051C
F8DCD01C0310FB32
13FC1008EDEFE2DF
D2E7050609F2F6EF
0905FFEED7F7DB1D
0500FB0710F60A0C
0703DCDFE1EA0408
FDFB060AF7F9F006
03D8F6F80C33EC0A
1301050309FEF3F5
F0F01100F8020301
07EE02F6EFBAF703
041EEA0AF8F9060A
F6F5FB00E600FF00
FA04FB07F90D24F8
DFD9FDF5F504FD2A
0E07100CEDFCFEF9
EC1108FE05ED0D0D
010002F3E3F9180C
F8F8181A260E1B07
02F2F7F5FFFAF1F6
040800F1191504F8
EFFEEAF6FB0CF8D6
11210CF6080F1FFA
0F0F01E80304F308
0BF4ECFCE002F4FA
010706FDECDF00F4
081F1C15F1F405EC
F707FDEDFDF6F4EC
0007020501F9090A
04FEFEF4EDEFF3FE
F3FCD6E50405F5F8
0CCDF10CF607F7F5
F706FF00F60AFD04
FB04F802F0FDFF0A
02F90301F8FE04F8
0409FB04F5F8F906
08F2DBE9F3EAFD03
EFEB0F090E03EDE5
DAEFE7E905020307
F90B0315FCF0F2E6
E6DBDFEEF80D271C
230DFECEB2BFCFD0
F6FEF30DFB060310
F4F3E2E9F3EFE6EC
F5EFF4F90C07FEF7
E3C5CEDBD80EED06
FB070BEFED10EDFB
0602ED000B071018
1909E7EDF7F8F3F5
D9F6E3F804FE02EE
E8F7EDF923F6F2F6
FD0B0E1C0A0C0BF8
EEF6FEF0DA04E201
F9FC0F0205F5FB08
FEFC0908FF06091A
1210110BEB0100ED
D0D8EDEDF7E80C1E
F6E7050CF80AF6FA
0911FB11190E130C
FF080B0DFFECFCEE
0308121E03F012FE
1008F1EAFA070E17
182318F9F205111A
F8FDEAF9F60AF227
FD1F1AFEF8FAFDE8
F5FAFA18250C06FD
F80906FEFADAF6F5
FC0717120611220F
0309F8FDE1F7F51C
21101503070D1EF4
E9FFCF1FF71DFE01
F615181B04FB0E03
02F5FC130E150419
180E01EAE708D50A
07080F002819FC01
FE0C1508F9E2F0FC
0B03001AFE0503F3
F10AF515030006F9
330B02EAF0000B03
E5DCE6F70C0F02F5
09111BEDF525200D
FCEF0C00190809F6
FF0402FEEFD8EC03
0611FA06041F0A25
FF26210E11FAF91A
1406EDF5FAF3FFF5
DAD7FD0D0B13F513
151D361DFB042326
06EEDF1C28160801
FB06EFE3F4F208FC
141E0F1D32192315
F4093B1BF4F2F902
1909F60007FB0CFA
0C1007FD0F130F14
13131D170817263A
1C0504061007E5EA
030D1110FCFFFEFB
F8031E161B102007
F21A2C2DFC0FEBEB
02F3F70805FDFB06
061E070201F4FE09
F8FA03F0FC04060B
0320FEF1FFE9F8FA
FDF9030A0D0AEBEF
EDF80806FC08F612
00E5000500F10BFD
13160104FAF701F4
FDFFF0F0F8EEEFF6
F9FBF6FD0AE0FE0C
FF05F1E5161C1B19
130003030D0FFEF8
E0E6F5F805FBF4CF
0E05D8F702F8E4C1
EBFD0616FE0A1508
250900FBF6E2F2EB
D8E3FAD7EDF7E1FC
FAF405C5081715F8
E9EDF80C04EAF9F6
F303F9F3E406F7D8
FB200D0102F6F608
190D0D04F5EEED04
E6DFFDE7F9FEF3E0
FCF6E2DBDB05010C
0BF7F914E3F3FD01
0B2704F4060203EE
EE1C404B080703F9
F7FEFF00FD000600
091502F8F40D0304
F90CF6F4F903F512
02F7141701060309
FFF50D00FE0D0BFB
02070AF8F7FF0BF9
0A0A0AF608040CFE
0B03F8F50105F6FB
0BFFE8ECF5F0F3FF
03FA01DEF9DBD8E6
DBF1FAE2FFFBFB00
FB0DEE29F9E4EA05
E2F5E3D0EF11FFCC
EAE7E6EFE3CDF3F2
EEEAF9FE01052C1C
FB02D0DDD7E3ECEF
0E1E12050C04FBE1
F0DDF4F6EDFBE70C
F5FD3F211EEDEF04
010EFD0E181A09F6
FDDADAE4ECEDF4EA
F0FEF803FC0210F4
EFFAF4FC09FCF6FE
0C161714EBECEFFF
F5F7FCF2EC01E505
F8F80CFA12FDFE0B
0F0E0EFF15120F01
11140310F60AFDF5
EEF419EDF410002A
180B16FEF0F91004
0D1B040C00030306
02F2EBF90AFBFDF8
0C0E1727100E0907
F7F7F7FC160F0A16
FF0B210C06EAF1F5
F3FE0C23F6120217
04020D0A060207EC
0D19120B16171D0D
210105FCCADE0F29
FC05150F01F51105
0005FB05FA0B1B0D
1210282431160CEC
CFE5FE1F05050A1F
FF06160801F51701
FC051F210B0E1636
1B09F6CBCEF60AE1
080D1A1208FFF40B
0502F3F60115FE1C
0D1C25291E01F8ED
EAF9F2F404FD1BFB
05EF04040FFFFE0D
09FF0404071E250B
0610F5EBFE160AEC
F4FA09050AFDFEFF
FF0205FDFBF70013
F529221000F3E5EA
102D03FD01E5FC12
FA11FF0609F4EBF4
E7EF061C04291705
09E0EAF7110D06FF
0AF422071C0AF2FE
FCF204FEF40AF716
141200FE02EAEBF4
FAEFF003050C0E03
1BFEF7F9F2070704
0A0C050F160BE9ED
EBF70106FEFCF412
1C0A010C1700DEF6
EDEBEE040710F50F
0102F40215F40A06
03FA14FFF317EA1F
080500EEF1FB09F3
0500FDF7FCFE030C
17FAF4FB07E0F4F2
F730F21517FFF3FC
F4F6E9F6F900FEF9
F9FEF40108FDF902
05DAE900E520FF0E
07F6F6F6FEDEF1FA
EEF6FDFD0EF1FC03
FF01FAF903D9020C
E5000BF50E180709
00EBF003FCFBFD08
FAFC02FEF20015EC
04FCF80CFA0A04FE
F7050F231606FF04
F303F5FFF80E01FA
E803ECFC06FCFB01
0C0122130A2C1413
15FC0E09EFF6F7FA
06F3F009F7FD07FF
F300FBF40908FAD8
232C17211DE7F2FD
F0EEFB02F9EC0709
10F3ECFAE3F6E907
F40B0717F7041719
1417120300FC0D0F
1A1A122B00F3FD18
230307FFF8FF0DFC
FF0FFF05F0E8F5FC
02F90205FFFA0623
0512181AF3040B01
08F8F309FF06F60D
FC0707FD1002000B
F90BF9F60AFEFB00
FD020CF3F40BF507
040C1A0D050A0705
08F5E72722280B0B
14011604F8FDF805
FB0801F80508142C
29180E1516121838
1BF210160EF9FA0C
FD020C05FA0CFFFA
FCFF1B32322D192C
27302E2C4434231A
1E140D0C0302FDFE
F302D6E0F1111107
07211B0806012114
2530031C2908F8F3
D8F3EC08FE02F0E9
0C1002071713F0EA
E80A181B271EF614
201210EFEADD2009
F8FA020A03FCEEF5
F5F6EC03F1F508F3
F8000216F9FB150A
0106FF1BF60D07F3
F4E3DC1711F1FF01
F7E4EDE9E9FDFDF8
E2F405F5FA0C0205
111C0EDCFB02EC01
FBFA080200F5E8ED
E8FEF8EA01F604FD
FE0F08F9F7DD0916
0FF2E5F3F907FF0D
ECFAFCF706F1F7FE
ECFAEC111712FCC9
0CE702020A03F904
00FB04F1F8000E03
140603F510FF00FA
220F1CCAF732DCF1
0400FA0403FBF204
FD080C1510F9E7ED
EEFE02F91F273702
08F6DFEBEC0BFF05
F2FF000605070D0B
F0F9F3E9F70C0305
0A022510F606FAF3
E60A11F5F302061D
0B0F05F8F0040611
0F10181404E9E224
FDE7FFECEB17070A
FCF715140D1410FD
F3FD06FF0213100B
04E116050DF60EF0
FFF7F61615151B16
231C250409070D1B
FD001515110FF8FD
F5E413F402FE0DFD
132814090C192307
F60A0202F1091213
10271F20FBEE19FF
FD030E01FF151213
0A121D190FEAF715
100EFA0C05FE031F
1DE8EAEA09110C0E
FD0E03041911090D
04F3F202F302FAF3
12290423000A07E8
07000F1D1C100505
081A10190AFB08E3
EFF601171A21141C
F5E82500F8FE1610
17271306F71F030E
0D0811E1FE1B220D
0E00FBF809EF0503
090C1118120EFEFF
190E07110A21FDFE
0605101DEE11FF08
FD11F208F10A0CFF
EE02F7F7211A0A0A
1B2708F3FD06F8FF
F6F811FE060103DB
0E10FDF9F60004F7
1C070D09FF03F6F1
ECE3FE01F5F1130A
01F8EABDBFE6CDE2
DDFCED0214FF0903
FDFEFEEAE1DFE9EA
FE0A1A050302010E
F0D0CDCDC4DDCFCD
F3F1DCE9E1F1DCC4
B8E2EC0E14031C07
F3F6FCF2F2E2D9C9
D5DBE7E7C9D9C0A9
D2F1DFC1C7DFF1D7
E805FBF7F60005FE
0BF7F3E6F8F002F5
F9F5C7BBE20103DC
EAECF105F800FF08
F901FD08F7FBFA03
0501F5FBF20611F9
F40DFD0A0B0708F4
FC0CF608F60805FD
FAF1F9FFF6F1EEF0
EFE806FBFCFCECDA
E6EFF2E9FE010C02
0D0BF1E6E0F4F3E4
EEE6EDCCEE0E19F1
EFDBF0D0DCEFEFDA
E7F9FAF6F4F81BDE
E6D5DADDEFF2F4E7
F0FBF90EFEFE12F4
F0FF0F09FC09ECF8
F50305F202EA0610
020D2212131E1C26
18120F0E06FD1721
1FF704040A070AFC
09CCD5FEF9011415
21241708EFF7EF07
0E1702E8FA0019FF
F804DBD5EEBFF702
F40B160813091C0F
1105EDF9F9E4F6FA
EB0714FFFCF1EEEF
03E3EFE50FFD000C
110E00160EF8F1ED
E9FF070CFE12FF0D
F4F61616FA00FFF6
0206F205FAF2FC0F
FFFD07FCE81F13FC
FD221223F7E405EB
FB0306FAF50306FE
E9ECFFFD02F4F704
FA060E0F020208D0
FBFAF0DBF3FFFAF8
FD060D03FAE80A04
FB041414F9F8FDFC
FFE8EDD50ADBFDEE
F70B0B0D070309F9
080C1207F6041A1D
F3F705FD0E0319E6
01F5FAD5F816FE00
FE0CF705100AFDF9
ED08FC190AFD081A
15F7FDE806FAE7CE
04FE100F0108F91D
050E00FCFD00FB19
0DF703F4D5DBE508
F8FFE5F3FFF51300
EDFAFE160F13FD08
06100904F3E4EAE1
D7170EFDFF10F90B
F1F40802190DFC18
07181A060809FA03
EFDED7CEF11623F5
F8F5F100FFF70B08
FE030C0F11121210
0200F3D6F8EADFEF
E3FB140501E5F0FF
F1010C0D00001C15
150600FC04F8F9F5
0DFAE5EDF3FFEC0E
EAFEF0FAF9091AF9
0AFA0113FCFC14FE
F9F9ED0918FBF3E9
FBECDA0100D2FD00
FD160101FFFFFC01
F810030105FEFF01
02FD0B050BFB1011
030DEE07E9040601
E6F3F6E6EEFDFBFC
10F70D0C05FE0F25
090506FFF101E3ED
E4F60AFAECF0EEF1
FBFBF9040305010E
170A05290DF8FFFB
F4FC00FDDCEC09F0
E8EDE705F30DF3FB
05F2120CFCFB060C
230CF8FD0B09F7D5
ECF5E9D8F9E9F90A
02010EF703060C0D
F6F50518241AF806
F302D8E4EBE5E7E9
E7F2FD1400F70F11
10041218EBF10311
FBFDEC04000AFF04
DAEEF5F8F3F11C01
F1FA09EF110B180A
10FDE8F0E0FDF7FD
09010409200D0821
190D120022FA1DF5
FB1017FFF3FBFA1C
260AFB040002FD00
0BEA0F0B030CF903
03F0121416F40D0C
F2FAEBEBF4090D08
FFFE04F9F5F7FE07
FDFA01FD00F6090C
04FE04F70609FE0A
010B0409070607F9
FA0801090509FF0A
13F6041006041004
020B080F070B08F8
0908F6ECE3020A02
0612121A282202F2
D8E5FE0F18F8F6FF
02FDF603F3F4DBD6
0910221231323153
2F0F1110050C0B0D
151411EA04090AF6
0AF1ECE8F40D1734
161119170906F705
F6090AF7F1E1FBF7
101019F60202E7FD
11F2F911F601020F
07F710F6040A1A10
200609150E02EBF8
F8FA1001150B1815
0209F603EFF3FAFF
EBEBEEF60608120F
3CFE0D09F80200FE
1F242015150B040B
05FC0FF6EBE8F3EA
0C0B14FF0C131509
12EE10EC140D02F1
FE0CFF04FA11F1EE
0CFDF4F0F80C0207
1A21FCF9F5F01EE0
FE06F8FDF0FAFF07
1F0FF00A05FAF1F4
E700F00D0E270BDD
FAE5060F1614FCF1
08FD01192711ED08
000B0CF8E5E7E201
281B1ED9EEEAFBEC
04F0FDE7F101F60D
1BFA03F60EFD040D
E5F1DF04023113E6
EEF0F5F3EFF0F8EE
E4080B16181E01ED
E7F503FAEAF406FD
1A1D17F9F702FBF6
D500EEFAF4030D20
1A05FBFFFDF6110C
F3FB1720120C0B00
0906EEFFEFF302F6
FBFF031E0A0F070F
0A06FDEFFE0A1323
110B0DF6F517FDEB
08FC0B0CFAFB13FE
FAFE0504160B13FB
08F6030116073219
04180A02F2F0F5FE
040D2316210C0C03
0E0B120D0810F902
0616241BFF0A1922
FB060B0A0B22120F
13070D05021B1815
1301F0000D220818
E7E2FE1A0705262C
0C1A14071D010E04
24221317FF0A0615
0FE7F614FACB0518
131A15110209F600
01FF0A1B120C02FA
2200FB0502F10B0E
FDDE1F311309F907
09060100FB15171C
1B1418F80EFF0800
FFF9F212EEFD0804
02F5F1F90703F0F2
FB090D13130F050B
F502151EE5181401
EBF50C2F04EFF204
EB07FA0503140E1C
1E1A140405FCFF12
0006FA01F6011055
26170F081C010B05
F906080514110D0E
071A2615FCF60CF3
0C04EC03FFED0E09
10120D0016120E0A
272916090B1510FD
10050D0DFF0312EB
E6E4FEF9EBFFF103
0F0EFF13121810FE
FA062A290BFD04FE
0000F7F703F8DEE5
E9CEF10B08E8E1E2
EEDFEFBFF20BEEE6
F101F7FB0BF8FEF9
F6E60000F7D8DDF5
EEECF404F5EFF0DF
1506DEE40DF70605
00FAF60C0403FFFA
F408040307040903
05FE09FDF8F6F605
FF0908F508F70DFB
F6FEF6F3F8F9FEE8
F609140003EEEAD3
E3EDFFEEFA0B02FC
020C06F9F1F4FAE6
E406DBF7070CF2F7
060FFFF5E9DAF6D1
DCF90DFAF4FAE2DE
EC12EFECF8F4F328
14201A22FAF707EC
E3EEF601E004ECFC
FCFCEDD8F2ED0616
FF0C260A25251F23
14110911FC0D0D00
260912F80209EAF7
2EE502100BF80FFE
09FC130F0EFE1001
091422101313F8F7
0B080AFE0B170705
F10603FCF903FF08
12FAF8000E030932
420D01000034EB0B
221D0A12FF01FD06
06F50F1203F1EDF3
F7FC0818300E0DF3
13FC040F1F1E0909
E6F601FF0405F505
0EFBFDEC02F21C2D
201D15F7FEF02014
0F18F206FEEEEDF8
0EF903F71211FBFC
1221270FF5F815EB
0CFF162E2A1D0F05
06E5F2090CF8DDF4
FD16EE000009FAFE
F6F701E8FE00F10C
170D0AEDFCEFEE02
14FFF1E609FAF0FC
E6F4F3F90E1431FA
06FBF9FEF5070600
FC000B091309F6EB
0007EFF00610F1FE
20F818F4FE09F2F7
E1FE13E8FD140D16
0109FD070C0911EE
F803020E0BFA0D01
000BE801F61301E6
F3000BFD11FC0D17
0A05F3F8EFF5E7F8
1801EE00F1FD2617
1312EF09130407F6
1209111700F6EB00
ECF10E0017121412
020C311D04FF01FF
040A081906221406
EEFBFCF6FE1A1515
122C091A021A2833
0904F7F6F709091C
FE11030E0C051408
0F21170AEAFBFD24
E3050C2D06111505
0D1616091B190E04
08100C0DFD01FF03
EDDDE50AF3D8F13C
343F26191906FF09
FD08020604111DFE
170711F7F7DBF906
0DF80D352C1E1227
0D05FFFD0A08F901
04022A0809FDF5F6
FBECEEF8EA081A17
0FFEFC0A0EFEF402
01F8F3FC050F1007
FAF808F7CDEC02FF
EC072B1E1A06080F
F3F0F2120FFD0601
0209061BFA061106
FFF1F0F40CFC1622
17111711FEF91406
F70F180E0217211E
F9070A0002FFE7F4
00F9F5F3EED5ECEC
070A0A02FE0D1211
13F31615FF0A08F5
0C1B07FE0DF911DB
C3C8EAF1F500FEF9
F50EF1FC04EFFE04
08EAFF04100F0203
F3F6F5FEE8D5E0D8
04D0EEF6DCE6CAD2
DFEAD5D8F7FCEBF0
F701FDF8FFFC040B
F4F80003FEEEF3F2
E4DFCACEDFD8DACC
11FAEAF2F40CFEFD
0D0B00F4F8060701
FB0AFCF60508FCF6
F4F6F5F601F4FE05
F80AFA0A0C0B01FC
0A030F15FE08131A
0A10FA292A310820
2111030AFD02FE06
FF03010814FB0F0C
0F061212181C1102
0E0A050C11050711
06F9FEF60209F40F
F4F9FCFA1D1B2101
1613291C09FAFFFE
F9EDF3E4F7F42009
F7FFEAFE05070223
0B070BF60101F309
1A15060410FAEFDC
E9F91601FB0104EC
27FFEEF1EFF7FBF1
F10B0F1B17050710
010D11090FEAFEEA
04060D031416F4EA
E1E4C7EFF80C1516
020AF2ECFF00FEF6
07F309F80617FD11
24F5E303F6D1D10A
F903130C18F6FD04
F6EEF8010C0A18F9
2DFFF91B1EEE0714
F0D4E8DFF80E1919
1009E9F501F8EE00
F902220108F9010C
0200F70EF0E2DEE5
E70929241106F5E6
00FDFEE41B09FDF3
FFF72422FDF30104
F2DFE1EEE9FD1A1A
201201F6F8E6E802
0C02FAFEFC03EF1F
EDF70FF8EAEBD5DA
F8ED182503FCDBF2
E3EBF0F2DAD1E316
F400F304FF08040A
ECFB06F4050E0E0E
FCF4DAEAEAF8FCEE
07F2E1080314EF03
F3EF07FE111B070A
080905F4F3EBF2F5
F2EB031C0914DA14
F515F815F8FA0C01
070C0C0AF6EB04E9
ECEBF2F8F7FF010C
2B120D06F90B0AF9
04FF0510FC0E01F5
F5F8F9F209070410
0CFD03161E232321
F5010EF3191EFF18
090DFF06F3EA05F4
FD110E0E13131A10
1E312025050A0FF9
1E2608040F060905
F2FC0C10171DFE19
110A1B1D132C1035
E40808141C0F1606
12010DF100F8031F
160D01FAFE11FF12
0026EA16FAEFFD20
39201BFD01202A14
F8140616202D12F2
02262106F8110F0F
FBE80F2E4113FD00
FF2121151508020D
1E1E25020F2021FE
100B091218042E28
1E111501FC0419FB
0F0EFE0C0AF60AFD
0707FC00FF090FF9
181A1D2219201904
0F00FE0703040112
FDF402F4E1EDF3DF
00081CF801051D17
16150B06031D1E01
0D00FCF9DEEEF7F1
EFE4D6E8FF0F150C
06020B0910FAF3E5
FE110702FAE9F7EF
D0E0E1E8D2F2BDFA
1E231507FA0D0DFA
F6FDDBD4E2F4E7E7
E5D5D5C6AFBFD3EC
F4D5D0F419FC07FA
05F6FAF0F3F5E8F0
E2DDDFE6D7DCDBE2
E1E0D6DFD9E7DCE2
EB060C0DFF09FB0C
FF05F1F0F1FCFC12
150BD9EAFC01FCF3
F9F3D0E703F305FF
07F5FC01F407F30B
0C09F80AFDFB04F9
01F3FEFEFDF60809
F90706FFFC0801FC
05051100071407FC
05130D11FA0AF100
05F70B08FA0307F7
0C0B07F7F6F6FE14
23010AF0EFFAF0EB
D2E203F204FEFD0B
1B0E05050302FCF5
F1000E09051C081F
2D2A21FBDFE2E1F8
FAF4F7E9060FFBF9
04FFF2F1F6E4141E
1F1B0B1C181109F9
0AF90805ECE7F7FA
0F231AF7FEFBF2F6
19FA091EF711031B
1916210213052015
24FB06F7151E1BFD
FAF608E8FE0DFEFD
07041E2313171C1D
09162202190FFFFA
E6E90B180B0BFADB
0800F2F7FA050D19
172526311A17110E
F9F5FAF0BCD51717
0D000FE909EBECED
F30206010E211019
2614F810F6E118FF
C7E4F41DFBFE1DF9
DCEB05F00A0E03FB
0C0707EEF9FBF7FD
F1F7011ACEDDE1EA
F6060D0F01E710F6
0EF3F5F3E0EAE5D4
E3EB070D05FDF518
F2EBFBDD0B1F0014
07EB06EF05F1F6EB
E0E9CACCD4FD0008
F9FEF7FEEBDF11F5
090EE814FCE5FFF8
04FBFFE0E9D8DFDC
FC080507FF0BF4FA
DDE2FEF80AE7ED0F
13F3E7F5FE0608FA
F0ECF7EFECF106F5
FBFBF2E6F0E6F9F0
03F40811F4ED0709
F8FB01EFFF03FA01
00EF07E00611F4F6
F5E4FD0C0BF500F4
E2E1EDFD07FAF8F6
FC060D0C09F6E9ED
00F7F1FE11E01D14
F20D12F202DED5E5
DFEC080D1C100BFC
DEE6E6EEFA0C120C
05F1141406020EF9
F0E3E1E4EC060417
151408F2E6F2DCFE
0D08FE01F702051D
0501F00013F705EF
E6FE0F0A10F9EE05
FEF70903130709FE
03F9000FF4160901
00EC08F5F9F0EFED
FCEDFDFCFD17FE19
19FB09F1EA050B0B
03110A100406FB0F
F5FAEAFBE206F916
21130D1600FF02FC
0F0503FBEFFA091A
10EE0710FD0006FB
FF0D192225080922
FFF808172A151EFC
E4FB111317191711
FD05F30B02072125
0A0C0D241D000027
050CFEFEF7FB0A1F
1520201F11221115
111B0A081A1FFF11
22150D2EFD0EF0F4
03F7FF0829111703
081512161B1B1E10
1B141B1711241301
1A0B190C0DFF06E1
170E25252D3C2914
2C0EFC13042C0A24
1E07150507F816F7
0C09F6EB0F220A11
2A1C3329250C0121
18040112EEDFECF1
F511020AFE09FF0A
FA04120D16F1E004
1402F9E30819D906
E5E5F0070AFF0601
08FE02F5090907F7
FA060909F70F12F6
0B01F8F3F9F8FA01
00F3F8F4F9FBFE07
F20603F2FE0906FB
FE0B11161709FEEC
EFF801F6050300FE
FDFEFB16030E0A00
041C07100638281B
2514FC07FFF4F50C
09FB020003F614E8
D2F5FF041E1F250A
0D1319031D1F1421
0A010900F308F60C
080A29F201FC1222
0D13041C0004131A
2211260819EAFEEB
0E12EDF90CF728D9
01DED1FBFAE7EEF0
F8FBFA0F0C020907
08160A160416FA00
03F9F20BF7DCDAE3
ECF6F9030A1A1313
1B130CFDF604FDF9
EEF40AF3FA1AFD09
FAFCF6F11301FD00
00181208200F05FE
FAF806EEFBEA12FE
E300FDF41424EFF1
11F800F4F0F4F710
18070E0B03FAF0DC
DBF6FDF306D60EEE
02171409010B0BEC
F4EFE908FF202522
0CEBF6E5ECF1EA18
F4EB081513FBFF07
FFF2FEEADEDFE9F3
05191F1A0A050300
DA01EC17FBEC0B0B
17F3FBEF12FAEFEE
F0E8000E0D0B1432
2612FC02DDF70008
02FC01001AFE00EF
FBFBF9EBEBE1F3F2
FE0512261A14FEEC
E7D5EA00F8F3FE1A
08F1E7F7F7FCFDFB
FCF609070D040B20
14F2EEEDE3D6041F
F6FAE71BE1F101FC
FCF7F8F9F5FAFFF9
EF081BFFF9EDE9D8
F1E71A0004F5000F
01F2F8ED0103F8FD
EAEF050B0B0504F7
DCE3E1EFF6F32318
0E251B140108EFE0
EFFDF0FD0703FEF1
F716F1E9DAF6F4D6
FFEE1316FD0C10F9
FEF9E0DC05F4F100
F9110502F304F2D8
E1F2ECC7F3FB2322
0B1E0CFBF4FCFE02
04FC19FEECFBF7F1
F8F4F8F7D6E4F7E6
F41D0E0A041EDEFF
EBF5F705F6FA0BF8
06060305190D0003
E0D5F3080330290C
F40CF2141EF01202
0105F3050B080B0D
1B0A010B160D1212
332B23FC09182A32
1B0B0B0010FDF201
F80E171214071A29
121B0A031126F703
15021225140EFBFA
10050303F5F4070A
170A110A0E120305
131DE9FAFCFA081E
FCF001F808FAF4FF
10100D021208080F
0D1A091B0312F508
F50CE6F10BFF01FC
00F40B0809040C15
19181417130A1B22
0E19FBFEF90D11CA
EC10180CF1F2F9FE
0D1318FF06060A14
353C340CFB1112F9
FE09040D1F262426
07150F17FE0B06FA
FCFC1C18262F2513
00EF07F4FA06FF0B
F0E1FCF912E8CCE6
0EE20C0AE501110B
0F2915E8F601FC07
040DFDF3FA0CFF05
FB05F8FCF9FFFCFD
0301FFFE0A0B02FC
03FEF40CF801F500
FF120517071311F0
F7F7010E1F1C1019
20140E12F40102FA
F7FE17EE0B141F09
281E1C20140A1D1F
0D0610F9F80F1225
010BFE0AFCFEDDE1
F2E900F30320233A
0E0FF7F30B08F4FB
EA0C131409F1190D
FB03E7DEFCF3FF02
F1FE1413141508F6
0D0AF1F30BF6EEF4
E4D9DCF3FA02EEE5
0FF4F4EDF20203FA
0B0AFC02FDEF1203
13F9E8F9E7DEEFF3
F6F907DC03E3FC01
04FC00F80F040614
0E01070BFFEADDDF
E7E3EDE80AE218D9
0C04FCFB02F9080A
04FB10090F151401
FFFB02E9E3D1F1EF
F6111EE400EDF8EB
FA000BFBF40904FB
F908031102FAEAEF
D8D0EDEF0CD728E8
05FE02F6FDECF4EF
F5FD01FDFAFB0215
FEF3DAF5F3D3E616
FCF5E6F3FF1D0609
F9F8FCFBEDF0EFF8
F6F200FC0405EEF7
FAF1DC190AD7FAE3
0125191401F1F1F4
FFE1EFF8F9F30801
0508FFF2090ACE07
F4EBF2F51609110C
0106F7EBFDF3E8E2
EDF70DF7F8090C13
19FCDCF4F719F4EB
14FC0E081204FBF8
EEF0E5EDF5F60400
F80900040BFBE0ED
FB01E6FA00030518
0E020A12F60DEFF8
03FB0E0D010D10FB
1DF7E503071CE817
FE00012214191215
FA03F0FC06030400
11FA03F2F505FE25
F9FBEF080C000920
0A0A0D0A100EF7FE
1206FF0F1B0D04F7
F82B1E2BFFECFE07
F7050801000E1818
2D16FC0FFD010902
0D04FDE8FF271035
EAF1010903F00114
F3020820391307F2
05021D1D1300F908
E72EFC34FBDEED02
0EF8FC03F50B1026
1F1BF500FC0A1106
150A17ECD209201D
FEDA111B1C02E803
E4F31524250DFF0C
020B04080E15FBF4
FC0510F617E80F0F
1603EAE2F712131A
0C0703FE07020B17
15F8F1041F070602
11FF0DFD0BE80200
FFFB1103FE0E0412
0F0014FA1A0705FF
0F1801FF0AFCD8CF
ECE905081608FBE3
E6EC02F803FF040C
0919071A2824F90B
F30CF1CAE5F52010
1A0C05F2F5E5DDFF
F2040AE9ECFDFA0C
000900FA0D0511FC
020E06290DE6E9FE
070FF2E3E5E601FD
04030AE5F5040905
F9F60816281C20FA
FDE4DCE21116030E
15FAF6040FFC1C17
24F70805FDFF0102
F1EB02030E02E2F9
20F8FEEDF809320D
290E0AD60CF70D04
F3F7FBFB04F7020B
00FEFBF505FDF801
FE050A0AFC040600
F802000906F8FD03
FBF40BF2F60607E4
F40800FDECFC0D06
0806F1EB0D05F700
09F7FCDDEC060AF6
0E03F0070613F6F6
F3E9FF050710FFE9
EFFB0C0DFEF3FEED
1DF9FEFBEAFCFAFD
00FBEE1500F40F15
1D1A0A120F07FC07
0CF609131E11F703
FD120301020304FA
EE010A1C26231B33
30EE120AFD020B09
FEEDEFFCE4F802F6
ECE3DFDDD8F7FF13
2516121625E6F813
F609FEF0F612E5E3
E6F2FEE4F0E0E0F1
ECF1F9091406FB23
14FB1C1C0AE9E4DB
ECFFF5F6F4FC02FE
E1EA03FFF7050708
FF1D170603061206
1AD604EAD1D8F208
FC100BF4E8FDF90B
F51A040A0C12F7F3
141D040AF4E0F7E1
C1C4F508FC02F1FE
F106EDF30FFC10FB
F316EF01191207E5
03DDEDF6EDDEF604
140C04FE00F3F0F3
E6F4FA0104180DF9
1CF8FEDD0910F7D7
C8D4EBFB06251117
010C07EFF9E5F7F4
F801021A23133715
F8FAEEC6B8D70E14
14220307252F1400
07F9F1EE050FF60E
16F0FE0002F7DDD3
B7DE0B1E0E1D1924
382F1E210C09F0F0
F70AFE01FDF0E1F0
FEF5EEF2EDFDFE05
06170605181C0001
0A1BF2E9DFF1F7EA
F8ECD0EB07F51B08
FBF7FEFC0C120405
1E1506FA0112FAF6
E4ECFF06F8F3DDE3
EFFAE8F7E3F3F7FB
07FF0C000D1A1813
180CFEEEF2F8F1DB
D7D5CFEAFEFFF8F2
F0EEF50D15F7040E
08FD1E0C0B0F06EE
0001EBF507D8D3E0
D9EDFEE8FDE80C03
161B1E1E1C18FC12
06F700FA02F4E10A
23FEECE303EBF4DF
E6FBFAFF10201327
1B0CF8100906FAE8
F8F1F1F7120FF9F3
F704FDD5E6F701F8
F603241D0A0EF40A
0B140C09F7E9E8E2
DCF511F310FCDCE3
FBEE0CFDEE1003FE
0A0AF600F9FC0FF7
08FC02D9F3FC0AFB
1516D6F3F4EDF6E6
F9FB0700FD12F107
0012110F09F6FCEE
E8E91F07FEF40CE7
04F6FDF600EFF2FE
F9FF0D090A10FFF9
FFDF00FCFDFA220C
F407EBDFDDEFDDE6
0122FFFB02FA0C0F
0A020DF8ECFD0002
04E70BF6FAF4F812
D7C0D8ECEA01F3F1
F4E7F6E7F8F8FEFA
131C1324000AF901
F309F5FEF8CBEB00
EBF0DD05EDD7E0E5
ED030EE3E20D1004
0105FBF40D0404FB
FBFCFDFCE2F8EA0C
01EBE116FE02F9E1
F0E6DDF0F4FDF40A
01FA0D05F504F800
020909FEFB0AFFF9
0B06FA080202FDFB
F70AF5FA0A0D020D
040606FFF1070CFA
12FB0710030AF6F7
070CF40D00F8F90A
F7010B10FA04F7FA
0EF6040907F30505
F3FDF50F011910EF
FDFEFDFBF80AEEEE
FE04F2F1EEF0F8FB
EF00180C1C090014
112903F6F3FE19F5
F90AE1D9E5FFEC04
C2DCE2DCF6F70318
142715040D0D110B
1E141BF6FA01E1F7
F5F60B10F4F0F0F0
F70115131A1D15F9
181E121EF6F3EBF6
03F8FDF3EE0E0D06
05FFF20006F70502
E9F8F021212F2E34
17FD0F0206E9EAEC
EA23201007040CFC
F2EAEFECF4070F12
1F1132443619E815
26F812F3DB201D17
08F4FCFBECFBDDF2
F4F5091E0E3B2C2C
2A27FA12010406C6
E40BEE0101F0FDFF
F904F2F30201FF04
1B2D29252D21F7CF
09FDEFE60F0EF311
1411050E070AF1ED
E1ECF505030B2730
291FF9CE03110AEA
F400040110251912
11FFF105F8EAF7F9
062A32313E0804F6
0B02E9081A0C090D
150C100D10080309
EFE4E6101C3F302D
2D03DADDF409F50F
03FF0702FA030B11
FEF5EF1200E6081B
2E242D0413EBD5F8
FEFE13F4191A0C16
0AFE1B150E000101
05100A16231E03F8
13F6AEF2F81322E8
0F160C1F0912170C
1C0D0FFE070C1B22
251A060D071BCBDD
06EFF1F31E1911F5
09F01108FEEA1301
FE251F091F0FDD0A
1304C8FE06FCF11C
3E2D0A0603FDFBF7
F7ECFE1113232B0C
0705E20F09E5D618
DEE2F4FD29242502
080405110EFBFF0E
05FD1A05FAFADEF1
FFD9F5FD03D204FB
2020310E0BF80A0F
190A1C1CFB0E11FA
04EBE2E7F1D6E0F9
06082205142A09F9
EF020222030B141C
0C0E0BF8EBEDE7F2
D8F0D908DAE307F3
F80AF70409FFF1FF
05001211F8F6FFE9
02FDF603ED05FCFD
DCE606F8F8F1E6FD
EBF9070F03030B00
0807F706FCF9F90B
FF1C240B0BFC0AF9
1EE50711FEFC1209
130A0FF901F6040A
F5F8E9FDDDFC1AF5
040BE71EF2DBEB04
0A190E0E1E1C15F7
0D0604F305E4FFF9
05F810FA0C07E31E
E1CDDDDADDFF0E04
F4FB03F3FFF705FF
0905222A060CFC06
0C0100E100EBEDF3
DFC9DBFDFAD6C9D7
D8DFC1D5D1F0F5E6
F203FF03FE040408
F7F7E1EDE6F6F6FB
F0F1D1E8E9F0E8DF
08FFD6DEF80CFC0C
0CFCF9FAFA00FEF6
F40CF8F50D050809
F40CF307FFF4050A
F402F604FEF6F706
F70005FA0BFBF801
181100282B27F5F2
F704FF11F50DF402
0507F30EFAF004FD
F3E4F1F109F105F2
131003F8FA161813
0A0E0800F60B3416
11EAECEFD8F0110A
221A0C100513F6F3
1AFBF4E7F119F00A
050A172A04F3EA01
F2041D1F14020810
06FF0800ECE7F0FB
FD011FF8F3000514
F519150D1E15201B
0512FFFEFAF700FC
05F0FF08001F2605
F501220E0B162414
222D25200B0505F0
ECEE08FEFA0502FD
213B0A20FA0C2B27
0017211E18FF0309
0F0E1F17190D030D
1005EDFEF604062C
26310B21E5141412
F6F6080B180F2A2C
21221B0312FC0C08
10EF09040C2E1921
F713090B14111C09
2734382F2327060F
190014021320F2EF
FA2217280B0F1001
08200B1A17231B15
19FF09FF11F7F4F2
FA0D14E4FC180808
FCFCEFFE03000308
100BFE0CF30F09F9
ECEFF5ECEE0B39F4
111901F7E2EBE5F9
F5FBF7F2ECF4EAFD
F91107FA10E8F2D8
D9E814ED0701FBF0
D4F0ECF201F1EAE1
DFD1E6E800FC11F9
08F4F8E1D4E804F0
0A011CECEDFDEFF4
ECF0E0DAD4DF04FC
FBFB0606FDFBF00F
15F9FCEEFD0B0BF1
17FAF2EAF0F0EDE8
EEFEE004E8000A06
F8F6EE131AE4EA0E
01FF17E404D4F3E6
FAEFECECEEF7F6E7
F5FC000608F80302
29E2E61DF7F7F2EF
00D6F7F3EBEDEE02
F8E4E6F1F2FCF8F8
00F500F801281B23
2C050C0609F6EBEE
FCE9E3ECEFE6DE0C
07F6F202060708F1
F7F62E10EF1E190E
0108F5FB03FC15EE
FA0A031A0104FCFE
06FDF3FFFECF10FB
031F0005091C080E
180F0E0F17201416
11020A0A00FA190A
0AEE01090000060A
0B1E240F021E1508
1A170910020C06FB
EEFA102614F72004
E9ECF6EF150C2729
2021FE0B170A1302
09FC1906EBEC1422
13FFF50C01061A0E
04070B2601FB071E
FE01FBF1FE0505FB
E6F70A1F05F5FD0C
FFF419180C090C0B
F3F904080CFFFA17
FA1A0FF2E50E0815
25E31407F805ED17
1F140B13F9F21212
21061B2427351429
0909F60736E90806
0804F9EADDEB07FB
0F152E191C1B0713
14FA1A3311F8ECF5
0216F4FE04050905
0D09FD0B14102410
212B1105F501F915
07F1E310FE0BF9F3
0203F804FCFBF306
070807F7F40108FB
00FB05F7F4FA07F8
0AF5FC060D06FB01
0706EDE5E30D0D0A
0F04260EFA050E00
FB05F9EDF4090A0C
FE08F412FCF00303
0309F40E22F704E9
D5FB0DFBFA150FE9
F4F9F6F3F302E203
02F6EE0103FCF4FF
FF03F7F5F8FA0B0F
0DFD05251F0F0CFB
08F8DBD1FBEEE6F0
E9E3E8EF03110BFB
EFFD03F60504F30D
0BFDF0FDF409F9F6
F6D0C3CCE8F20208
150A0F0C001E080C
0C0DF4E9102303FA
0C0BFCF5F0B9E4F6
02FC14161C1C1B0E
08FCEBF401E6F3F4
FB25F8FE06CF01F4
EFDFF0EF1605011A
1613120A0706F3EF
F5FDEFFEF402DE10
03E418F7F5FCF900
FFFA0604FF110EFF
16F7FAECFDF3F1F4
181F000FF7DD0AF3
E0F109060306FDFC
FFFEF4F304F7F8F5
FD02ED0F110605EB
F2E0E9E6FC0408F3
0201FD1013F2F1FE
05F8FC0603FAFF13
19F0D6E9F2E4F9EC
F3F80C0B06031B00
0C0600FA0713050A
020AF81012FCE9E1
02FDF9DDEE010F10
0A1117130BFE00F8
0A04F80FF8141A38
17E1C2DAF208E2DE
01E90A14FE0B2326
191708140E000706
F9FE151113EFD001
0404E2E40BF70414
171712250D110D0D
0000EFEBE701FCF8
FA0ADD0AFD1105E7
1012191E0B0D181B
0907FFFC03FAF307
07EC03EEF31EEFEB
05F4DCDBF4291E06
08060E0F10FCFCFE
FCF8F8F1F4FFF5F4
D301D5010CEAE4E7
F41B2503110D2309
06F607010C0E070D
00EFFFE9E4EDD116
E3EEEFE1FE0B220D
0A171C1403020805
0EFB0D050DE8F1F5
F0EDECECF9E6F4EA
FA01F40201060602
08FEFBF6EFEB1BFF
04F5FCFEDED3E9F8
FE0901F60F19FFFB
F0F7060A1311FA0D
F5F1F8FF130F0DF2
FEF8E5F8F3F3ECEC
FC0DF8F7FF09F8FE
F816F7EBFFF6FAF3
010C03FBEBF5FFFB
FDF1FEF4E0E4ED03
080A0E04FE0D15FA
0AFDF2ECF40005F6
09F8EEF9F402E9DA
F7E5D5EE02FE00F5
0311000209F700F9
1710091E160CEE00
07F9E6DFF80AEFE1
03190FF6FC060507
18F50B1FFFE62326
F5F4F4F60B020CFD
0AEEE4D3E6FFECEC
E1EBFA08120E02FC
02F6FD0DEFFDFF0D
03FAFA2328050411
1423FFF6F5EC0204
FB1E10F6E7FAF318
0DF4F3F6F70408FA
03F1FDFFFD05F700
08F108180BFD15FD
FFF1DCEBFFF80309
02FEFFF8F40D0B02
04050DF70B0CFA0B
F708FF05F7FCFE01
FEFEF3FDFAF6F8F8
0B12152025070B24
2F202A35242B180A
080F150C070CFD0D
0002070D05171B1D
2F323B2A2317333B
230E1F0600F4EEFF
0AF6FF01FC090009
F1F118FE1D200D29
182112F6FC010311
EBD5E9F9F3071A06
0601F4F80012FB00
18060CF6F90F05FC
F30BFF0AF1E7DBC2
EEE6F00DF8FD020B
1A101304180A0007
FC00FC0BF3F0FB17
FD06F1E9F6F4180E
060CE4F1FCF9FD0C
08F9FC0C110FEE02
F2FBEE0CFA00031E
F3150E0002290000
1502071CF5FEFD00
FF02F8090304F9FC
FE000C09ECF00703
321D0DFB0D0F1917
020000F8FF1101FF
01F6FB03010E06FE
EEF01A0EFB04F628
08170BF4F2FD00FB
0FFE03F9F803F5F2
F80508FB03040BEA
FD15E7F407071503
0A112206F3F3F6F9
0510000AECF803FF
00EAF2FC0B370705
2A22060B090CFE00
030904F1060701FD
00F50CE7EEF1F3F4
0425010425110014
17FDF2FDEEEE0900
F1040F0BFBF40BE8
DFCECEF700141914
070BEDEE04EDEBEE
F005EAFBFAFE1206
EB0903FB00F4EB15
F600370ECFE908EF
E5EFE8EEF40DFAFD
FBEF0F09E703F410
2E06FE0F0CFB0C0A
D8DA09F0EBE4E3F4
02141BFFFB0BFDEC
EEF00C0C2E06EAE5
0AF61605FCE2F8DB
E0DADF0A0C0D06FB
0C0B09F8F4EFF811
33F5F9F20AFB05E2
E2EBD6AEC2E3FC2A
1F1917FD25F7FF00
14FB0D0EF5F11108
1FEE1DF8E5E7D2D2
C6E5202F2A271113
0DFE0E160AFAF1F0
DD0D2DFF0A16EFDD
CCE0CED3C4062E2F
2A16110CF7160C00
1AF504EFEAF00B0B
06FCF3F6E1DEE0D1
EDFF402F25061A0C
0FFC0B1317F6EBE4
0AFFF802EDFCE7F6
F6E2EDDDF903FB07
06081A0B060B1209
06E6FBF5F4F4F603
F1FA0802F6F7F807
FDF4E6DB040A1114
0D130FFD0BF4FE00
FD06E3FFF6FDE5D1
08EEDDEBF906EDFC
06051110FE120A10
1B0E23FF0EEFE0F4
0AF3F6C7CFE7ECE1
D4FAED0510FEF70B
04F71215041204F2
FB0505FB0D00F820
EBED1401E1EFD6E8
FB06FCFD04F7EAE9
0C01F9F1EF01FBFC
FDFEF7F4F10F180D
0EFAE6EBE2F8E5E7
D2EC1121FCEEF8F9
F108FB060402060A
FC1011241A364D15
FF340DF50428051F
25D9F01300FBFAFB
0A050B02F9FF0705
F3050DF40A01F303
03000206F3020509
02F90606090104F6
F803162115F712F5
010408FFFD1F2716
2A0B04140106F5FB
010205070CFD0B0E
2919261CFE100DF7
FB020C212D151EFB
FDF601F30500F606
2004151813FF342E
13FA10180C05101F
1B251B080D1012FF
F5FF0523FE19F0E5
00E60D1500FCFFF8
F1110AEDFC1B2A09
F7F813F70107131E
F20003F5F9FF09FF
EE0108F9F6080C20
06021B03E7E9FEF7
050925EFEDFD060D
FE0F180209F904FE
01FC040200FBF800
F6F209F502FCEFED
DAFCFD00F41A0A0B
150C130AF8F6FF05
010CF0FD23010B08
EFFC0EFAEE0504FC
00FFFC1A0C180A0F
F9001CFFF20E0410
21260209FC1716FB
0E1608040D020615
1D06F5FFF9EA00F7
0200F7F1F91CF618
04FFF8FE06F8FDF8
041016240DF9ECFB
00F6FCECF2E0E2DA
E1EEEB11FEED0BD5
F8FE03FC0105220A
0BEEF3F30510FBF2
EDE9E1FFF3CACBF6
FDF4FBE812140CEC
F8111702D7DEF6F2
E90006FB09F1FF01
D8ABBEEFF6E4EFE0
2E00FBFF01F91BE4
D8D4F4F40C0FFA05
140C0801EFD5ADD1
02FBDDF80E080105
F410FEF7D3E8F6F3
FF0201FA2B2C2E0D
04F7D0DEF001CDFD
000D1F150BEA0FED
E9DFEAF0D5FCFD0C
1D2621170BF5E4EB
0710F6F0ED1C1E19
331E170702EEEEF3
E1F4170B180714FC
13FCE3F2F605D8FB
FE1C0A2F20181E1A
09FBF3FBECF40A14
18110300F6E6E8EF
0401F100F3F7021C
0F160B1C19F4EBEE
041827241110080A
F102E5CDFF03240B
FAF3FCFA1A1B1912
13F0F8FB03141D1C
0F0301E9F5DEDEEB
F90B0DFCFFFEE3EF
F808F1EDE5DEFEFD
2326010511F9EFF4
F0E7EE0403F9E3E8
C9E5E1EDF1E5E3F7
EDFFFF0A26020204
10FAFBFD1E08FDF8
F3F7DAEEB4EDE5EF
E6D5E9F4F9071E16
2005081A0E00FCFE
FFFA15FEFC060932
D3FE0708F0EEF1FE
F100141112061414
0AECFAEFFB0229F5
FF0408F9F909121F
110D191000092022
1A3F0C0C1207020D
F1F5E9FD09F809FC
EB1519243027F307
1D1A181519050814
FA0111131EFDFD08
01FFFA0721192122
1119151420122C1D
3437233136331316
0BF7050C0BF505F4
01011B16060F1C03
281414200DEF0115
FB1B1E0E0C09F907
F40805F600F902F9
FEF6F6FD00EE05F7
FC0AFF0C0CFD070C
00F305FDF804FB07
FBFAECFBF1F60601
F3F5DFE5DDF7F6E1
F0EFF3F508FC070B
F40A06F8ECF0FE00
E9DACEF8FBE7C1C6
C1ABACDDE1D8DFE5
D9E1FAFE0A052805
F9D0E91E2917F7FB
EFE1D1D2B7E1FEC9
E8E5EFE6D2E8D20B
F6F52E10EFDCF8F0
0701FAECF9ECF4E8
E504F700020D1300
E7D80602F7F51113
FBDCD8E5D4DEEBFF
F3E0FD08F1EFF3F0
FAFC1E1F1CEEDCEA
F9F7010301FAE7DE
ECEDE10403F904F4
F4F8FCE2F1001A0F
FDCF0CD802E50CFC
0200F7F3F7F2E003
F2050CF30806FBF9
18F902FEE8D6EDF3
10DA04F3161CEEEC
F1E4E4E0EF020C14
0AF9FDF504EDF3F6
06F9F6F201C519E3
03F9F6EEEDF7FEFE
FAFD090F04FE07F9
E7E7EBEA0CDDD614
05D30707FDE0D700
FB01FCFB020A1227
1E170502DBEBDDF2
E5EBE410FFE8EEDE
E2CEEA0A1C00F40A
FCF70B29191E1507
D3DCCBE7F5E1D726
FEF6F1E2E1BAE60A
14061B1C171B1221
2018230DD7D8D2F2
0FF8E70600FADDF0
DDC4EC0C132B2F17
15FF0D1A1A1B23FC
D5DCE3F205ECD4E3
FFFBFCEFEFDAD808
F8121E11241BFEFA
132433FADCDCFB10
0B03DEF9F806010B
1EF5EEF604061312
0E0E0104242925ED
E4F40E1A060CFD05
0BECE7FF1B09EDFD
FEF808131504FC0C
0E20FDEEFBFEF609
F3EFF82302F3F9E9
FF220D03020C0A14
0E0C09150603FDF3
0B12211100140F16
EEEEF7F0070FFB04
07FEED0C0D0C0AF2
F8E2F0E5ED0012FB
0F0F21100DF7F018
F8FCEEF0F8E7ECF5
060906EEE4E7E6D9
E4FEE5E0EE0B221A
F42CF2EDF7F0F1EB
E2D2EC010004FDE7
FAF1F0CBD7D8C5D3
F91E24081A06E2E9
FAF5EBE2EBF3DFF9
F101E9FBEEE0FAD9
E5EED9FB1C22030C
0513EFCEDA00FFF1
FEDFF0F4FEF0F2F9
0AFD05ED0E06D4F2
FF1F18FFFDF8E4CE
C8F9FBFA10F306F2
050AF5FD021B170C
10F0EAF20C1F3301
0107E9DEF502E5FF
F5030603FCF1F90B
EE1010070C0303FF
EAF9FD0A09FA0BF9
FDF1D1EE1021ECFE
DFF5F6EAF2F1FAEF
04F1FC11F1F2F9F8
F300FA2319F90D01
FF09070BFFEAFCEC
F706FBF3E5DFE1F6
1008FF040DF3F3FF
01EE0706F8080413
0DE10D2A03090AF8
EDDEE8FC000404F8
030D0B01F50B050C
FE04F50D110AFF01
F808F9FEF608FCF7
08FD0DFF00FD0B0A
0F160417190B1111
1D13F507FE171E1B
1C0C1A060CF30201
06F8050713011607
1B21142D3D180F25
25241E072213FE11
F4FDF4080DFB0931
2B01161017101E15
0F060A1224F70013
0C19E7FDECE61504
05FCFB34ECFBFE12
FD0607FB0BF41031
301918101115DEDB
E5F9F3F8FB0AFB1F
F3F9100C2111FB06
F900091B0B220F02
FB0BFBF4EFE80301
02FF29FCF9011315
1CF8FE020F05110E
0709F9F5EEEFC8DD
EDF4EFF703FC1AEC
DB0D11121C0C1015
0F040809F2EAE1EA
CED2BDA9D4E6EBFC
241111E5EA150E10
0C1402FBFFECDEF6
E7D4D8D4D0E0BCD8
CAC7EBEF04F7F716
01E9130110130400
E6E3EE08F0D7FCE6
EAEBD8DC0EF80B06
F806F40B12F00713
120D15DFEAFA070C
0D0416FB031BEEEC
3E0602ECFEFF20F8
0711021A121A17EE
E3EF062C1D202018
1C2C0E1A4018FE16
071308221F160F07
0F2600E8E3E5090D
0F1A15081A0F0E20
3509EF05FC0C180A
2714170E1B211CD9
D6E6F1060B0705FC
04F7141C2006E0E8
031014E3050F0F0D
072510E2E5F0E7FF
FF0403E5F60D190A
0AF8DBFFFFF9D6D8
F4FD1425070D00FB
F7F3FD00F4F908EC
0A08091E0B16EFE6
0CF0E1EDE9080F08
191BF2F8E4FC0008
E4EA000209FBFE02
0610E8D70703DB14
F21E150C1310FEF3
EEF2FEFEFCEDFD00
030B020900F4F1E6
13F3DC321F0B0AF6
FC0B0DE8E4EDF106
FD0907F5030EF40B
260EF9D8FF111137
33FDF7F8FF060800
F1EB07080615FD04
0301F5142F17D2F8
0507FD001BF400F9
00161709FE0EFD00
07140BFDF0EEFC08
1B21E3FEF5FEF4FC
0F1A200A110D1504
0703FD0F04150CF9
0BEEF4EE161C16F4
FBF9E2CDF00C09FA
FEE8E8FDEC01FDFB
F50103FBFCF0E3F5
EDFE23070502E9DB
C8DDF1DAEAE6F4D9
F7F7F8090A0D0A07
00E50AFFFB011A08
FFF71A150A151A00
F7F00205FD09FB1B
0F12160F24FFE9F1
E5E801FE04020615
1B1C09ECFA0D051F
281F25FFC5E91225
1A200C1E252901F8
FDF3F302FDECF4E7
F0DEEA24FCE409F9
D7D8F9282D04FCFF
0AF400010302FE08
02F51012110A0B05
0AF5ECD5EDF60DF5
F0D6DEF6F60A09F9
F901FAFF0704F801
F7F80709F905FD06
FDF5F7020A03F5FA
010DF8F7000B0903
F4F603F2E9FD0400
091D0FF5F3FDE7FA
F30CFCF60DFDF609
FA0A0B1120F6DFFB
D1E7E3D6DDCEE3E1
D7DBE1E4CCF8110F
0A03F70DF804050A
1309E8001409F100
F60701E2FFF4EADC
E1E7CEEDFBF5F9F4
01F106F802FBFD11
0702E8FAF40E02FB
EF00F6EC00122C2B
EE16E1070BFA04FF
F015160BFCD7EDF4
EF0C0E10030816FD
F7FB03FF0AFD0507
01FC11060D3008FD
FBF0FC0205190DFE
0C03F301F4EA13F8
E4E4E8F1F9FB0D17
05FF160DF5020804
0FFD03F4F2F2FD04
F3E7F6E9F5E1F2F8
EF11291012FC0F08
120E0E07F8F80405
FB0400E6ED05E8EF
05E0FAEF060E0000
080E02F5F1FF0E0C
0EFAE6FFF31305F4
0CF6F505F1E7FDFE
021019F6FC1205FA
030E1615FEE9EDFD
0705FEF1F9111206
DEE7FB0BFF1D14F5
EBFF081D00141817
F7DFD0FC0E1B12F9
FF191EFEE0CDE3FE
FF0F2EFC0C050C00
1F0E120CF3F1DFE9
0316FF0010011A13
FEE6F200FA1E21F1
1D03FFF3FD0F1F1B
FEFCE6ECF90BFDF6
1A1708F8E5F1F9EF
031324EFFDF10701
0707F705F0E7EADC
F8FA0902230DFB0B
EFFC06F6FFFAD9E5
EDFCFC0DFBF410FE
05F1CEDFF7140E12
2F1202FDDFDBFD0C
0BF6D1E41E100901
00F8FB0CFBE5D5EB
0D1D21111C050DF4
F1E2012807F9CAF5
1008ED0C09110CF3
E9CDD90B1A2C2619
12F402D2E8FDF522
19EBC0EA1DECEAED
FF171AF3DDB9E721
232E140412FBEFC9
FEF9E3010A03F0FB
0BF4F9EEF4FEFCEE
D7D4F029210AF8F8
EEE2DCE6F8020F01
01F20D211409FED9
F2E0DAF5EDED021A
2203FCFEDEDEEFF9
FC03030C02052303
F61C11E5ECEDFBF8
F70917181D0FF5FB
EFE4FD010706030E
07F41B07F2FF0C05
0FF50806FC17200F
201A09E903E30207
0D03EC0F0809D6EE
FFFF04FD0CF9EB05
07F81A1B160E0108
0A08F8EFFDEAE9FB
08FE16F712020AF7
0100F7F0E6F3F804
1C1E09072526ED01
0907FCFB06F8EA07
F619FFFFE1DFEEFD
E1F50B02011B0D0E
1E2001F6000EFFFF
FAFAF90D0C020AFE
0C092000EE022100
0B16292E0D111E0B
0309FFF605F5FCFD
FB160406001D1EFB
FE0018F808101019
0113241EFCFC0108
F406F302F40103F9
0D09F7020BF717FF
FA0A050C050D0B06
F5FEFB07FFF7F70C
02FAF2040F01000E
0004F8181502F9F3
FFF705F6F4F4FBF7
F5070E1804FFF107
F4210F072715FF0C
F9F7FF1904F8F8FF
0B0BF90302F8FBEC
E2E9F3EAF428F6F4
0F1600F9F6001607
080115F9EF011A0B
0D0105ED03EA0C12
10040AF301110E05
0F0E0201F6F30704
EBE8F5FCF9021EDA
FBD6FFFAF6F7FD10
0D1417100EFEFB04
F50610FCFD12050A
0602D2F3E5CEE808
01FD030C0609020B
11F3FDF9F9FFFEF8
FD19FA11F6E8FAE5
EDDE0CF0F6EEF001
0E130202FCF1F5DB
ED161902FA15040E
18021606D0EE0FFB
F5FC101A0E09FBFF
060F05FAF50101F2
F7FC12FEFCE4040E
E6ECEBF7EE0C110E
0202FDFD0502F3FA
F7FEFEE7E4ED0203
F7F81013F8E7EEDF
F5FB13080A050100
F5F70809F9F9EBF3
DAF5FA12FC14F405
F9E400FAFE10FBEB
01120F06FEF9F80A
06F3FA03FDFC04F4
06EB100AF0EFFAF9
0D01F1EBFB17050C
09F8F5FCFB051413
130503220702F1F6
F3EAFFEAFA04E7F0
1924160008FFFA09
F9F419190B1E1833
FFEFFFF7E4E7EAEF
E9FEFF1D1D0FFCF8
FFFEE9FAE700FB00
253C5F1307100300
DDE9E2050F15192D
280CF8F9FFFAFB07
EAF3F6DE082F2015
0CF30403EFCFFC27
232E172519EAF4EA
0B000D000E0E29FD
F6243716FAFA0CED
EED9161C2A3D4D18
F5DEF8F903FCF4F0
0B0F0A06F8393D43
E3FB00F5E2F61013
143E35F2D5F105EE
F1F6FC000707081B
1F3D2B2AFBFEE2F9
FBF6090B262A26CF
B4C9E809F9F1EEF6
FF0B200A17442C10
FD16E8FBFD0A0B0F
0F2520F2D9EAEDEE
F9F206FBF912051D
2A301BF7FD07E0D8
010C17110C0809FD
E9EDECE0E3F3FF00
F1F6FE040D090C09
F8FF1100E10A0F0A
0A03080812F6FFF8
F0E9F809080001EA
EDFDDEFC030CFEF3
E5F6FCF2FEFE0711
010F01F8F8E8ECF9
07E2DFDEFB08DC08
FAF9ECCBB8F0000F
1C190F1108140505
F6EEF0E3D1CBD2DD
D9240A0C020A0AFB
D1CBE0EDFD12F7FA
171A0BE3E2D7D1DE
DDDFE6E0D5190509
F90BF709FE13F60D
1605F61729201206
FEF6EDDEFBEAEC0E
230BFC00FFF30102
06EB1103020F0C12
04FA0B0DF3F0FAEF
FDE6D9F3FE0B05F4
010904FB0D02FE0C
0104FB01F5F6FA08
FE05FC02FA0804FC
F4FCF3F4F9F301F5
09140A1607171107
0C1F0E14291B2325
2E0E0E18F9090704
FC0208091CFE131E
15E6E1F8FAFB051E
110809333137343A
1605FBF60B06F11B
29F81A16FFDCE5EB
FD14F6FFFE221D12
3228051F1CFF1208
0DF9F618F00CECF3
C5CDE0F3EB0C100E
0F030FFC031E0100
030C180401010B1D
C507E9F7D0E2EE05
FE011C14FF121BFA
FBEE001D050200F3
0CFE0D0B121EFEF6
06E5ED07F108FD0B
1316110C000106F1
13221B1600E00C01
F41B1305090700FC
050C0F1520111112
1C1C1A10F2242800
E4FC1312FC080A05
03FDFF10190C1916
1510FDFD000F0013
0E1D0208090CFD1A
260104F8EDF40819
141E2714F1D6EAD8
E2F503FE110CF405
F900F0061005FCF2
E5F20E0809160EF1
D9D8C8BBBFC9DECC
E2F2091DF814161C
FA12F0F3E4F1F806
0A18F2EAEEE9E4DB
C2C6CAB0CED61424
FB140500F6F5EEF8
03FEF40511FBEB02
E7EE01EAE9C3C6AC
B6D1E20B04030306
E8EBEFF1E8F113FD
0EEE02090601F1FB
14DEDADEDFBDD8EB
FFF20703EFFF04F1
FB071B01FEEEF1FC
0603091710FDFEE6
E6F9DDF8F6FBCDE5
FD120406FA0C120E
09FCF8050C0E2009
FF0E0A0301E1E5E2
FEE1D7FBFF070808
1500F916FE06F201
0B1D0A07FDE5EFDB
F1D9D51906FBD20B
FD070604020007FA
EAED060E0A1916FB
E8E1DADE03EC031B
08F2EC04090D0C07
F7FEE3E5E8FA1D01
0CFC04F7EDE5E8E2
FB08EB02F62D09DD
12F2FCFF04FCF2F3
FE08201505FE01F1
FDEDCE011A29E8E7
05F7F2EE0C03EFF4
FFFEF904FB0C130E
07F7FE0DF4DBD4F2
1B2B280B13DEEA04
0E01FC0B0CFAFFE9
0212191A100AFEF4
10EBDCEE181106F6
1107D0FE0608EDFF
08040AF4FE051B06
0AFCF3FAF902D1E7
F7F0FEFDFA03E50A
FCEAF302F6F20BE4
02FC11F7F6EFE109
F3F1B8C6DFE2260D
FAF4E9EEE2ECD5F1
F500F9F4F50C0F02
0108E5DAFED6D8E2
FEEBFCFBFDF4F9FD
E7F0F9F3E6EFE3F6
220621FFEE0000F7
F1FEE1120EFB0307
F5F9F6F8F21010FF
051DFC062533350A
19262F2C1C1E2309
0507040BF80BFF00
050F0A0B0F201C0D
1C2221FFFFF80C17
091B04FDF4F5F9FF
FCF60DFF05F4FB0A
0DFBFFF6F90517FB
F6FC0D03FC0A030A
0308F5FF02F7FE03
0B0A11FCFEF9EDFD
F5EDF2FC15FDE9DF
EFED0109020C0205
020D01FCFFE6F5E6
F5FB13F7F0F6F20B
1A000EFCF9F8F508
F40C030BF90C070F
09E2E3D3E306110A
F7E4F9091F0703F2
F0020F0DF4FAE900
0A0908E8E4E0D5D2
E21111020307040D
100D2C1115261E26
030301FD030B0AE5
FE0EF3EAFD03F40B
011B121215FD1B18
2D242A0B02082DF6
010409E7EE09F1E8
F0020A06080D1D12
1305241A050C1204
1031FB21F3EE0FFA
FFF7E5081A090EFD
FFFBFC1D18181D0D
090807F60E2AFB25
18140BEDF302F513
0E010C0103EE0305
0C14240F0606FD08
28362519091AF514
030705E8E9FC10ED
FDE6F90E051D0B12
FC03F80D2E4112D9
F60823F901070EFA
F4F7F5FF0510231F
22120D0AF70C0A14
2B1611E303270F12
0A09FDFCEFF7110A
12290C210C01060A
ED0100FB1D1F4ADF
FC1417162305070B
FD140A3221110111
F608F4F1EFF6ECEA
D9E511050C05140C
1610FD0B001B1F26
07F4F4F3DBECFBE8
F8FAECE3D8E5F614
09FD0AEE04FE1700
F906191EF2FE05ED
EEF7F4E6EAED10FE
FFF70F09F9F9F7FC
F40E06F5FFF204EC
ECF8F3F1FBF0F6FA
F9051509070A290B
F8FA0EFF2321FD04
F1F0F6E3EDF8F4F4
1405090D05191E20
1412312706E406F0
1B2B18100E05EDEF
F3ECFD1018171A1C
0DFF080E1B0A3227
06EFF0EDF4342415
13161211FF18110E
0514150A0FE6F60A
25EE131CEF201306
F525213338172019
1E2A00110703FEF1
04F70217270D0202
04110B00E3050615
1E151A301F0EF0EF
0908F5011004140C
1B13F701EACBE3F6
F5FF061924102012
280C0B08040E041A
1600101C12181A03
E7EFE7EAEEF3E4FA
031C020DF9091F0D
1712130A18F8EF27
0CFF110D08F3E810
16FCDAF6F209FD0B
0A040A1A19130B07
08FAFD040D02F8FE
04FCF700EDFBD2E4
DCF2F8FEF8000318
05050D03FAF9F1FD
28EF0F0804F7EA30
FEDFEF0404FA0FFD
F8F8F2090D0DEA03
041D110F1F060806
FBFDFDE7E9E6EBF0
FF0FF7EC0210F600
FCFF144326201DE9
0308FA0CFDFBFE0B
FE080B0A120D1312
062004F8000DF917
EBEE0E13F3F503F9
0AF6F50DFCFE0BF3
F504FB08F60009F8
0D0C0603FF0BF604
06F7F5F505F805F8
F60E170D22221B12
0F0FFEF4F1F60A0D
21040E10F70607F4
05FF04EE04191B16
1727263A24021D23
FEF3F7F917160D19
1BF40B050BF7DDE3
D217221A3428111E
1C190E0413F403F1
DFF7182208F13709
F6F6E5CB200B2310
1E0414F1FAEBFBFC
0422080801EBEBE4
E0E1DA000206F5C0
330C0301F5E8D6DC
D9EFF4EDF9081328
0308EEEEDDF5E6FA
0A0B050E18E3D9E4
DAE8DECFE0F1E907
00F50108F2060CED
D6EFF1FAF3181506
31F6DBDAD5D8DFEF
F106F4F900EBFB04
030A01EEEBF10EF0
FF232C0011DDD8E1
E60CF8090D02FDF9
04F6F514FBEDF3F4
D0F018E6F4EDF516
26E2FEEE0003160A
1905F6EBF8F1EB07
05040CFFD4FC1201
FFE7CF231D2111F3
E8170B070CFB07DF
E7F0EF03FAF8EDF8
E2E10BF2FDE80710
121611F51328140B
FFE6F4D4E4E9F70A
0C0905F6EA0DF6F7
08E703FE11140900
1D1F05E2E6ECEFE9
020A0911141D1A1C
12F8F6E4F80BE4F3
EBFE11F9071D0AEF
FC05100B0D0A2913
01FB0BF9FCF3EF0F
FA0CE100FAF700E7
0905041520122005
18021FFBF900F8F2
FC090B060604FF05
0516F0F9060A0B05
252011F80F13050F
F9ECECF3F9021212
FE1521F00B0D0C0C
151B1E3613101700
1306151300E2F7F1
FD232C18F6FF200E
05FFEFFBFCF6181F
1908F51705EDF103
FCF6F511F11A36F5
DDF81710F8FA10FE
010E10FC1C191513
F8F80304100F1305
0D2E231700BBF2F8
130CEB08F702FAF9
0B14001105130407
04102B29011C2F1F
0DDE0A133910F70F
FCF00003FE001312
01021005011F140E
0A0414F9FD182022
11F5F213FAF60705
FB14101A050909F1
F3091508DBE9FA06
04011F38030BFE03
FCED0AFBEFFC000B
FA050AF3F1E60D02
DBF8D9FE0900E92D
FDEF02F6F9D6E4D9
E4E7E6E0EDE607F4
E3ED0F1000FED900
F9FDFCEAFADF0EF0
F2F1F6FDDEE4DFE7
02E3E5DBEEF8F105
020D0804F6F31BC3
D3FC1203FFF20F19
18110D02FFF5FC0C
07F8ECFBF1FC0CFA
08060A0E1B1E1516
140AFE092A0D2203
0D181E04EFD4DD31
1BED00F4090D0108
FCE3030A180DF108
09D8F9FCEF082F0D
0FFDD2EF0DFEF9F7
FDF50BFC070DFB09
00F4F800FDECF40C
F9F9F505FF000709
F3000D02FDFAF405
0505FE15FC070B10
030EFF081E08110E
FD0F0CF5F5FE050D
FC0503170A050109
1B04FA1406E8EBE2
DEDCFAE7FBF301E9
04FC02FB00FDD710
0A2910FCF4D3E22B
14FC130DFE001317
FC08FD1205F11702
09FED5E8F1E3F5FC
EAF207FA16001114
FD1B16F202100F04
FFF30502FD01E4F5
ECD6DC01FCFD0509
100E0E0E060A0621
191705FAE3020CF3
04020C1DF4FA0213
0A010B0601020108
0A1700041412F306
091DFCFA03170D0E
22221B1115F3FAF8
FD191525090A14F7
F2EEFE040720EF02
25F0FEFD121C280C
090CF50E120D1611
1EF5010D0E03FB0B
041CF51CF7FF2BFE
0F170DFC1101040B
0DF8FDF903FFFCFA
0C00FB0F060BEBF7
F504E83306FE0106
FCE50C1C180FFA03
FCFCF50708E4080A
120001F3FD06010D
011B1014FA000312
13F0F2FC03FE1613
0CE8FCEC1A011BE3
FFEFE4D7112013FB
F10308121201F7F8
F81B150E06F3F8F7
EEDCECDFEFFFDFED
FF000103EE141027
FDF4F705FE061E0F
F7EBF2FF0BF9EF07
FD09ECF60FF811EA
F205220AF9F700F7
EF1020FF03F4F109
250F03F8F703F311
161A0EF904080700
F9010EF2F820271B
0EEDF31929190902
EE13191C170FFD10
0514150007FEFBF5
F1262807170E081A
240EF913FB00081F
0406F8050BFD070D
08FAF9F606351312
0F1700FF00F1EF30
D80C0A0DFC173614
020F0D0CF8F0F7FE
1E1A020E0A0F01FF
DFD1D90DFAE9EF0F
04160B08071311F9
010B04000D120DFB
06071E08D7D5EF06
02261A09161E0A0B
0C1707EBEB0C0907
EF01F6E3F50CF9FC
E4DAEAFFF5081F0E
F7F1FF17F301FF10
FDFE06151002F4F7
E1F2F7F5CED9E9FC
E3EE24E906FAFF04
FA05FD090D19120D
200E13FFF6E708FA
E0F1EF0AF6FC1B2E
10FEF30B170CFE10
FC0A0C142A072114
EAEF1006FF03D8FD
0003F7100FFDEEE2
EC07080811110C0D
1603252E1C071712
E501FA05FEFD18E0
DC0B0600E7021D15
FB12100208042035
0BDEFC02EFF1040D
070BF8FE161AFFE7
F4EBFEFB19F5FDE8
DCF70DDC02FFFA07
13EDF400FF0DFA0B
F1FFFE09F5F6EEF9
04011024FCF80EF9
F9F0F0DDFEF707F6
F7F7F80A02F8FEF8
0C0DF4F51010020C
0BFB06F4FAF909F3
0A0C0D0A0C040207
FDFB0B04FA0607F5
F9E7F9F9E4FB1925
24090FFBFB080102
09FB06E4030C1101
231F1812210707F5
050512EC04FAE107
100AFEF6FFF9F3E4
C7112F0B16F6FF02
05010F0316170C08
0206ECF6F2FB05FA
0BF6FECBF1F604F6
06F8050F263615EF
F904E6E6EBEFEBE9
EDFDF0F9FDFA0ED9
F6C7EAEA02120012
100101E9EFE2E4EB
EECAC8D8FE14C812
F5F4020502F0F7F7
090B0B010BF6FCF9
FCFCF9E0E0DFD6ED
090501E508FC0F01
FAF4FC0EF50C02F8
150BFF0408F8EFE1
F0FEE5F31B23F9CF
E914240402F9FE0B
0C130AF406F707FF
EBE3E1FBFDF3FF1D
12F8EDD80410EFF4
F507F5FB01F3F9FF
0908EAE2E5F705ED
FDFB01F8F7E0EE01
09FEFBFCD7051BFB
FCF2FBFC170BE1E6
03FC0FFBEBEB03F3
FB0BE9F6FCE516F4
ED09191C0BF3090D
02E6EB040E101117
1D06FDEAF5E7C71A
FAFE22EA0712071A
12FE17040AE40617
09090623101E0103
EFE6BFF3F4F211F4
06F6070209FE1314
F0E709130E0A0A0D
0710F007F9CECEFB
07FE000105050511
0DFC1104EEF5120A
0CFB14121C0F1311
F9F6CBED06F41005
0521050A00F9F9FC
EBF31621140F190F
1A271CFD14070007
F7ED110513362105
FDF0F2EAF4001929
2220050C181A0DDE
050E12D4FAF114F0
FF1326000EE8EDE2
E0EB15242010FD06
0A1308E8001C18EA
06F915161D050708
EFCCD6D6E5060E25
1401061C0F1502EA
F92F150802FF13F2
FDDDF400E8D1DBF3
0E1C2D270208FF16
1409FBE6EB0A0B03
03E31501ECD7D9F1
E1F1EF011B0F1717
09FC06FFFC04E5E7
EFE70F0A06FC06F9
FFEFD5F0F70DEDF8
F5F607F604F20114
0DF2D7E5D8DBF704
FAF923F60AEAE3E0
F7100002F7F6F0F3
F3ECF50903F6E0CE
E303D5FA020CD7F3
F2F6F7F3F0FFF402
EBF2EDEAD3BCD5F2
0B12ECF010F7E7F8
FF0201EDE3DF15FE
FF06171303F00709
DFD8E7FE281F0007
0D1D06FB02F5F3FF
EFDA1F061D1F0616
030D290603EEF2E4
050FF2F3D4070A00
04050D05E3D3D4E5
242A0204F90A1217
040F02F1E7FDF800
FBF1010CF3040009
07FF07F804FB0CFD
141CEEF821FCF103
FF08171B0A07F80B
0DFE0AF306FDFF0C
FBF50906FA0D0004
030DFD07FAFF0DFD
0005F3FFFB0C04F3
F9F609FBFEF50205
01051CF9F3ED030A
050D0908F6F504F7
04F803FBF305060B
0E140CFD08F4FE07
F5F60508020E0A00
FC01F6F9F7FA01F7
0E060411FD06F008
0FEFEBE3DFF4FE0E
0D15161719FF07F7
F30EFA0AFD0D0EFA
1DF81415FFF2F1F5
F4EE04F20E0C0DFA
F3DDF7030301FD0E
E90C150DF708F305
0F08F41209F9FC0C
EDEBF8E5F4E6F806
0CFD210502161A07
1705F2F3080D0707
10E8E900FDFFF70A
0312051C08190501
E4F91006090602F1
0D0009FBF6E1E3F1
F9060C1622EA060F
D806FC14EAF1FF0D
04F002F1F9FD040F
F2F3F1ECF20E20F1
FB0712190308203B
FEF80EFF0C04FE00
F7F60C1A19FDEDFC
0C1AFCEFE713F5E1
F8FB1E3C0BF11713
030CFB0CFE191134
34130C0E0F02F0E7
F61302F0F8DA0F11
140F030511191517
16043230250E0D05
060DFBFFFD1EFD10
F5F9110510220203
0DFA12250F032537
180F04FC0A0B04F8
0F2A05EEFAF00304
F91F180010050A08
FFF028241C18FFF9
020A100618FAD3DB
F7F60327FB0800F3
0D05FF0C00F8272C
202715070503FE12
0C05CAF40CF8FD18
090918FBF903EE06
F31721241A1405F9
0CF402142710E9D0
01FA080BF41201F9
080306FB000B282B
1601090B08031719
1FDAD5E1F700F605
0F0F06F408FCF112
14242F2E191E0F0A
160B1B2025F3DFCE
04FDFDF2030C14F4
F9FD0E100B364032
19060917150B020C
1318FEE40CEDF3EF
100FF4F8F50B00FE
0A1A252325130602
1307030F270DEDED
09EEDFF106F1ECF5
EAF302F6F10B0C08
FCF21B181802F1FF
0D0805F9FC07F3FB
FC07EE03EEF4F6E4
FBF3F4F1FD0C0512
FCE5DEE001EDEBFE
100AEDEB0E03F607
F3EDEAEFF3FEF60F
0302FF0100EAD6E1
FFDFFCF0FBF30CED
E6041312ECF0D9EE
F7F6F2F6FAF603FB
EDDCE5FCFF0109FA
0C0A2004FE060916
00FAF5E1D5DAE4F5
EAF7F8F1E3E1F2FF
F5F8F2FE050D16EE
051B1F12222115FE
F5EEF0EBF7EAFEF8
E4E4FDFBE6FB05FC
01F40D09FA0C2815
1D24030BFD1A0B07
163D1CF3EC000206
15F705F705F6F6F3
0602F6021400E9E0
ECFA0904080A190D
0D14321600FEF603
F70AFBFFFBF4F90A
0BF70800FA01FBF9
0AF7FA0A08020303
0C0C0B0B0509F50C
0206FB11FE150F12
0D0D10F9FC010E11
FE08F8FCFB03FD08
FEFF0EF305030302
F8F71C01DF1A1F31
372B281D130A0825
0C09F304060D2416
151520260A0902FF
0A010B2932192706
0301F6132B00F1F6
020F31130C271C13
1C0914141A0E141B
27122210FAE1F0F8
FB0C16FA040B1A16
1812F8F6E4FF0815
1901EA140F1B0B12
02EFFAFDE60A24FF
FFF6061601E8E0F0
EB0B070D0B090A01
1001070FF1F6F0FD
FB04240EF914FB1A
F5E9FBEF09FFF2FF
150C0B0911FA0600
FDFFEBEDF5FA211F
DDDEEDF3F2021307
070A140D0A160BF1
EDEDF10BEBF3F1F1
ECFE010602DBEFFA
0C17230604060C11
FAF9F2E6EDEFE4F7
E4EDF7FFE50BFA03
0CE3E60D031D1105
13090A06EAEDFAEE
FA04050301EEE3FA
CEF4160FF9E3D4DC
00020806FEF10504
1F1D3416221622FC
F3FAE8D9DBDD1819
F4FCE5D804FCFA03
00FE1C13111C3516
130A0C04DDF7EFDE
CEE90414FB00DAD0
E9F4FF10060B0A03
0F151D13130803F3
FBEBF8F9EE040302
F808F4CFBDC9EF00
F8F8EFF7FD0619F6
04F6EBEAECF2E6FE
130C24ECFE0918D0
B4A7DDDAE5F1F910
031513EA16FE01F8
0411F3021B320F0F
FB1136E0B3B7C2D5
D7F4E9F3E9F6F3F0
07040C0A11071817
273B1B09040B1EFD
E4DCDBD6F5CFD4C9
CCEEEEF5FF0C180E
08281C08F6FD0D10
EC1014220BF7F3E3
E5DCCCB3C4E8F407
0517071423280B06
0208F3ED0AEDF842
0E0E01F9FAF5EED9
E7EBFA0F0F010409
0A06220E1930FCED
0601FD2726060E0A
0B0803000D01F7FD
0CFF0F152012292A
0E0F16F9120A161D
260E040316270B0A
11000B11FB030008
171E1409EAF9F806
12190917171A0809
20110E0CFA0AF4F2
F8F2FA011314F7FE
F7F407FAF9F30846
201407060F020F0C
FFFCF5E3F1FC09F1
1E15130A18050FF8
0302FB09F9FD1736
08160E0EFC00F3F6
E7DFF1DB07FE001F
22EDFF02F9FB18EE
F42433230D0E2005
160C0804F3FCE2FA
02F0061509FA0103
F305FFFB0C31362A
1D211E0F19EE1217
10290EF61205080D
17020A03FA02F50A
04EEEEEDE5E3DBED
FCD6223726DEF0F8
F3E1EAFC01F80107
020701FA07FDF4F7
0AFDFCF708FCFC03
05FCFE0906010906
F3010AF50A0CF4F3
FB0BF2FFF407F309
FB0604130C07FDDE
EB01F4FD0302F60D
0305FB2716010205
0820150A111918F9
050E19FBE4D9F0F1
F109050AF706111E
12F8F80A0E0F1015
293C1F0C0E220104
F2E6F3EC0625D907
07FF1D0DF7F3272A
1C172D3734222F2A
0F160CF5F4E2F0FA
F9201302F9080DF9
05DFFE0801F91321
151C180F16180B1C
0DFDFAEBE9272D0B
FD02FAEBDEDBE600
EFF5F0F7E2F40006
3022121D1C08F0F6
EA2D08230BF1FC00
180404EFF2EDE8DF
F8EFFA07271A2D18
1C0F0D13E1F02420
D513F31415F4F5E7
E5EBF1E7EAF500FC
050E0F1A100E1415
DCFA0F0C08E31009
05E6E7D7E0E7F2FD
1513F1ECF8F90B12
0BFE0B1FF40A10F7
07EBF3F3EFDDEBE7
F5EBFA0F0CECEFDA
E1E1FA0CFDEE191E
2A3016E90BEDECC8
F5EBE9E8F40DFA10
02E9EFFDF4F5FD06
0C04190C2C2819F3
02DD06E2F7E0F0FF
F9140BE7ECEC0714
02FF02182507F600
E90703EEF8FDE0EE
07E9E70C0A01FFF3
090629FF0102FA0D
110910FFF103FFFC
0BFED80902EEFEFA
07F20AEB070801F4
FC08FA09F7EEEFE5
F1000704FCF5E30E
0C060F03F8FB0101
05FAFBECF9FCF101
F3D4E5EEFCFE1B09
080C1C0807FCFF01
FDFF0FF800FF0107
01FD03EAE6E705F0
E8FEF4030B040511
1800FAF4FE00F4F2
F8F2ED181104E9D9
D4FCFEEAEC1AF40D
08F70B06051D17F3
F704FEFDE5F0091E
0D0AF8EFF7F601EF
FD16F919FCFF08F7
F3FF03FFFAFB08F7
FA04F40E1C0804FB
EFE5F9EEF913FA0C
04FD1A11FC1F0705
0BF90A0F04F20816
1D0A0212F4FDEFF0
06FFE2EEF3F0140D
0A0A1206030AFFFE
FCED071001F603FD
FEEFFCF3F409EC09
F0FC0E0A13031515
0F100802160304FF
EBF30308EEEBF409
120AEE0DFC03ED21
110F0AFE2612180F
1C11EFFCE61417F4
00040B311702E9F3
F4FBF0EBF8F5FBF7
1D030B031D151B13
162312151F2B0518
0CEEFB0D0D0516E5
EDFD0C08120AF4FB
F6071315120D1A16
270110E3EFFE0D06
0D0B0D13191F0D13
19111113180D3229
262D33FC032812E9
04E90C0B03FDFC01
F4FAF6E6FF0F2611
20043A23230E1A14
021107FB0D0806FD
FDFC0DFB040B04F5
F709F7080E0505FD
F5F806FE04080BFF
F5FB0DFBFF060307
0C13131F07090916
310FF13828430A32
18041A15F4F8F601
00040F2435FC1720
142023303118FD1B
3303F1070F1C090A
27000DFAFE01F822
F9F5140DFF210636
411BF90C1E1A1918
FBF31B1809ED11F7
FDFF13E30F0A10F8
18252411030B101E
1B04070C12EBEED9
E1E4CE07FCF90DE3
240C02F1F8F802FD
03080A021105050E
120D0901EA0410FC
FAF90616150608EE
EEF90107F313F901
FBFF02FBF9090E04
EC14F30BF427FD1B
28080114FF0E0501
1203FF0103F30C0F
F9DE03F0DDE7F103
270CF006230C1523
FC0404FF10FBF914
0615060400EC13EE
DCEAF8FA0BD20C25
1B090D0605111806
EE1119060603F6FA
F10A1315EFF20FF8
0AFD151F0F22030A
FCF7050EFD0817FB
F70108FF0BF50E26
FAE1F115FD34EF19
26110700F7FAF7F9
E3081704FC0204F9
0A1016130903021A
011BE5F513F5F7F6
ED05EFEEEC112014
F6060709FE011E1B
1013EF07FFFCE505
F5E700E7E4FCE1E4
EDFD2108EB0E1307
F90E052E32332014
00F4EEE4C40E0CF4
F1F4FFF9FF191A03
F4F600F20104051A
3A1A4405FAFA1CE9
E2FD00FBFBF4E600
0328390606EDFDEF
080004F90C06FF0B
031427DB0C04F702
0802FEFF0B201501
FFF6FF04F907FA09
1C15232D050713E3
0DFF060A0E140016
081D160CF6F0000D
F904100F0C17142C
1A18F1FDF4F5E716
18081409FAFAFC0B
080807130DFB1910
042D141D0D0FE9EF
15E8F0110B1619FF
0C1001060C080B09
10052A050C130E12
0214FE0A2BF00725
0F0A0EF9FF091105
09F914F40C220E13
17FA15010B13F929
250E14280DFD07F5
0C110A0607050BFD
040008F6F0ED0C06
0810F8151A362E12
0D1806F9F7F900F8
FB15F6FC0CF5F3E6
FAF7EB0AFCFA04DE
F70E1E09FE12EFF4
0404F506FF14040D
1002FCFEF80CE2F9
FF0CFADDE9E60DFC
F9FADBEDFD07F90B
050C09EEFC00FAFF
201B1001FFF603D7
E8FC1708FAFDF4F1
090609E5F1F5CDEA
E8E3E7E2E9FB140B
0805F8EEE0F0EBF7
0E071B09DAEBFAFC
EFF3F1E3F8ECF206
0906070708FE03F6
FE07010C06FCE6E4
DDEE03FC0FE5F0FB
EBC2DCE0FA0B00F8
FAFD0AF7FFF606FC
0901010C07F90BF6
F4FFFA02000B01FF
0DF4F80003FDFEFF
FE03E4E6FBF3F2F6
E3FB0CFDFFF9F8EC
F7FCFBEF0500FBF4
060CFCFEE5FD00EC
00F006F604131A06
01F20EF10A0E0609
030CFCFE03061C07
F304E701FCFE1203
0D020B11F7F706EA
FE01F5EB0B13FD01
FCF30AFFCAE7E9DC
EEFB1D2720F2F10C
160608FBE5F81217
21150B0A00F9FDED
EF00F6160F172725
1102F2EF10FDEBF6
F902100F0E1F1207
09F6EFF7F714F9FA
110709FB11140105
0AFF011606FE1616
1C400B1D05011316
050202FE181203FD
050003F408070A10
030514241D241316
DA143623051D1100
F9FC0412F6F1FA06
11030F11FD030C1F
353D140C0921FC21
FC150AF7F1FE1108
04FEF81804262A0E
0F090A2823261DDA
F9090CFEF70F0E08
0118FAF9F3EB0114
23282A2B26150D1A
FC0D1FD6F6DB13F7
1022130905100D07
04040F2F2D172219
25221FFE19283FE9
0F1120FF0B090111
131811F3FA062024
14170A0A0B1719FF
06293D08030915F1
0B1208020FFCF604
1A210A0A0C130CEA
081613F506285A1A
050A09DA0808060B
03180E120C16060E
232005F3F5F70CFA
F1023413F6FD0AF8
001B0A10F9070300
01160E0F132113F7
03FAF4EEF7F61E12
F804FC0D04121903
E9F9EEE60F0C1813
20120D14030C0304
E31B33F50AE60DE4
1326330C06E9E0FD
0817062302090EFD
FE12FDF5FA0C17D9
08E80A0F0B413706
EAEBDFFAFF14041A
1710EEF605F808EF
FEEC0D1503FD1318
213C1805EEE2FAEE
04100A150C05E8FC
12F8F6FC03F71011
04CE1111262A1504
0CF902FC0A02F302
0304F7FC0303E9EE
FB19F3FEF1F2FB13
2B1AFF1C02FE040B
040CFFFA1A11F90A
03F0EDF2F2261002
FB0006031B071C17
11140E0505001509
00F5F8F5DEFBE6FF
14180602FA02011F
2112062603022012
18241203FCEFF2CB
DBE3F5001321FAFC
0C06080701181D25
210C191C211204F5
E702EBEDFA091A0C
210511FB0CFB0006
2213161B032B1D2E
2300FE0118270FFA
FE1616F10D0DFDFF
F607F6F8FEF30807
0D1412FCFA061004
000A1723151AFE01
EE0C05F9090903FF
0205FAF7F8050011
090FF1E0F21AFB0E
F9010E0EFFFC05F7
FBF902FDFB0506FB
F4F305F3FA05FE03
0B03F7FC0B010400
0A09FDF7F6FE0806
FB06FD09F8E81004
05F3FD09ECFE192E
140D0C0AF50BF8FB
0703050E110CFD13
0DECEEE5FDF1F7D3
DBF0061B1C233311
FAED0A0501F7DE0F
0B08E8EAD3ECF403
EEF20C0811F8FB07
F607E8F604E31407
F612E30C09F5E1F4
F70506E4F40CFD08
FEF9FB0C02FB07F4
02F5E8000400F313
F4001107170D02F2
FA12FC0D0A01EAF1
EFFCE4F1F3F4FA11
FFFF02F1E0141306
FB0200FBFD170E0D
060AFBEF0FFD07F9
F81203D4FF230CFA
FB02F3FCEC07FAEB
EFFCEB00FA0CFEFD
0605F801190004FF
2F002E2512F7FC0A
F5090A0006FF0403
0F030B03EF0A01EA
FB10140C00291F02
1B1017FD04F9EDFC
0306FEFC0801FB0B
FE0DFBECCF050FEC
F81C331C26F90104
FAE8FAEAFD110EF6
F60A161005040CD9
CCD204FFFD25173D
19FBEAEFF7E2F2FF
160D0FF3FFFE1A14
0B1F08CDB3D926E0
10161B19F80BEFF2
F3F0F8231713F710
09181E02140A01D6
DDD4CDF900FF1C10
0508F7E8E7041424
230AFC110207160D
1017ECC3CAC2C7EE
04FD0AF0060DDED9
00151C1A1410F9FE
010C0C00F70FF2D5
C1E7AFEF0FF70CDD
F5D7D7E1120D171B
1400060BF6FFFC06
060BEBF2CDE8E4F2
0FFD0CE9C6CFD2F7
031D0F0E19051403
0B090B0407F4E9E1
BFBFB9E60506FBEF
D6D7D5E71D140E11
09140706110AF511
140213EEDFBDD8F7
101710FF05ECDBEB
010C11F90C0E0D10
0CFBFB080EF7F4F7
C9DD08DFFBFF272E
0C05E8EE000AFCFD
FBEE01FCFCE30008
F9EFE3CFE3DFEFE9
F4190217F0F2F4EB
DBFFFFFD01F10800
E7E5F1F9FF09F7E3
DCD4EEFDF216E1FD
E3ECFFF4F4F2F400
0107F5EBF201EBFB
0B070EEDC4DD1207
F002DAE6E6FFF9FA
F8F6061205120D17
01EAF20BF9020EEF
CCEB1904F40CFBF9
06E6EB14E806F8F6
031E0E1404F50304
F1F1EDE1F1F4FEF6
0C0322330D0F0804
F3F702100105050C
12EEF0F20DFDF4EF
F0F5F2FF07F3F316
0609FF0C0401FBF6
E3ECEFE5F4F001F0
E8C8E601FAF0EEFD
03F501EBD9D4E7F2
ECEBF0F2E2D4D5ED
E8E9E4E3E7D8D9EC
040903F4F5F6F903
0C09F8F3EBF4110C
E915D5E702E8ECFD
F3DEE90E04FD020B
020AFEF5F4F6F4F4
FCFEF4F5FDEFF009
FF02010CF309F60A
0B02FCF5F30CF9F9
040EF8F7F50618E4
F801FEE6D1D0260F
ECF4F3EA0DFFF50B
FA02F8E5FB101505
1A10FAFA12120FF8
DEF6FC071A202912
F9E80D04F7FDEBF3
1A1A0D171A0D09E3
D6F10F10F8F40C19
012F223807FD0DFE
030C0D16FE04F0F1
020307FB0DF6FFE7
04FB050F184D383C
36281B0CF408030E
0001EEF4FEF5F9F1
FEF0FEEBF6020C15
22111225300FE106
F50210EC0E12FFF4
03FBE3E5F0DBEDE9
EE04EF130507FE1D
1CF800F601FB1C02
0D14F70501FDEAF5
F4FAFBED01241209
0B12F3001E0520E3
EDF51D1A21161E25
FF0CFAF8EAEFE6F0
F7FBF801F7F9EFEA
082F0CEFF50507FE
220E0B090508F3FE
01E4E1E50107E4E7
E900E4F0FD1503F4
FB0CF0D4070DE913
091F0C090DEAEF02
F1F6DFFFF1E9F8FF
03DDE601F407EFF8
1411F00F17141A0D
15F60115FDF4E6F0
E5E8E0F3ECD2F9FF
FB0DEB130304FC10
1F1012252304F80B
13E5F2EDF0FAE5FA
07E102FA0502FF07
ED14150E070E061A
0CF8FD1206F818FA
0BFF080504F5F9D6
FB010E11011705F2
090C031615FAFFEB
FF12110A0BF91405
010CC0E6FB032C20
FBEE150B0A08061C
140D11FA0C170B1A
F1070A1CF009E7F6
FC09E90100F70001
080A020F1518FB02
0510160F0B12120E
FFEAC3DCF712FFEC
F31408000406011C
0B1D2C0A1C11130D
FB09140908E1D8B5
FC08FDE8FB0A06FF
01F500F3FF150EFA
03FBF7FA121B07FD
F2FDEFDD07EFFAF7
D00CFBF00505E9F7
FDFC1606F11006FB
0312FB02F9DDEAE4
0AE20503E8DCF0E5
FF04F9F1F10400F4
04F606040C03F402
ECE1F0F8FF00FE09
D5DFE5EA0607FFF8
F90D1A0E0F03160C
100C0E00E80914FD
FFFB0DFFFFE9D9F8
FCF7FB0BFC0A1C15
0210191B0A0D0306
EF00160009FE1A39
29210F02FA160906
020E170C1604291B
0202FCF2E9F5120B
0D03F91909120F1A
F6F3EE1D0D141FF3
13011A301E220504
E608F3F7F407DD22
FAE2E3FB10EBE906
F3FA1C17F7FE2A26
0913061614FCF70A
07010307E9E4EFE8
FEF2EBEBDFCFB6D9
CFEBE8E9C1CBF3EE
E5FC0DFAF3FC07F7
07F8F9F9E5EF21FE
0B13D9D7DAFBE4D5
DCFE0D150C0AF5FB
0AF50A0CF60CF505
080AFF000909FA00
06FC04F70AF5FE01
000CFEF9FF00FB07
0103F1DCF2E7EEE1
DBD3F3D5D5D9D2CF
CFEEE5FB0C0CFA02
F8FFEAEBE900F1D2
D4091A060F29ECEF
D4D8DCF4F7F911F2
09F00706070B1305
F52401FA1418101A
17FDFF210BF7D6E4
FA060105F21208F9
02F92822130A2203
1BF6111B051610FB
03FEFFE1E6D7FAFE
0E10E20CF6FE120E
FCF7110F03F9010F
0A0B060C01EFF0E6
C8B8DCEF0E08B205
0CFCFC1612082319
0810040000060C11
04EFF7F4C1C6BFFA
08E8A9ECF92B0717
19FD1E11F2EFFC08
F60A14180903F2E0
E2B6B0E3E7F1FCF8
EA0101150CE7FBF9
F0EFFEDBF206122B
10F7EDE5BBA5B8CC
DE0101FB0AFDE1EA
1E0D0601E3EEF3EB
FC1C35452D1BFFD6
A298CFEDEF081433
0AFBF0E0FA03F4EB
D0D7F609022F3D3E
2BFCB6C29ECBF2F5
D31BD627F8FDDF02
F3EBEBEDF608040E
252A2016F7CDC3CF
DAF40303E809D010
07FCE4EDFB00F8F1
05151D0D261F16EE
EFCED203F5061411
1C2AE501FB090AE7
F6040E041A142315
0B1F0703EEF2F5FB
0B141703080DFBEB
FC03FB0D0CF5F9FD
130E06FF020E0EF6
F6F8E50BF80E0907
04E4F8E5FFFA1029
00E6FC0606FA02FC
0D0305FF0A12FF04
10FF1316FB001D1A
0A0C261612FB0109
0D27F10008F7F603
EBF8080B0F010012
05061DFC00FE1720
06F0FAFF1217F6FC
FF0DFBF70F160100
FDFFF5130AEF08C0
05291F0411FBF3FC
100501FF0411F1F5
090A080602040106
11F403F1FFFAE5F5
F90AE9FFFF09FAFB
FB040EF203020F0E
0301FDF6110BF4FC
08E8E8F4E8FA0A15
FB1CF7F6F5FF11FE
0A1409FE03FCEEF3
0BF7F80D0B27F8E7
ED05F1F6EDF2FDE8
EAF6F1F606F80E0F
07EADAF0F8F3DC0A
F9F71935230DF312
0005FCF1F8F8F3F6
F5FE0E00FBFCF2E3
DFC0E60B0D0D1D2B
2F02F4F807171E0A
F30B0A07F3101110
04E3F1F4E1DBE7F7
F708230C1A202223
01F8EF06F7050C01
0E150719131910F2
F4F3F00207F911E6
0831314B49040D10
1A1E33F1FEF11A25
1316FCFAE4F606F8
03030600FD071B20
18FE0905FF0411FE
FF02150D09F2DFDD
120506F4F309000D
FFFAF8FBF3F9F001
1610D8E1D3D1DEF2
1F2D240808F4F806
F6F3F702F7F3F9FF
05F3F9030509FD06
0BF5FB08FE0D00FB
090DF5000BFBF500
00F2FDF1F9EDECDB
DCDCF1C7C8D5E7D6
ECECF2F801FCF606
01FEEFD0E4FDF3E1
D8DCD5DBF207EFCC
B911EDCACBE5FDDB
D9F103F4FE05F0E4
D40AE1D9CFC6E9E7
EFD1E5F1ED01EDFF
EB00DDF1EAF9F507
0104EBEA180CEFE9
E4EBE8F2EFFFFFEF
FD1008FD0C190A0F
FEF2ECFE0501FC08
FCFEFCFA0A0C1708
16150C230A1B130D
0F1CFC060D03EF01
FEFFEFF5F2F6FCFD
100E06F508050E06
00070F0E0F04060B
09F112F7000306F4
F40901F0FF0FF8F6
F61600100512031A
1B030D04FFF616EA
EEDF0E0E0117F7E6
07FFFBFB0B04FB1A
16E7030E13FCF8FD
121005F0052508DA
F50FEDEAF2F3F7FB
0604EBFA15EF0917
1902F9FEE2ED2015
0D05F6EF0913EBFE
F8040BF60C07ECEF
F6FA0206FCE1EAEE
EC03E2FBFCDB0908
060FF4F10B0B0EFC
05EFED020201FD0E
F4EFF1DB00F8F0F6
0AF80C09E904EDFB
13030C000E0AFE0F
F9FD0704ED06F4F9
10E7E303EC070408
E6FA07030D1E0121
15FC08070312FF03
00F3E0F0DEDEDE05
F70D08FDEAFEF600
060406161B0C0803
0F190FF9E9EFEFF2
F3F1DCF6041A28FF
EC0007110708171A
050A0B18141C0B0A
F6EAFC1FF9020AF7
FEEADAE1E7ED0006
1A020A0FFC0A1008
16170905F8FEE8FA
EBE9EBD3F3EEEBF6
F60209F50F020806
F6FC0C18131C12EB
F9000A1F18DDE8C3
EF000AE6070802F8
0607FA1306060209
1B03F7EB05ECEC06
F6D9F9D507EE0618
050B0409F702ED00
F1FF15161CF3FAF7
F9EBE5F4E9DFF3D8
06030D0DF604FC0A
F610F30100F60006
11FDF7F3FAF7EAFA
EFDAF7F7E2FB1616
05FCF0F90215FB01
F401E90806FBEFF3
F0FF0C15F0EAE0FD
F6F418FD07EF0BFF
0516130A08FCEAFF
F6FD0B07EE0D21FA
0AF1E307F8F7E8EA
11E8091310010B07
080300F801F90916
000B060A2001EBFA
FB0013FFF7020D10
07F9F60AF8FDFCE4
1108130AF0FAFEFA
FC07F7F6010BF81B
F6E4010509E9FDFF
F70FFDEB04FFF7E3
E4DCD9FD07F0FA09
F803F5EDFBECE0F3
FDEFEBF4E2D6D3DB
F5E6DBB6D6EED9FD
FAFE0D07FF0AFC0B
FB04F4F1EAE8F8E8
D9CAD2D3EFE8DDE2
F7EBF104F6060B07
F4FC05070205FC05
03F8FFFEFF0900F9
FD0603FC0BF503FB
0BFAFC05FDFAFC08
0707190F08041707
061204E5CAEE1A39
2A07180CFF0104F5
FBFD04F322FC02F9
FBDFEAFE00EBF9FF
09FA021F3A2E293F
0609FC06FF04051E
1CEC2901F0F501F5
FCDEEA06060F060F
2912EB0219EC1401
F903070D09F9F3E0
E7D4EDF0FA01F0F5
03F2FA04070DEE00
02EEF3FD0C010817
02F00408CDF1FC01
F905FD10ED03051D
0C05EE0F1BEEF309
FC0914FBEE060006
0A1C08FAF7EF06F4
0001081A23FE0009
191106130209E8FE
EAD7DC030205EBF5
FF03F90BFB100A14
1B04F51E1A0DF702
D8DB0220F6DDF5FD
FCE5E6F2F30A0607
02071000FB0804E8
0BFDF2EB02DF0B00
F0E3F3FC01F8F1FA
00F8090EFA0F15F7
070800FB130BF1E5
FFD6E910F2D5E0F6
F5F80404EEFBFE12
04010D070FF71219
0D000EEAF4E10DE4
EDE6D9F00CFDECF4
F0110C170A1F0E0E
0905010DF6FE130D
FEEDF8DEE5E9EAFF
F90005FE001B1A0A
14070D05F204F3FE
DC0215180CF9DADE
01F3E5E800F9FD0F
FD0E1B00060E1008
0501F8D7D0E9E9FB
0504F3060BDEEDE3
030A0507110217FE
1202EDF80F07EBC7
CFDDF1F6FD01E1EE
0A01F1F70AF51006
030519FC03EC0410
1FECC5D8D1F1FFE6
041F07F8120EFCED
03030902F52409F3
F4EC0CFF09DBCEE5
D9E80CE4051EF2FA
100CE6F501F713F0
1415150504021201
F2E9D5FF03EB22D9
F1090C03F1FDF8FE
FAFE0001170E1609
000E10E1E5DBD6E1
020B22FC14F7FCF4
FBFAF4EBEDE207F9
0E07191B181107F8
DEE7DED8F50916FD
F4F3DAEBF60404FD
EAFEF7FF00091220
1B0D01E9DDD6F1C5
E4F715001916EC05
060706FB0CF1F2F9
E902020B1A12FBD6
D0DEEBD0CAFD0008
080FD7F8F8060BFC
FBF9F1F5FF090519
08F5E8D9BBDFFC08
F70E02F10605220B
FF1BFF0402090803
08F5FE15F6ECF5C3
D7D7F7FFF20636FD
F7FE24060A07FE0C
0E1516FA0000F1FC
06F4D3D1F00CFA0D
F20CF902F8FA1AD9
FC12FE1C28380408
0C02F305FBE4E4E3
EA1011FFED1501F8
05F5FF0C12332C1A
12200D0D0DF90800
FF250D26110C2110
15F8F60A00F8080A
F9E706FF0BF8E7FD
19FE1D16FEFC1302
02F9F1F700FE04FD
0700FD03F308F3F4
F7FD01F4FCF80603
F7F508F7FDFBF8FB
FC0D0D010104F9F7
04EF04F30708FAF0
EEF6090703FFE8D8
F6FCFC01090DF8FD
FAFEF201F9040F15
12231708F5F0E8E5
F0FD030400E3ECE0
10020D09FAF72425
170B05FF1A311D3D
0AEEF605FC0AFC11
0DEFE6F60505DD07
F9F214F1F6E90DE8
F600F7010701F4FB
F3FD17131205E2EB
F302F602F80B0311
041E19112D1D1F08
0E12050013F1FF03
04FA0E0BFBF701F5
0AF6FE060D27180F
242A210A1709121C
1007150D0E090C0F
14D2D90808FA1111
1320FF050D110E21
222B24081F1BFD2B
140A1A0DFCE8FA03
E80910160C1DF60E
050D1721141E2A13
111CFF1402F30F08
DACF180AF6330615
000505F71003FAEF
01F2F7FAF7F9F6EE
EAE90F08D9D7E60D
F730F804DFE9E6E8
E6D1DAD0C5A8BCE6
F5FFEBDCF1EBF5FB
D8DBFC0C06F0EC04
C9CACBBEB9A3BDA5
96C5D4ED0AFB05F6
FEEBF403DEE4DD0C
F7F4D5F8C1BCA481
96ACB7C4E4F6EF0D
08F501FB00F5E1E0
E0F3020CEEE6E0FC
ABBAC5CEE2F2EC06
1E21130A0C0BEBF4
F1FEFDF1101D11F7
04E2F3F4DEE50015
1F1E27171A220F07
0B030A07FD04F309
16FD230DFAEFF10E
2E25231B0A1F2409
0D0D0C0304070804
FB03E4122A042D1C
09F3141A2E3D3227
0B20150A04020A06
FFFA07180514FCFE
30052014F7FAF927
272A1B1B11050704
FF0B12F5F7F50EFF
F7F603FF1B2220F6
10F70018FC1A0A18
100AF9011610FF02
FD04070E05FCF90C
25001617E2F503D6
FC00F5EBF608030E
0509F700F0FDF90B
03FC00061FF31D2A
F90607DEDAFFF9FC
FC010FFFFB0108F6
FFFEF7F90612F5EA
EE10F6F41500FBF1
DF02EAD9FE0000EF
0A0D07F803F2000D
0D20EAE0EC18040C
0C080C090EFDECFB
FAF6F7F9FD04050B
08FAEEF401FAE3DD
F71D040304FDFB0E
15FCFC15F8FCF8F2
F6F70507FAE9E1EF
FDE9FA08FB1DF409
F5F4F9092D191E0B
180DEFFD010307FB
F70AFBDFFEEAFAED
260616F7070AE11A
3026282F20180D09
0BFD080C1D1CEAEC
DED8F907151C0B0D
03FF07F303113320
F10A111D292A1623
1B17192DFEF406F4
F608FFF3000905F7
F7F7F1EEF21F2832
1536DFF608F5FAF5
E7EFED030D0401F4
FDF8FFF608FEFE03
0AFBF6F7FE0801F3
050109050808FBFD
000603FAFB09FB00
F609FEFEF603071D
2E0DD103F707041A
31260C10F60D0002
F5FA092233EEF7F8
06F2F91B25EEE6FE
05E6F4FB1231202B
1BFFF505F9FAFE27
FAFA0F1CEEF1010B
0B01060209030FF3
F1EA1C271B0F09F7
F9FB31F5F0F41405
F1F4FD0B03FB120C
172314180DF9FEE9
E0E9E50D01FA35E2
F7F80DEBFEF10208
F0F600FE190F2020
150A0F1410F4D5EC
0205020FFC080CF5
EBF51407FCEEF1DD
FF102F131B231400
0C17D7D2040B00EC
D8EFED10DBF7F3F4
F1DCE0D3041B201A
171117FD13F2DCFF
2AF905FBEBE203EE
E8F0DEE3DFE3E3F9
090E101D0D1514FE
F5CAE1F605DA0BFB
F4F4EDF0DDFA08F0
E3F0EBF607FDF925
23F6FB05FEC7C616
F3DE16E9F4D8F0E9
F310F40803EF0201
0209FB0A0E161E02
F1E9DF03F5401ECE
E5E0EBFD0B1D110D
FEF3F60501EDE9FF
1D1519F90AEEDA02
07EF1CDEFAEFFD18
2221091108F2EAEA
E9EFF70814021831
07EBCC0AFCFFFCD1
0EFE120F1610FF04
F5FEF1FBF4FC0609
FDFD101AFDD8BDF9
01F2F1E9E5041322
1F04EC00F4080807
F3FC1713080C1C0C
04CD020808FFEFFA
F919F71521F0E5EA
FE08010EF3F10914
020B02F70AD119ED
FB10140102080113
18FBEFF8060301FA
F30604090D02F6E7
0EE60728F80BF7DE
F4050D111E0BF9F5
10050DFFE9010B02
FEE60A0204150F37
1C17F0E0ECEDFE10
1D1CEEFEFF0DF110
FD180906FF0D1411
2620FCF0023F0EFC
FBFCF2F92414030A
05F5E5F3F905EEFE
FBF3F7F333241309
003EF0F307FB00FD
FE162301FBE4E3EC
05F2F9E7FAEEEDE7
142F05071418E8FC
00EFF500FA09300A
E5DDE3F7070915E9
E2E2B6E807301904
1D09F7EDD701F9FE
04100B0DF9F40504
16110DF3ECCFB4E8
F512080F03FAE5E6
CAFA0107041F1214
06100508FAFEDCE4
DDD8DCFAF802EEF3
F70308FE09130912
0E1C10FBF8DDE1D7
E2E4E9E604ED0A0D
1FF8FF0D0DF8132C
2F1A0721251D0603
DDE7DCD900EA01F7
100B21F1D7FEFBF9
0B08FF0C1D03FE07
0AFEF105FA1A1422
0CE3E5F3F1ECF4E9
FBF1F70B0AF8F4FF
0C10120D0611EC11
22062023F7F8EE12
09FA11F80A000804
030CF90D0601F3FB
00FAF402F7FC0B09
FB0BFD0BF8FE0C0B
08F9FF0509F5F502
0E070C1D05141E29
230A0B2F35281227
2C17090EFD01F304
0CF7FC2625FF1113
243036481B141715
15EA141222180D18
FE020AFDFB05EC23
FA0416152C242E3C
1A2423FF0C142828
01170E1B13023302
02FADFF1E2EFFDF9
0A16182418060009
121112FAF0FAF3F0
0D01E5090508DCDF
0A04F5EE09FAFF04
081714081AFD08FC
F3FAFBE1F20520FD
FE0614EF1C02E4F6
0FF60009100A0C0C
02F2FB14F302EDEC
E51FF1FDF4071F07
1404E8F913010510
04030206F70C20F5
FF09FBE6FF0CF314
30191BEC12120013
0118081403051416
0502FAFD0F14ECFC
EDF90708062DEA15
1F120C0CFCEAFBFF
05061F0AFEFE0414
100CF8FD0C0A0CE0
100D0AEE09041105
0705F9FF0B1615FF
11F809FAEF05F91E
00D804EE05431BE9
0A120B090108FEFC
07111C0004F6F7F5
FBFD030002060EFB
0C2308EBF0FEF2F1
F5F3F405F001F70A
F80901EDE0E3E70B
09E505F2F50706F0
F0F0E8F4E6F0FCF0
F3F5030001FE03F4
EBF3FC20240B0E04
05F621F5DCEE01F5
ECF60003E6E71009
F10913F2FFFDFB04
FA061810FAFB0BEE
0B080C19FB0BFDFF
EEFEF9FCFDFC0AFF
F0F904F809100F0C
FEFB09FB20FB1B17
0509FDFBF4E800F5
F00AF4FB04EB0214
0116142008F6F0F7
060A1520111307F8
FCE8F9F80FFAFB06
09EEF8111D1F1D2B
15F9FFF80618221B
261015F7FAF9FDF8
121A1B0E09FCF501
1DF92C10FE2707F8
060E151D2D292A21
2F191A0C08120504
20FFFF1301ED0AE4
F4080909F111F320
1717222124160C0E
FCF906F013F204F9
E7E2F8EBEEF4F6EC
F6EAEF1707131410
2B110E09FE0DF6FB
00FE00F0CBFFF2F7
EDEFF2E2E6E3F004
00F0080115070D05
16F8FA09F6EEEDE1
EA14CA000309EEEA
03FBF3F60001E9E8
08F5EFF5180E0500
0A0C02F3FB0DE5FE
0BF9F3F4010C03E8
F6F6ED04FFF0FD07
150D08F7FE00DED7
10FA1202F9F9F013
0DDB03FCF8EDFBF7
F4E907290C2003F5
F1FFF6F9FCFD11FD
F9FB0605E8DCED00
141917021B191E22
FCE7121D14001AF8
FA0C020CF4F9FDFB
F80A0B110F111B19
112510FA111F132D
01060E02F8090002
0B04FB0CF409FF07
F401FB0B0EFF00FB
F7F50A0CFDFAF50C
F80DFB090406040B
0C0E1407100B0509
0DF1F417F40E1A2A
251405190804F308
0D010904101A070D
25181D2D19181A37
392510110B0EF606
1309FBFA0308FE02
EA062D21171AFCF8
0B15FC010C09110D
FDE20705100A1DFE
F7110C0C0E25461E
3C0A091613F80BF5
F4D3D4DEEBEEFB05
F3FDF703020821F5
111B180203FDF9F9
FF120808FAE0F2EC
EFF8FF180104000D
FEFA0A10FFEA02F2
F508F50EFE1A1706
0A0707F0F7FAEBE5
CCD7F2D9F4150A0A
EFE1FEFAF2FDE8F4
000D0B2114FDF9EF
FF0CF4DDCEBDF8D2
E209E3F40BFA05F0
0BFC08FC00130D09
F902FBF6F00606DF
D5C4E0F1FBF30A1C
FEF31616020E0F09
09091B1306060305
06FC11EED2CCF917
0501EA20FA041B13
0806F1F3F6050E13
FEFCFAFC0B080304
CC01002202E7EDF3
10FE0B07F5FD00E7
DE021811090F1B0C
2817160ADCDCD21A
0403FEFC19FBFADD
EAF6F2FDD2E9221E
10201406F905181B
EDD2E31114FE0CF8
1705E4E1F3EE00F3
E5E9171215181205
F503162117F3030D
0C0CE2FB02EDF6EF
F50104F300030F09
07FA0010F809140B
F1E409F707F2DA09
FEEFFDF70304FA13
FD0907010404FA04
FE0FE5EDFCEF0620
0F01081211F4F7F7
09FB0202150D05F0
08020B04F6F408F3
1D0023FEF412F7FA
03F1FAFAF4071308
140C1001EAF50306
EAE1F3E1E50624F3
09261C06FAECE6E9
F6FE11FF020E0DFC
FD0D0A0806F7E6E8
E91E0202F722FAF3
FEE1E80E03FFFDFB
0EF903FC02F60B0C
01F2F8EC002B08FE
FCEDF0EF0BF10506
00FCF7F0000E1B0F
06011107ECF6FA08
FC18140C1312F60A
25150E0600FC09F3
17111315F3F40702
F9EFFDE7FFF9E5FE
170FEA0924380AFB
F4F4F5F60D1E0006
04EF07F4FFF3FBF6
D6E7E4FEFE0CF503
0E2712FCE8F7EB03
03FFFD0C020E0DFA
05F6030EFBECDE00
01FD0BEF11FFF8FE
F0EF0AFBFFFBF105
FD0B01EF0D180D0E
09EDF906FBFB13F1
29281D0013190C14
1C1D24FB0C1F0F01
0E11FAFDF009F8FB
FE04011B161C2A2D
182834222A142B1F
202918134E22171D
FEF4F500FAF302F7
F60A1C1F121B01EB
13243F241810171F
0D1B1707F3FE0505
02010C080D080103
F8F6F50906FD0401
0CFCFE07F9020804
0B080303F9FD0908
F60A19170806FC02
FE04FAF90C18030C
060C0A06F4FC08FD
F7060E1316020C10
FAF4141805E8EE0B
1714F210EE010EF7
FD15F3FEF404E513
15FD21100F17151F
1A05E8F6F8FDFDFC
1B2012EC0F040EFE
0C02EA0FEBF6FF00
FDF3E7EFFAFA0DFD
E7F70B1B1BFAE9F6
0E1523F30CF3E910
E3001D0FFF02F104
E8DDF60F09ED170C
FAEDEDF00914C9EE
FDF80100CB001116
160D0D1504F9F71C
0408F8F2F2EFF4E4
F6E9FCF309DE00FC
D8FFF80CFE140DFD
FCE9FEE9FCF902EE
FAFB01FFE8FA0C0B
01F9EE13F7FEF4F6
EFF7FB0BF2E7E9F7
08FFE6E9F5E9FB05
0C12DEE2F812FC1F
F1F7F3ECEAF1FCFD
0401F1F810FF06EB
03FA01FB13FADC1A
FA06020CEE00FDDF
E90303F3040B0525
1618140C0B00F4F6
0A18FC0B0A130DFD
F007FAEA12FDFB13
0A200E251C100301
02FEFCF6DDFEC72C
0BFF1FE8EDF9F5FA
0B07100F03121709
FF0619120A0400D6
E416F5EDF31316F6
DEF700050E132516
0F0AF6020EFB270E
06F8DEF1EE02EBF9
F3FC0000F8EB020B
191D0F11040CF7F9
0618220A07E9E600
0DFD091D0DFDF1F5
FEFC031605000814
0400F111061810F9
EF0A04F6200C0025
F2F3F7FF190C0711
20FCF30C1402FB11
231B100B17090F15
1AF62813FAF6EFFE
011916F206111511
04010A30272E1A00
F7FD04FD0CF92711
1CF50B151B200DFF
111A1921FD122819
2D150C0B0203F3E4
F6FD1721F906FC24
290AFDFDFD060707
020C1E1D0AF0FF10
F3FEF8EC0504160A
0705F3191FFFFEFC
EF0601F90908FCFD
E5F6F0E4DFEBF1F9
070F02FC0C140904
07E6F1E7E2E2FBE7
F5FBD6D3DCCDECD9
EEFB01E909210FFD
1B18F5DEF1E0E9F1
DFE402E5E6E4E7EF
E8D9D4EFFE0700E1
FD17FC05FD0707DC
EAE7010BFCFE0AFC
FFE4DDE5ECE1D9D6
FCF10912230A1DFC
02F6F9F70404F5F3
07FBFEFDF4F2F3E6
EE0404F5FF0A1020
280301F80AFC0515
3A1AFCFEED0A0908
120D01FBE8EAFBEF
F00C0E190DEE0AF9
F5050A0CEBE80C08
EB040B08F81E0C14
E8D0E1192511130A
05F70BFE02F4FAF3
FB08FE01FBFE0EFA
0B2714040706F60F
03010E1CF400F3F5
0BF7F602010307F9
F5FEF90204FA0407
F7060709060C0BFB
000B03030AFC0CF7
FF0013160F0C0B0C
0FFBFC08FEFE1317
19041103FF000506
00FCFA0603FAFB1A
11FAECF0F9032E36
341F201E1825180A
F0F30909FFF30E13
111604FD210F0911
170824061D0C1A1A
1404E0EDFAEDF909
FFFA1213F904F201
170BFE1519FBF80C
0DF700EDF30617E5
DFD4FEFF0BFA051F
0D0DFBF300EA0C0B
0106091A19FC1702
F8010C18FCF10004
09FDE0EF1503050F
0409FBF8FE01FE0E
04EE06F3F40E0A15
153B1B0A0B01D6E6
E7FA0304F6040205
FEFD0A0503F4EF05
02FE0916251DFBFB
FB01D3E0EAF1F2ED
FF0108F8FD020317
0A090902FAF30EFB
FE33F0E108F805ED
04210D01F50E03FD
FEFDF31EF400F903
FCF903FB0208EB08
0505F9F4F61BF1ED
08F2FB030B080E0B
0C03F2FC0616FA13
13F0ED0205F1E5E8
FDF8E2FA06F707ED
F9F7F2FE050709F0
0F04051112DB0112
0AF2DAE306EEF710
030F1204F9F6F8FD
F5FEF8FBFE0C1322
0BE70C120B02E1D8
1CFF01FF08F8F707
F9FC04EA030AED02
F3FFFC101707FC00
F90EEDEE11060408
FC02080505FEF8F7
F4FFF503FFF318FF
0112E3030207181B
0903FCDFE2E8F711
04F9FE0EFFF3E3FB
FB121E06F00309FE
FE102B0EFEF8E7E1
B5B4C9D9E3ECF8F1
FCEBF9FE15060D03
04EEFFECFB10181F
F4F2E4C8CDC0A4AC
AACFC2F1E403010A
0D0711FCF4F0E2FA
DE081C3BF6DDF8FF
FFE0DBC0C4CDE501
06030C01FDFCFBEE
E0E7E7F50C05FA2B
0307F015170F05FD
15EBFB0D13F61201
F8FEEAFEEEDCE3EC
FB18ED0A1709FA12
22202629221B0AFD
13090C0A08FCF207
EDEBF6000A0E0115
1F28141D281C2D1A
1F1C08060C0406FC
FF02FAFF10DD0500
07FEFC030D1D0C03
1B110C20131D1116
0D07120C0EFD0915
EEE40DFBFBF31100
D0F101FF0101FE20
0D190A1F0E152415
FC14FFEBE3EC26FA
0CF70001EAFDF9FA
F30B1B030B0DEE05
0D12FDF9F1FCFBE6
E1EBF4FF070527EC
18230708E1F3F2EC
F407F2D7DEDFDAE6
E5D9E409F7FCF7FB
F4F8FC12343C29F1
C5F805E7E1ECD6BB
D8BEB8C4E7EAF0EF
FEF6F9F909F50000
FDF1EEF2E4E9E5D1
D8D7F1F1E5CAFA03
0800E6FC070DFCF6
0AFDF3FDFBFAF307
07FA06F9FEF5FAF9
0D0DFDF8F3F7F50C
0C040AFBFD04090C
FAF6FCFE0C02E900
FC0F230B00FDE2D3
ED01FAFCFB070CFC
F50A0011F4F6FF03
00EEEAD20201EFEC
E4E2D8C3B5D5F4F3
F0FF0C04F4F30BFF
18ECD6CCCDD6B1AE
F0DED9EDE9EAD9E2
E60513C7CFEBEC00
00FFE8E5EAE3C0BB
BCB5B1C6CFC8D9DD
CFE5F7CED8E7D0AA
D2ED1F010A03EEF1
F5EADEEBE9E9C7E3
D2D7C2BDD0BFC2CE
E0FFEDD2DF051FF7
F903180FEBF4DEFC
FDF30E16F8F402E8
E3F3F90DF2F604EA
00190B1FF9D419F3
D3EFE0FFF4FD0C0C
0A2318FA19180F1D
1E10250BF60C0A10
E005EE03EDE3E0E7
0E00F90117130513
20201311170E0A21
0E0E0E110727FA18
FAFB08090FFC0A0E
2E1A271B18222118
0214FD04130C1404
F61514FEF2040C06
2218201A12302618
0BEF15160B220AF3
05331FE7F6112B09
180D1210100B0203
202C2A1003E904FC
F804081A0F2226F3
0C13092033210813
1A12171BFA041403
F9E6F2F7FFF8090A
DB2016F201FF0218
3F17E8170A010E06
030A0FF8E9F1E3F4
07E8F3F8E9030300
0B06FC150C04FB19
0A12FC01E509F5EA
EAF1F7020B03080F
02F01F2501F8CAFF
0D140CF5F9081007
FDF1F1F4F9FF0601
1000FE010DFD0EF5
EEE4F2011D04F8F3
09020306FB00E8F8
FB130707FDEDF815
21FB2A0508F1DAF2
0003070711161901
F30B0E1411FDF2FA
03F6FFFE15FE031D
23EAD5E0F9050010
1A00060B03050501
F4FFFEF2F3E81404
06F2380E09270EE1
FD0D0FFD04EAFDF6
16FEF805EFFDEE05
F6011D0DFCFEF3F5
FA27F8DA001C06E4
EF00F5FAF70A00ED
EA04F50806030205
0C1FD50EF5E1EEE2
2C1200E2F4F6F2F2
E9E7FDECE5EEF902
0501F2F9262A020A
F0FCEB03180308F5
1214F5EF07ECFAF4
FEE8F1F5FCEBE519
291C080BF30AE80B
1610080BF3010801
06FBF8E2F9F0F2F8
E7F905082206FB0C
FCFA021F1A19ED04
10FC10050F02E6FF
EF0E05F9FF06030C
15F1ECFE0101FE27
1F2DFD1312F9F7F1
FFFA010D0306052C
1F0E06F62709E30D
F90DF50F0225253F
204722050D22211E
020A2E41301B1611
00000D0802F90D09
FAFF0A0C1009361F
21353B1C1215F709
12121A0FF8F906FD
F803F3F8FB09FFF9
FDF50303F2FD0B0D
F3F5FE0800F7F505
F801F807010807F8
F9F7EEF9ECF0FA0A
040C1D040702FE01
02F8F6F20606F60B
FC07F6F5E6040104
FD09ECFEEF130B0A
33191018FEF4ECFF
221107F4F30AFCDB
CE140F2814301619
0700101B0F1412FC
F5EFF8F8E9FB0908
F5FA24E206172C29
0C00FE00080008F8
151B191112E2F9D3
E427E0F7FE0B21E7
F304030A0E0908F0
E5E0F5F801121C1E
23050E181729C5FA
09FEF101FE110902
FD04FEEEF4E1E0F3
FAFF0F0B2116FE06
0811F4E40C02F103
F0070808F40C0505
0AF7F3F20512131F
051BFC0EFFE5EEEB
D0FEFC110809F6F8
F9F5FE060FFACDCE
052B38180EF901FE
DAD0E6FAFAFB010D
F000F8ECF8FEFBFE
04E6B5C5FB203A19
06FC01F4BEEEF50C
08FE1A18F0F2F9DF
FA0C01F6E6DBACD1
0F391C180403FCED
D103FE07F4EEE9F3
F2FDF1D7EF01FADD
DBDAD6F009171B14
FA0DF9F4F1EEDC06
0808F600F305010A
11F7F2F900F4EF01
FE03E9FAF6FE1304
110FFFEBF8FDF301
020BFD0BF9DFE6EF
FA04EEF3F604FFF1
F1051208172615F3
000DEBED06070517
04FAEC06F6F4FC01
F80F070B140C2C01
131CFD0E0DFBF2FC
001211F40102FB04
030D040403FC0221
1912051107042403
0311FA0DF506F2EF
FC160403FA200AF4
EDFC0818FC070001
0CFE1403040F1CFD
0F0EFE0117050F07
FF02F7F1EFFD0E0E
EFEFFAE5E40112E4
EE0D0E0C060D0804
FAF8FBFD111206FC
1015170EEEFEE8F4
FD0AEF04FAF20D22
121317150C13011A
161008FF0B0A0C01
0300ED140211FAF8
F9E7FF1B15FB1513
FD0E07F4FCF10702
1317031D0D06031A
140D0BF40C08010F
F1FC0F090DF80700
02FBFF0718231F11
10F501002D0AFC01
0A0D06F506FF1712
11080B15F809FC04
1B11120711FE0D04
1C05F2F8F7F908EF
F001071106FCFC06
05FE0D0D0D0B1415
060E0DF9FEF1E90A
FBFFE4EF0505F4F9
0EFDF9FAFD03F4FF
030EFA0CFE0D1811
090D0F0DF50D08D8
BADAE1C5ECF5F2DB
F1F302F10B0505FE
131803F404FE090A
0407F8F6EDE5F0CA
CA141E1216102701
09FAF9FE1D1D2114
0CF8FF05080BF9F6
04F7FA0302F6E3DC
F6E1DAD5F5D8DDDE
10311116FB08FD05
060C0A0CF5F5FB06
0C02F6F405F60203
0AF3FBFD090201FE
04FF04FD03FCFA07
0DFB0C07FDFD0EFD
FE0BFEF704F3FCFA
E9F5F703F8F60A03
070CFDF802FCF906
07FDF9FE26160AF8
06230EFB150C15E8
DFEFF6FA04F7E4E4
04010313FCF1F504
090A30221926533D
302BF7EFFEFC06FC
F50EE70400FCF2F3
03ECF9F509101E07
EAFB0E1E242F1422
1B042406FD07D611
F1000303F0E0FB0C
00FF040615070E09
0A08181F19F9DFEC
09FAFB10FCF1F314
07FF060A03180B13
201014EEEEE61315
19F7F80CFF00F2F7
F9FB00EFFFF4FE18
141C12110002EEF9
FAF0E919260FFBF3
F1D6FE0306FDFAE8
EF010507F6FE0705
0501FB0616041311
3410FEE4F7EF0D0E
0900F9EBF0E4EF0A
F9EEF7F30508FF09
030900FB01FAFFE1
F304DFE30407EDF0
F9F6F9ECEADDF7EF
FCF70A0E03FAEC02
07F1EBC8FACCF3F3
02F9FAF4FE0EFBFE
EBF408FE08FD0D0E
0202F5EFD9D71EE4
EEE1F717FF090B09
00151319120A0E16
F8FCFA131305F3F8
D8D2E0E7EFEBCF09
1A2409131E18181D
3A301B1D14080111
2003F1EFE6C8BFE0
04F7D9150F120D2A
2A2A15281C211410
0E1C1A230C0601E5
F0D0AEE1F4F90819
07301E181BFB0803
0819141517251511
090DF7F8DDEBDEE4
01020F131049211A
1906FF0608060F20
1C210F0D1EFB15E3
D5E4C7DC08FA1519
1733150F210CFBF5
0103F2F62217030D
0FFD09F1DEC7CFDC
F4060D14260C1D0B
2105F0F4FFFA0B14
31100315150307F5
DCD9F1F012D1EE16
1911F50FFAFAF5F4
F2F5F20A0A070610
121101E4E6CEDEF8
08EEEB010C10FD04
01F6EBEBEFF8EDF5
FCFFFA0E0B080AF1
EAF1EEF5DFEEFBF8
0B180BFB0EE9F3F1
F9E7D8EEF904FCF8
FDFB02F3FFEFF005
F8020819FD02FD0E
F7FC010307F3EDFD
FFF9F40306F1F61E
02E60BFA000C1D2C
EAF9000105ECFBF2
F4F6F5F90B0AFBEE
06FFFF1812FB08F3
04F919091130102A
14141704F1F8F6FE
0600F2E902041227
FBEA04F6FAF51DC4
133B0A0206061100
EEEBE2EF07ED031B
09FAFD0703F6FB00
F7F3FE1F07260C0F
EDF90B00040D0509
1A1206FF0CFD09FD
07EFF7F602F803F6
F7FCF4FBFFE9ECF3
08FD1C120B020FE3
1AFF10ECFE0AF800
FD0CFF020AF406FB
01070DF9F40BF604
01020BFE0804FB0C
F401FFF70A0A040A
FD02EDEBF6F7F7F1
F2E6F7E6DBE7F3E8
D8ECF7ED0903010D
04F6F9E9ECFCF0F5
DEDCEEE2CC0B0007
00F40AE7CCD9E6CB
E9F0F7FC03090FF1
1ADDECF2C7CAD6C8
F400F1FEFC020CFE
0BF9080A0202E605
F30B121A1215FFEE
0FFDF5F70CF9060D
180A0D11060F0808
13EC10FD05FA1D20
CE210708F506F50F
00140C0D160FEE00
FF0010FE01FA231B
FB0B0E02EF0A0305
FEFDF904F70F120B
0406F90807010416
FD06171404ED06FA
DDEE0210101209F8
040D0A110BFE0B06
06FFFB19F3F80425
DC060114ECFF0913
1810170B02101614
F3070415FEFC1A07
2C11091D04150315
EFF810161C1803FF
090B081606130E0B
0A171C17371C1FF0
0E0303EAF4F20F1B
0A0908F6FE031E1A
06F20703F40E2123
1111140E0EEF0C1A
211A03101C0A07F5
0914180C04F50E08
FDF7231D251B3311
0E130E14180C0311
0706F103F9F71A1B
0601081100070EF8
E81024240108FFFB
11260701FEFFF4F7
E6F92310120007FE
161214E5E7FE0503
F5FF13F5010F0F08
1206EEF0F1010E15
0B10ECFDFF00F5E1
E51CFF070B01E003
F2F2F0EDF6FCF30A
FC021DFA1402FBFE
FEF1FEEAF1EBDFEC
F8EBDCF81BE21203
F5F5F0F2FF19FFFC
0CE2ECF9F8EFEFE2
F0D7F4E00307D9EA
1FFA06F2E3EFFEFA
171310FFFEF0F2F4
FCFEECEE03CC10DF
2C02FCF60508EBF0
E80CFB0200050602
F6ED01001C060108
0EE623DD0811F2DE
00ECEDF40F04F2EC
DE01FEFBF103F1FC
03F2F4F41EED18F1
FD22E0EACFF606FC
08F0FBF2F90B0CF7
FD05000BFD06070C
03D917F01108DEFF
F722191204F0F2F8
06F2F10E0FFFFC06
111CEFE5FDE0F1F9
10FDD2FF16210802
00010204FD020E0D
0B09FAF81C0A01F2
03FC13050404CDDE
0D0005FD08FE010B
08FDF60F0B05F107
1401FEF101103008
02F50BFAEBEDF2EB
E901081D09F7F7FC
F9EDEF1001160E0C
F3E0E502F9FCFA1D
F7ED03F8081E0B03
10021E121A36160F
191EE7F60EFDF60A
F805F7EBD1E0FF14
242904EDF9122937
1D383C26161909F8
240102FF0900FB02
071101011D0819FB
0B1606FC0A08E219
F0161413F9FBFDFF
FB0DFB0C0CF40204
0C0608F8FF010AF7
